#version: 0.2
Ġ e
q u
u m
e r
Ġ a
Ġ s
i t
u s
i n
Ġ qu
i s
Ġ p
a t
n t
a m
o n
Ġ c
Ġ n
a e
s t
Ġ d
e m
Ġ m
o r
Ġ in
i c
u r
Ġ v
Ġ t
Ġe t
u t
Ġ i
r e
Ġ f
l i
e n
Ġe st
o m
e s
i m
Ġ h
u nt
o d
e t
a r
a n
i d
o s
e c
u l
e nt
Ġn on
Ġp r
i a
i b
o l
u n
qu e
Ġa d
e d
o c
Ġ re
Ġ l
s e
u d
Ġqu od
a c
a b
Ġ ut
e l
i us
a s
i am
i on
Ġe s
Ġqu ae
Ġs unt
er e
i l
o t
o p
Ġc um
a nt
Ġd e
Ġs u
a l
ib us
Ġc on
Ġe x
Ġqu am
Ġ E
Ġ A
Ġ I
i o
Ġa n
Ġ S
a g
Ġ C
om n
Ġes se
Ġ omn
Ġd i
Ġm e
Ġ D
Ġqu i
Ġi l
Ġd ic
e st
i h
en d
Ġa li
t a
i ae
it at
Q u
i p
Ġp er
or um
Ġa ut
Ġ 1
t er
Ġf ac
Ġpr ae
Ġil l
it ur
Ġ b
r at
is t
r a
i um
at ur
o b
ec t
i li
Ġ P
Ġs i
Ġs ed
p er
om in
Ġ g
n o
Ġe n
Ġc o
Ġ Qu
Ġi p
qu am
i r
en s
Ġh ab
Ġt u
Ġen im
Ġp os
Ġ N
u it
c c
e g
o st
Ġs c
i v
Ġe ius
u c
Ġqu id
Ġh oc
Ġp ot
ar um
g n
ae c
un d
e b
Ġ M
is s
Ġc om
Ġa p
a re
Ġqu o
or t
Ġ (
Ġv er
Ġet iam
Ġs e
p t
Ġip s
an d
in a
Ġpos s
Ġaut em
Ġa b
ih i
Ġv el
Ġv id
it a
Ġ u
Ġ 2
f ic
Ġm ihi
g o
im us
Ġ r
Ġ op
Ġs it
Ġi d
Ġe r
a v
Ġ L
er unt
el l
ion em
Ġ H
c t
Ġn e
Ġc a
Ġa m
ul t
ĠD e
Ġ R
Ġan no
em p
Ġp ag
l ic
Ġ F
Ġpr o
Ġa t
or e
Ġp ar
ih il
Ġt e
ion e
Ġpag ina
Ġin c
Ġali qu
Ġc u
is c
er it
Ġap ud
Ġv ol
Ġ T
et ur
Ġcon s
Ġi m
at us
Ġp l
Ġn ec
Ġqu a
Ġn ihil
Ġqu ia
Ġe a
li b
Ġt am
Ġe um
ib i
i or
Ġm ag
Ġ V
er t
un c
ĠE a
Ġf uit
ar i
es s
Ġpot est
Ġm a
Ġs ol
Ġ un
Ġt emp
. .
in g
Ġa cc
Ġ Ġ
Ġes s
us t
Ġ G
er um
Ġin t
Ġsc r
Ġpr op
Ġ B
u b
Ġco nt
Ġcom m
Ġm od
Ġe o
â Ģ
o v
Ġs um
Ġat que
i g
Ġh aec
in e
ul l
ob is
Ġf ili
Ġin ter
Ġf u
Ġ or
Ġ lib
er at
t um
Ġre s
or em
Ġh omin
Ġs ec
b i
e p
Ġs ic
ĠE t
in c
Ġdi x
Ġp at
Ġb on
f ect
0 0
li g
o qu
er i
in t
Ġre g
at um
r o
Ġs t
Ġan im
r an
d e
r i
r um
Ġ ita
Ġc re
Ġm in
at e
Ġa r
l es
Ġt ibi
Ġomn ia
i ent
Ġc or
u li
Ġn ost
u pt
at a
Ġl eg
und um
v en
it um
er is
Ġf ec
Ġne que
unt ur
at is
is i
Ġv ir
Ġv en
iss im
er s
a p
ab ul
Ġquid em
Ġa nt
Ġl oc
Ġe rat
Ġ ,
it er
at or
Ġl oqu
Ġt er
i re
Ġ1 9
Ġ O
Ġd ol
Ġs p
ĠI n
cc les
Ġqu is
Ġa l
ant ur
Ġ us
Ġinc ol
Ġe go
Ġn um
e at
Ġ oc
Ġs er
Ġsu b
Ġm ult
Ġa ud
Ġ 3
Ġp ost
Ġm ort
ist i
Ġca us
i fic
Ġ -
Ġ ob
Ġips um
end um
Ġpr im
Ġm an
Ġtam en
l e
Ġmod o
Ġomn es
Ġd om
es c
Ġscr ip
i i
ur b
e o
f fic
Ġn obis
ĠD omin
Ġim p
Ġqu ibus
Ġvol upt
Ġincol arum
Ġn os
Ġ "
it as
a d
Ġan n
er o
Ġmag n
Ġ U
ent ia
Ġcu ius
er et
Ġd u
am us
Ġs im
is se
Ġess et
Ġ o
Ġn isi
ĠR om
r is
Ġsec undum
ud ic
al is
Ġn atur
Ġcomm un
x im
ion is
i at
re s
i unt
Ġaliqu id
Ġqu em
Ġde b
ĠS ed
it us
p on
Ġg en
d am
Ġa g
a ud
ĠA n
d ic
Ġs em
Ġver o
Ġn ull
at i
Ġa c
i is
Ġ rat
itat e
Ġi am
Ġpar t
Ġprae s
Ġer go
itat em
av it
c ip
t us
Ġv it
Ġv oc
c h
Ġp ut
Ġ urb
Ġ ist
Ġe am
i e
g itur
f f
r ae
Ġp ec
Ġant e
on iam
Ġill e
il e
Ġt r
Ġco g
Ġn unc
Ġt abul
ĠDe us
ent ur
or m
Ġqu as
Ġr erum
li us
ia s
Ġc ur
Ġhab et
n e
Ġsu per
Ġr em
Ġs an
p e
Ġca p
s i
u i
ic ae
u x
er n
at io
and o
Ġh is
eb at
Ġip se
Ġex p
" \
Ġm al
Ġi udic
ant um
ion es
u ius
em us
Ġe i
Ġc iv
ĠĠ ĠĠ
Ġam ic
"\ "\
st it
at em
Ġver b
end i
ĠN on
Ġ [
Ġdi v
Ġi gitur
Ġd isc
Ġi ur
d em
Ġe ccles
er c
Ġre p
Ġap p
Ġn omin
a li
Ġsic ut
it ud
Ġ âĢ
Ġ Â
Ġdix it
en e
o g
Ġ1 8
t or
Ġ 4
ul um
u g
at ionem
ul o
Ġcu i
ran c
Ġd ec
. [
Ġma xim
Ġd ed
Ġa s
Ġp op
d it
se qu
Ġsu a
Ġmort u
Ġill ud
0 1
itat is
e pt
Ã ¦
Ġomn ibus
Ġcom p
Ġqu oniam
Ġill a
Ġd es
or is
Ġ is
s um
an no
it t
ing u
ic i
Ġme a
Ġint ell
Ġt ot
Ġquo que
Ġe orum
Ġp u
in em
Ġ2 00
r am
ub lic
r im
ĠQu id
Ġco gn
d i
ic um
ent es
Ġmag is
Ġdic itur
Ġtemp ore
Ġ :
er a
ĠF ranc
Ġs ent
o nt
Ġser v
Ġcon c
ic a
Ġe os
Ġh ic
Ġdi e
Ġomn is
itat us
Ġf ort
iss et
Ġre c
Ġposs unt
Ġoc c
ir c
ent um
os c
Ġm ol
Ġcaus a
Ġl it
Ġg rat
Ġscr ib
qu id
I I
Ġsem per
e x
Ġa ct
Ġus que
e li
ĠRom an
Ġcor p
Ġcon f
Ġs ine
Ġfac ere
r em
ĠQu od
Ġs int
Ġtu a
Ġd el
Ġill um
om en
Ġv os
i et
ĠC h
Ġ Ð
Ġp ublic
Ġin v
i os
r aec
t in
Ġi ust
Ġma ior
Ġe l
b us
Ġv iv
re t
Ġin f
qu it
ĠS i
Ġf id
Ġn ot
Ġc l
ic us
Ġsu o
Ġnum quam
h e
Ġposs it
or es
Ġse qu
um que
Ġprae c
Ġqu os
Ġf rat
Ġe is
Ġips a
Ġn am
Ġl ingu
il is
Ġmortu us
Ġmin us
Ġ 5
ĠA t
Ġlit ter
Ġc ar
Ġsi gn
ĠA m
Ġin s
Ġdic it
Ġt en
Ġu bi
ur ae
ĠC om
Ġc ol
Ġpl ac
Ġ '
Ġper s
Ġm is
Ġm at
Ġl ab
Ġcre d
Ġprae ter
Ġs ibi
Ġde f
v e
at ione
is p
Ġpr inc
Ġv obis
Ġsol um
Ġsu am
Ġs ae
ĠN am
Ġm or
st ant
Ġn ov
Ġer it
Ġe p
Ġs ap
ur a
Ġbon um
Ġ2 01
Ġvid e
Ġfec it
Ġop t
Ġd oc
Ġcon sequ
t i
l um
Ġh uius
Ġcommun e
er m
v it
Ġop p
ul a
in is
Ġb ene
Ġprae fect
i ens
s it
ent iam
Ġpro v
Ġex c
Ġf i
t o
Ġv is
ĠI ta
o ed
u p
an c
Ġquas i
ili a
s us
.. .
ic et
end a
Ġv al
Ġmol est
Ġn eg
Ġme um
Ġpr ob
Ġc irc
it ia
Ġp a
ent iae
Ġali ud
od i
od o
Ð °
Ġn omen
Ġc ae
Ġin ven
Ġres pon
Ġd omin
Ġre d
ĠL at
in o
Ġt antum
an n
Ġprinc ip
Ġvid etur
Ġc ert
er em
Ġv est
and um
ul ta
Ġm em
Ġil li
Ġsum m
Ġf orm
Ġprop ter
Ġf r
un ct
Ġfu g
Ġpar s
Ġcont ra
Ġ 7
Ġs al
ĠDomin us
Ð ¾
ĠA r
Ġ j
l or
Ġfac tum
Ġal ter
Ġu x
ent i
Ġad h
or a
re h
in i
1 0
Ġn esc
Ġqua er
ĠG raec
x it
Ġ 6
Ġnull a
g lic
ul us
v ers
Ġpec un
Ġa et
u e
Ġd uc
Ġt um
p ic
or ibus
) .
im a
are t
Ġposs um
ar ia
Ġnatur a
Ġmaxim e
ĠI s
Ġvol unt
e a
il l
on g
li qu
ĠDe i
Ġe g
ed it
an s
Ġsu um
Ġqu ando
t ut
at o
Ġim per
Ġsan ct
Ġm und
Ġ und
m on
ut a
ent em
Ġter ra
er etur
Ġi us
Ġdic ere
Ġt ran
om o
as s
itat ibus
Ġpraefect urae
Ġdi lig
ĠQu ae
1 2
ul is
Ġex t
Ġnec ess
Ġg ra
es se
Ġill is
Ġin g
al e
isc op
ep it
ĠDe o
it e
Ġt est
f er
ect us
Ġill o
ĠCh r
o li
Ġo ffic
glic e
Ġs us
it i
c r
Ġprim um
Ġtemp us
Ġfili us
Ġre bus
Ġali quam
Ġab s
Ġsae pe
e qu
Ġpl ur
Ġcap ut
Ġintell eg
ĠCom itatus
er b
Ġomn ium
Ġdi gn
Ġreg ione
e per
Ġv ita
Ġpos se
Ġs atis
ut us
Ġf am
Ġ 8
Ġre i
Ġex erc
ĠP r
"\"\ "\"\
Ġv ic
Ġsap ient
Ġs ens
Ġm ut
Ġquae dam
ur um
Ġ it
i es
Ġh on
Ġcog it
Ġt ab
Ġun um
Ġhab ere
ĠE ccles
Ġvir tut
Ġ J
or d
ar is
ĠH oc
Ġs aec
ĠQu i
Ġacc ip
i qu
Ð µ
Ġh omo
Ġin quit
Ġfac ta
Ġa it
Ġh um
Ġme us
end o
it iae
d um
Ġcogn osc
Ġhomin es
m n
Ġtu um
Ġiur e
Ġali a
Ġf ut
ec ta
v is
Ġomn i
Ġm ed
Ġi gn
Ġt ra
Ġvit ae
Ġor d
ĠM ar
Ġa ed
Ġtu am
Ġapp ell
Ġfi eri
it is
Ġp et
ion ibus
Ġin d
ĠAm er
Ġre liqu
v i
Ġc et
Ġund e
Ġm ulta
Ġst ud
ic e
ent e
Ġvel it
Ġloqu itur
E t
Ġips o
ĠĠĠĠ ĠĠĠĠ
l l
Ð ¸
it o
Ġpat r
em o
cc e
uc t
Ġsu p
Ġ w
ili um
Ġver um
1 4
A n
Ġh anc
Ġ ull
Ġcon i
p os
Ġ 9
er es
Ġl aud
ac t
op h
Ġtu us
reh end
Ġ |
er ent
Ġhab ent
1 8
Ġper tin
Ġs en
p ect
om odo
Ġp h
Ġl ong
Ġ1 2
Ġid em
ec um
ĠA d
Ġi is
in de
Ġint el
st r
Ġurb s
id it
Ġst at
, "
in am
u um
Ġcon stit
Ġtu i
Ġg lor
Ġil lius
Ġb ell
Ñ Ĥ
Ġ od
Ġi bi
Ġdisc ip
Ġprov inc
Ġmolest iae
Ġpr oc
1 3
er v
Ġdol orem
I n
u per
Ġnomin e
ĠE x
Â »
Ġsu ae
an a
ae s
Ġt ant
as c
Ġis ta
in um
Ġprop r
Ġintel lig
Ġm ens
ĠDe um
ia nt
Ġ1 5
ĠF oed
u erunt
ent er
Ġfili i
Ġsub stant
p h
Ġann um
Ġeccles ia
Ġe m
1 9
Ġm un
im o
Ġist e
i que
Ġop ort
Ġm il
Ġex ist
Ġdom um
ĠC on
Ġali is
Ġfac t
Ġs ac
ra h
erm an
" :
1 1
ent a
Ġer ant
Ġhomin um
n um
Ġp ul
at h
Ġomn e
u v
ĠU t
ent is
ĠL orem
Ġconsequ atur
s a
Ġ1 7
b it
Ġprae dic
Ġadh uc
Ġfac i
Ġa qu
ol l
Ġfac it
Ġloc o
ĠI ud
Ġpot ius
ĠB r
1 5
Ġa per
Ġpec c
a st
ĠH aec
Ġpl us
1 7
Ġm uli
ent ibus
ĠS an
Ġme am
Ġp o
Ġacc us
Ġcont r
c umque
Ġl at
Ġsu bi
Ġqu in
ã ģ
Ġdic ta
Ġsp ec
i f
are nt
l in
Ġre x
Ġsi ve
Ġvolupt atem
ĠÂ ·
Ġtran s
Ġf al
Ġsign ific
it iam
Ġad m
Ġim m
f fect
Ġ X
Ġd isp
Ġlib er
Ġs oc
Ġd ub
ur g
Ġcu p
eb ant
1 6
ab o
ili us
ir m
Ġop er
Ġun a
Ġre ct
âĢ Ŀ
ĠC um
Ġid eo
ari i
ĠM a
Ġb e
iv ers
Ġ ost
at ionis
od ie
Ġp on
al em
Ġmem or
ĠA l
ĠC iv
Ġv i
Ġomn em
Ġ1 3
Ġmat er
Ġop us
Ġa equ
Ġsu i
ĠC aes
ĠU n
it io
Ġt he
ĠP at
t em
Ñ ģ
an e
ĠQu am
Ġnost ra
Ġde us
Ġfu isse
ect um
u o
Ġ K
ĠA b
Ġt unc
Ġopp id
l o
ĠP h
Ġtam quam
ĠQu is
Ġips i
Ġnost rum
e que
Ġt im
Ġsu is
Ġ1 4
Ġsim ul
er int
an i
id e
Ġomn ino
Ġdi es
Ġfu erit
j us
Ð ½
Ġsum us
Ġaed ific
u erit
Ġrat ione
ĠâĢ ľ
ĠA p
Ġtu ae
ĠG erman
Ġad i
ĠI es
ĠO mn
av i
n am
itud o
Ġvolupt as
Ġter ram
Ġqu ant
Ġqu omodo
as se
ĠSan ct
Ġre gn
ĠC o
Ġpat er
Ġser mon
il es
Ġn atus
Ġn emo
im um
ul os
Ġded it
issim e
Ġep iscop
ĠI o
cr ip
i atur
l is
r ic
ar ium
Ã ©
Ġbon a
issim um
e v
u et
Ġcum que
Ġd em
Ġmagn a
b ul
eb am
Ġita que
Ġfac tus
Ġscrip ta
an um
Ġdi ff
Ġm et
od em
an o
um quam
in ae
Ġposs imus
Ġverb a
Ġm ov
Ġex s
lib us
ĠFoed erat
ĠS ic
S i
Ġd ist
u a
id er
2 2
t ere
Ġh ac
an us
an g
Ġloqu i
il icet
Ġpart e
il os
t h
Ġ ult
Ġn oc
Ġl uc
Ġcont in
Ġd et
id unt
Ġcon ven
v ert
Ġqu antum
l ar
t e
at ae
Ġhomin em
Ġrat io
Ġf l
Ġcre atus
Ġt h
t r
Ġs ing
Ġanim a
Ġdol or
. "
Ġqu orum
Ġvolupt ate
Ġpr od
Ġper fect
Ġprae cip
% )
Ġd on
Ġquae st
Ġp or
al es
ĠEccles iae
ux ta
Ġmal um
i orum
Ñ Ģ
in us
Ġad d
Ġ1 6
ilos oph
on e
Ġ1 0
Ġsc ilicet
ĠAn no
Ġin quam
Ġsc ient
2 1
Ġe ffic
ur i
Ġdic tum
Ġtr ib
Ġa uc
re g
en a
Ġmod i
ĠAmer icae
s o
Ġf it
itat u
Ġess ent
Ġeccles iae
ĠI uli
Ġun ivers
ĠFranc iae
Ġp ac
Ġf er
ro g
Ġf or
Ġaliqu a
Ġad vers
Ġant iqu
Ġlib ero
Ð »
li a
Ġdu o
Ġtra d
i gn
Ġb eat
and i
Ġ W
Ġv ult
ent ium
ib ile
ĠFranc icum
on is
Ġm ir
ic am
em b
Ġv et
Ġcon d
Ġar g
Ġe arum
Ġqu Ã¦
Ġpr ius
p lic
Ġdic o
ĠT h
Ġverb um
Ġe lig
Ġqu ic
ac h
Ġposs ess
Ġanim i
Ġprim o
) ,
Ġ %)
Ġm on
li m
ar em
Ġd um
Ġut rum
Ġcons ul
Ġmult o
Ġdeb et
ior es
Ġe v
Ġquis quam
un g
le x
im e
ab it
Ġcom itatus
ĠR eg
Ġlingu a
ar d
Ġven it
Ġgra v
Ġm and
Ġh unc
ot h
Ġdic i
Ġaud iv
ĠE r
Ġaud i
Ġnec esse
Ġpost ea
erb um
l a
Ġcom itatu
Ġanim o
Ġh aud
Ġme lius
Ġeius dem
Ġrat ionem
tere a
Ġauc tor
n a
Ġe d
Ġpul ch
e i
Ġl ic
Ġsc ire
eb atur
Ġann os
Ġmis er
An glice
c ur
Ġhab e
Ġc el
Ġm ot
end am
Ġea dem
ut um
Ġexp lic
Ġfam ili
Ġam p
ĠDomin i
Ġgen ere
Ġsequ itur
Ġph ilosoph
y s
qu i
or i
ĠS p
Ġaet ern
ĠH ic
Ġob s
Ġsec und
Ġt ert
unt y
ul p
Ġips am
Ġar bit
Ġin stit
Ġfili um
Ġar t
y pt
Ġ Ã
Ġn ol
ur us
ĠCo unty
at iones
av erunt
ĠRom ae
Ġrep rehend
ab at
Ġex emp
Ġrespon d
Ġh odie
id i
ag in
ili o
eb it
Ġsp ir
ĠCiv itatibus
m o
Ġam et
Ġpers on
Ġre f
ĠIta que
Ġred d
Ġdic unt
Ġtu o
Ġu el
Ġcol l
ĠFoederat is
h ib
r as
Ġe as
on em
ic ip
ĠE st
Ġloc um
Ġc h
Ġi uxta
Ġsol uta
Ġcaus am
ut i
Ġdom us
re d
Ġpossum us
Ġe odem
at ion
Ġill am
ali a
2 0
u is
Ġme o
at es
and a
Ġpro f
ior em
Ġtemp ora
ĠA nt
ĠP l
.. ..
Ġcorp oris
ic o
ic is
ĠChr ist
Ġe cce
er im
ĠÂ «
Ġf in
Ġper m
Ġb ib
Ġpar v
itud inem
ĠIs rah
S ed
Ġcog itat
2 3
qu is
ar ius
ĠA eg
Ġg aud
Ġmin ima
Ġprae st
Ġhomin is
uet ud
X X
Ġdic untur
Ġpro fect
Ġcirc a
2 5
Ġl ae
ĠN ihil
N on
Ġd iss
Ġnatur ae
Ġa lic
Ġc al
ĠIsrah el
i untur
ens is
Ġhab eat
ĠG al
Ġoport et
u ic
Ġun us
"\"\"\"\ "\"\"\"\
on s
Ġlab or
Ġaliqu o
Ġprim a
Ġimp edit
2 4
2 6
ĠI d
Ġdic am
Ġcl ar
ar io
er ant
on ium
ess it
ĠAn glice
Ġneg ot
Ġpecun iam
Ġan g
end it
Ġep ist
Ġquam quam
itat es
Ġ200 0
2 8
ent o
l et
id ent
Ġl ect
Ġdic endum
Ġhum an
m a
Ġ .
Ġt ur
li ae
ac ob
Ġman u
C an
e h
id em
ul g
Ġdic imus
Ġdol ore
isp an
Ġcons uetud
Ġdix i
Ġloc utus
Ġopt io
Ġc an
Ġm i
Ġfac iam
eli m
m od
Ġe jus
Ġf inem
Ġ Z
it u
ul ae
Ġpr om
Ġven iam
Ġdom u
" ,
Ġer unt
Ġess entia
o x
Ġl ux
Ġde p
Ġips ius
Ġd en
ant ium
Ġdic t
Ġer r
Ġter rae
Ġme ae
Ġdic ens
Ġse x
on i
Ġc op
Ġc ust
Ġat t
Ġmort em
ĠAeg ypt
ã ĥ
Ġb re
Ġse pt
ist is
ĠN unc
ep ta
a us
m odi
Ġd il
Ġdi u
ir i
Ġexist im
Ġ umquam
Ġdi ffic
Ð¾ Ð
ĠChr isti
p ar
Ġre cip
Ġde i
ĠP ost
ĠP rae
Ġ &
et is
ĠC ur
Ġme i
r ob
Ġa v
ĠI ll
) ;
and ae
Ġcert e
r os
Ġh ost
Ġaliqu ando
Ġleg e
l and
it ionem
Ġdi em
Ġmagn am
Ġsim il
Ġpu gn
Ġelig endi
er ed
Ġl icet
Ġvid entur
\ /
u ere
Ġt o
Ġhomin ibus
Ġplac eat
Ġmag ist
Ġnatur am
Ġiur is
Ġdel ect
Ġt ecum
ĠS c
Ġinc ip
Ġtabul at
Ġbell um
Ġver a
ep h
Ġgen us
Ġux orem
Ġsup ra
Ġv ig
ere b
ĠI os
Ġp ol
Ġpotest ate
Ġsal ut
N am
Ġe ff
Ġ on
Ġre per
Ġpa uc
an u
issim a
ire t
n is
Ġcorp us
3 0
Ġs per
ĠC ar
Ġse u
Ġprop ri
Ġpop ulo
Ġde inde
ĠP et
Ġal iter
Ġali en
Qu od
iss ent
II I
Ġ y
Ġin dic
ĠI m
Qu id
Ġali o
Ġtot um
Ġhon est
c us
Ġpro xim
Ġtabul a
. ,
Ġcon g
ip isc
Ġposs et
Ġacc id
Ġmod um
Ġvit am
er us
er am
im ur
Ġmult is
Ġreprehend erit
u en
ĠE go
ĠIes us
Ġme li
âĢ Ļ
Ġfug iat
Ġu id
Ġlib ert
Ġpart es
Ġvoc em
Ġn ob
Ġtu is
Ġ200 9
Ġd esc
Ġv elim
ĠN ov
t u
io ec
Ġan d
Ġp ae
im is
Ġcup id
. )
Ġqu ot
Ġf ur
Ġop in
unc ta
ioec es
al iter
ĠC at
Ġpot entia
Ġun o
Ġo f
ĠIud ae
D e
2 9
Ġp ort
Ġqua erat
emb ris
c e
n i
o que
Ġm itt
Ġips is
Ġsus cip
ath ol
Ġm undum
ul am
ĠE p
and em
Ġma ius
Ġmult um
Ġsumm a
Ġcogit ari
Ġ k
ab itur
Ġb en
o u
Ġe qu
ac cur
Ġsu cc
ĠA s
ĠA li
Ġfu erunt
Ġiudic ium
Ġing en
accur ate
5 0
Ġn unt
ic h
ect o
iv it
Ġquid am
eb us
Ġl ac
ĠS t
Ġali ae
Ġhab eo
Ð° Ð
2 7
i arum
p r
us s
Ġfac iunt
Ġscrip t
Ġdisp ut
h en
Ġin im
Ġpr iv
Ġprae d
Ġlib ro
Ġput o
Ġfort e
Ġgrat iam
Ġfrat er
Ġarbit r
r ac
Ġsu os
Ġcor r
Ġdef in
Ġc r
Ġr og
res s
Ġfort asse
Ġpublic a
Ġit erum
l us
u gn
ã Ĥ
Ġman us
Ġfr uc
ĠEr go
3 3
at u
at ibus
ent us
Ġad ipisc
Ġvol o
Ġten eb
h et
p et
in ct
Ġc ulp
Ġf ere
Ġcon v
Ġtemp oribus
Ġprovinc ia
Ġrect e
l em
Ġper ic
ĠM ag
Ġprop os
Ġquic quam
Ġa ur
ul orum
Ġquae cumque
ĠI nt
Ġacc ep
Ġfec isti
Ġpu er
Ã ¡
ar iae
Ġut i
il em
iss imus
Ġop era
Ġter r
Ġali i
Ġc as
ir um
Ġlab ore
Ġe ffect
er entur
ion i
ĠA ut
ĠP er
Ġor atio
Ġpost quam
H aec
i it
n atus
Ġ ;
Ġ <
ant es
Ġali as
Ġper d
Ġ19 4
Ġ /
Ġa est
Ġre v
Ġ19 9
ug ust
r b
an ae
Ġdom o
Ġ q
Ġm ecum
Ġnon dum
ĠN ec
Ġinc idunt
r on
itat ionem
ĠQu ia
ens i
er imus
Ġa ff
ĠH ispan
ĠD av
Ġvir i
Ġus us
ĠUn de
ĠSp ir
Ġm ar
Ġl ud
ta re
Ġpop ulum
Ġgrat ia
Ġfut urum
Ġquod am
Ġfac ile
Ġhab it
Ġquibus dam
Ġpop ulus
ann es
if est
Ġn ar
re n
ab is
Ġdi ebus
Ġpot uit
Ġaliqu od
Ġim ag
Ġhomin e
i x
Ġi ac
Ġf em
Ġg est
Ġann is
ĠĠĠĠĠĠĠĠ ĠĠĠĠĠĠĠĠ
Ġpertin et
A d
E x
Ġp ed
Ġn av
ic t
Ġ2 0
Qu is
ĠQu o
Ġpu ell
Ġsent entia
Ġval de
Ġnesc iunt
3 2
Ġs on
Ġh os
Ġut il
ĠH i
lib et
Ġcor am
Ġloc us
Ġsequ i
Ġtest im
Ġa ug
Ġm iss
Ġde um
ĠN eque
Ġann i
Ġo ff
Ġnull um
itud ine
. {
v erunt
er d
Ġin i
re c
end us
Ġfac ti
Ġlingu am
Ġform a
N um
ic em
Ġf oed
Ġvid ere
Ġsan e
Ġfort un
Ġlitter as
aret ur
Ġsu as
ior a
Ġag ere
Ġverb is
Ġsent entiae
Ġviv ere
qu od
ion um
Ġurb e
Ġcog no
ĠS ept
Ġam bul
isc um
Ġscrip tum
Ġsaec ulo
Ġconi unct
it iis
ur is
Ġi uc
ĠL ib
Ġinter rog
Ġpublic ae
Ġrespon dit
Ġext ra
ĠDav id
y r
Ġs in
Ġm erc
ic orum
Ġad s
Ġrep ell
Ġintell ect
l am
r u
Ġv eh
ant ibus
ĠV erbum
Ġscrip s
Ġmaior es
Ġd am
ĠA ugust
ost ol
Ġpat rem
Ġdiv is
Ġd im
itat i
Ġca st
Ġurb em
Ġdiv ers
Ġign or
Ġexs pect
n on
p ici
ol og
Ġre lin
ĠP a
Ġnost ri
Ġlingu ae
Ġe ven
qu ir
an is
ul it
eper unt
Ġn asc
Ġver s
Ġess em
Ġmult i
ĠDomin e
Ġdu x
ĠâĢ ĵ
Ġ ra
Ġa ux
Ġet si
Ġh ered
an ia
os s
Ġme is
end is
Ġpart em
Ġpraes ens
Ġmund o
Ġod io
Ġoppid um
ol a
are s
Ġacc epit
Ġcomp os
Ġcae lum
3 6
it ae
ul ator
ĠA c
Ġill os
âĢ ¦
ĠÂ »
u isse
Ġs or
it h
Ġh uic
Ġas s
Ġpop uli
Ġtot a
Ġull am
ĠN um
Ġanim ae
Ġcur a
am ur
Ġre lig
av e
Ġvide atur
r op
re nt
Ġad f
ist or
Ġvid eb
ust r
ĠEt iam
ĠPr ov
Ġper f
Ġfili is
issim i
Ġcorp ore
Ġfid e
Ġs ust
us c
Ġf abul
ĠP om
Ġman ifest
Ġsoc iet
o w
ur r
Ġf ig
ĠI l
ĠV ol
Ġbon orum
Ġ201 1
Ġadh ib
Ġmemor ia
. '
Ġqu ar
Ġl um
ĠI acob
Ġper ven
Ġhab uit
Ġpat ris
Ġscrip tor
ont e
Ġ li
in qu
end ere
Ġnull o
Ġsubstant ia
Ġmuli er
i xit
Ġp arum
Ġor ient
Ġar ch
en se
el li
Ġmund us
Ġstat im
n it
Ð º
Ñ ĥ
er os
Ġt ut
en us
ect etur
Ġsc h
Ġnost ro
Ġord in
un quam
Ġl a
Ġ2 4
ert im
ari is
Ġlitter is
agin ta
Ġe u
Ġa ffect
on ia
id ie
Ġre fer
ator es
r ip
r orum
ur am
Ġposs id
Ġpar iatur
Ġaliqu is
Ġfid em
Ġculp a
i endum
l ac
Ġp ret
Ġin iqu
Ġf re
ar a
ĠI un
ĠI anu
Ġdic is
Ġbon is
Ġleg em
Ġman um
Ġmater ia
C um
Ġc ens
Ġde o
iv a
Ġfrat res
Ġ201 0
Ġnesc io
Ġalic uius
" ,"
a x
m us
p i
on d
end ae
Ġquid quid
Ġar c
Ġmagn i
Ġmal a
ĠÂ §
Î ¿
on iae
Ġv ia
Ġv ere
Ġh ort
ec it
Ġre l
ant e
iss em
Ġdix erunt
Ġamic itia
Ġcomp ar
Ġpecun ia
Ġoffic ia
pect u
Ġp al
Ġu ol
Ġscrip sit
Ġsim plic
Ġtot am
Ġcirc um
Ġdem on
Ġpossess ionem
f ac
Ġ1 1
Ġhab ebat
and am
Ġsol us
Ġas per
Ġaudiv i
Ġp ass
ĠI p
ĠD ec
ĠP ar
is ter
Ġc unct
Ġd are
ĠM os
Ġvid it
Ġu ero
ĠV id
Ġint ra
Ġbon i
Ġreg em
ĠLat ine
Ġtant a
o h
op t
al l
Ġquam vis
Ġanim am
Ġnost ris
Ġas sum
Ġux or
er g
it ione
st at
et e
Ġcons ectetur
Ġoc ulis
Ġsent entiam
quid em
ĠRoman i
Ġqu at
Ġd is
Ġm ent
en n
ent ius
Ġl e
ĠT he
Ġpraes ertim
ept um
Ġinv ent
Ġsae p
Ġsens us
Ġcust od
Ġmund i
Ġprovinc iae
Ġs y
am en
Ġquae s
Ġan imus
Ġfac iat
Ġfac ilis
Ġ2 6
ĠProv inc
l ect
Î ±
Ġa gn
Ġp arent
ur e
Ġv inc
Ġt em
ab ile
ĠI I
Ġtemp oris
Ġreg is
Ġ19 7
Ġquis que
Ġlitter a
s c
ul c
Ġnon ne
Ġre t
00 0
Ġfec i
Ġtur p
i ebat
Ġm er
Ġcre atur
Ġnum ero
Ġdomin us
Ã Ń
Ġh i
Ġquae so
Ġcons um
Ġprop het
Ġcont ing
Ġ19 6
Ġmil it
c um
e ant
u am
it am
Ġin de
Ġante a
Ġval et
ĠLat ina
Ġpr imus
ĠD ic
Ġsc el
Ġprincip io
Ġlae t
Ġ isti
Ġn at
Ġf und
im i
Ġper pet
ĠT um
abul ator
Ġplac et
cr ib
Ġarg um
3 9
l ator
qu a
qu ae
um b
ĠN ull
und a
g u
Ġv iam
ec h
Ġposs int
Ġ2 8
Ġpl en
Ġpl ane
Ġfec erit
Ġaud ire
Ġdu ae
Ġist o
Ġeccles iam
Ġalter um
Ġvi x
Ġdiff er
Ġaest im
Ġini ur
Ġad ul
Ġl ex
Ġdol ores
Ġnum quid
bul ator
Ġf el
Ġdic at
ĠP rim
Ġpot es
ior is
Ġfili os
Ġgen er
Ġamp lius
Ġintellect u
n ull
Ġn ati
Ġv ac
ec im
Ġsc io
ĠâĢ ĺ
Ġprincip ium
am p
ut e
ĠC ic
rat us
Ġca pt
Ġcons ilium
ĠV en
Ġsal v
Ġsus c
Ġpropr ium
Ġpor ro
a y
Ġcon dic
ĠN e
ĠM ed
ĠU rb
Ġdec em
ont ific
ĠAt que
Ġpa uper
Ġexerc itationem
Ġcet eris
A t
r in
Ġpropr ia
ĠIos eph
er emus
Ġs emp
Ġd ata
Ġut ique
Ġex per
ĠE cce
Ġg l
ep s
Ġpraes id
Ġconc ed
crip t
3 5
3 7
h a
u ae
Ġqu are
Ġt a
itat um
Ġaliqu em
ess us
Ġciv itatis
Ġc rim
Ġn im
oc rat
ĠE pic
Ġvid eri
Ġsign um
ĠIanu arii
r us
Ñ ĭ
Ġ Î
Ġt res
Ġf iat
Ġad v
Qu i
ĠQu a
Ġvid eo
Ġ2 5
Ġal b
Ġpart ibus
Ġtestim onium
Ġa quam
Ġv ul
es e
Ġl ev
ab atur
ili bus
Ġhab emus
iv i
Ġver itatis
Ġsit um
Ġvir um
Ġ3 0
Ġante quam
Ġmis it
ĠBr it
Ġsubi ectum
Ġost end
Ġregn um
Ġutrum que
H oc
ã Ģ
Ġh a
ab ilis
ĠC l
Ġprae m
Ġus u
res sus
Ġpecun iae
Ġaqu ae
ĠIud a
ĠPat er
Ġdist inct
l eg
Ġre stit
Ġb est
Ġpotest atem
Ġrelin qu
3 4
Ġv im
Ġt andem
ĠC or
Qu ae
Ġpro fic
Ġhomin i
int i
Ġnost er
Ġpost ul
Ġgen eris
Ġput as
Ġtest am
ĠEccles ia
Ġecclesia st
Ġcel eb
Ġfre qu
r ibus
et a
ul e
ul li
ior i
Ġloqu or
Ġpraes es
Ġurb is
Ġvolunt atem
C C
] .
Ġp en
ĠL uc
Ġfili o
Ġcor de
Ġj ust
Ġit em
3 1
e as
Ġm us
ur re
Ġt ac
Ġt alis
Ġh arum
Ġh istor
Ġper t
Ġst ult
Ġnomin a
Ġten etur
Ġcet era
Ġang el
2 01
v er
Ġn o
Ġmagn um
d us
Ġp ere
an iae
Ġquae que
ant ia
Ġcons ec
Ġamic itiae
Ġfug it
Ġsac erd
ĠBrit ann
e atur
Ġ 0
Ġ ...
in ist
at orum
Ġd ia
Ġi r
ab unt
Ġde pos
ĠD ol
Ġcom ed
Ġcomm od
Ġbene fic
Ġpo en
Ġben ed
Ġcorr upt
Ġsemp iter
Ġn unquam
re di
en iti
ĠC athol
ĠQu are
Ġ2 7
Ġfec erunt
itud inis
ĠIs rae
Ġvolunt ate
U t
à ´
it ias
on om
en im
ĠA g
Ġali us
Ġb land
Ġacc ed
Ġel eg
eper it
ĠQuam quam
Ġsuscip it
i u
ĠF ac
ĠT u
Ġcaus ae
Ġciv itate
Ġ201 2
Ġull a
i oc
Ġf est
id ic
ĠE ur
iv e
ĠM o
Ġ2 9
Ġor b
Ġdes ider
Ġ200 8
Ġscrib ere
Ġhuius modi
Ġplur es
ĠEp iscop
u isti
Î ½
at am
ut o
Ġf ore
ab ant
ĠS unt
Ġcons ilio
Ġtabul ato
Ġas c
Ġact um
": "
ĠProvinc ia
u ven
um us
or sus
id erat
si gn
Ġdub it
"\"\"\"\"\"\"\"\ "\"\"\"\"\"\"\"\
o k
id ere
ĠC ap
Ġbon o
Ġgen erat
Ġoffic iis
Ġfut ura
et iae
ĠE n
ag e
Ġco epit
Ġhab es
Ġam b
Ġqua d
Ġcomm odi
Ġvir tus
Ġ19 8
Ġmaior em
Ġoffic ium
Ġmens is
ĠOmn ia
Ġprofect o
on um
ta v
ra re
Ġpot erit
erunt ur
ill a
Ðµ Ð
a z
c om
h t
Â §
id erunt
Ġpr os
Ġali am
Ġanim al
ad em
Ġtabul as
Ġverb orum
Ġel ect
Ġquaer itur
ĠIuli i
ĠIsrae l
r ib
at ionibus
ant em
Ġali um
ig in
Ġloc is
Ġdes erunt
Ġ200 7
Ġcae lo
Ġquin que
Ġsing ul
ĠPom pe
l ud
Ġsu ffic
Ġen s
Ġhab itat
Ġcons ol
Ġcont em
Ġfili ae
Ġfu isset
ri x
ĠCaes ar
Ñģ ÑĤ
e am
m at
Ġ ot
Ġd orm
Ġt oll
Ġf lum
ĠS al
Ġprae t
Ġse p
ĠDomin o
Ġmal e
Ġnot a
Ġpraec epta
Ġvirtut e
Ġind ig
Ġglor iam
Ġfaci em
Ġbe atus
Ġsecund o
Ġpr ud
Ġpl ura
Ġma li
Ġprop e
Ġiudic io
Ġded isti
di gn
Ġel it
Ġsign a
ĠAr ist
ang eli
ur sus
ĠI am
Ġan c
Ġfac ult
ĠL ut
erum que
Ġal t
Ġser mo
Ġsub s
Ġexp ed
Ġnot are
Ġdomin e
Ġquaer ere
P D
l y
qu o
Ġc ant
ens um
ita vit
ĠAn g
Ġciv itatem
Ġact u
Ġopt ime
Ġexc ept
Ġlong e
iant ur
ĠIm per
k e
Ġ ?
Ġc ib
Ġd ioeces
eb antur
Ġver itatem
Ġqua erit
Ġinter p
Ġcre dit
Ġmin or
Ġtr ia
Ġciv itas
Ġmaxim a
Ġscrib is
Ġiust itiam
Ġsumm um
ĠGerman iae
¿ ½
ï ¿½
Ġd atur
iam us
ĠC al
ili i
ĠM in
av erit
Ġsol a
Ġsec um
Ġleg atus
Ġsen atus
mod um
Ġerr or
4 0
h od
ab am
Ġali os
Ġop ere
Ġnost ram
ĠO r
Ġsp ect
Ġiust o
Ġmor i
" .
4 8
a pt
Ġa u
Ġde x
Ġop erat
Ġiudic es
Ġocc up
ĠRoman ae
Ġinf in
Ġcl am
ĠInt er
Ġv end
im ae
il iter
Ġsc it
Ġposs im
Ġcons ider
Ġsol v
Ġun ius
Ġpat re
ĠDomin um
Ġ18 5
Ġconf irm
Ġiust itiae
Ġext rem
Ġpol it
ĠEur op
å İ
Ġ iter
ic arum
Ġcon vers
Ġfac ies
Ġg oth
Ġap ostol
Ġposs ib
ĠDe inde
Ġmin ist
Ġ19 5
Ġconc ess
Ġiust us
Ġform am
Ġplur ibus
4 4
t is
ae d
Ġf irm
Ġre lic
Ġl oque
ud i
al a
Ġfac ilius
Ġess entiam
âĢ Ķ
Ġput amus
ux it
Ġtab ern
Ġoper am
i z
p s
Ñ ĩ
Ġin st
Ġetiam si
Ġips orum
ĠL a
Ġven ire
Ġoc uli
ĠAt t
Ġcae l
Ġnecess itatibus
Ġgoth ica
h o
r ag
Î ¹
er rim
Ġn ata
Ġde v
Ġdic eret
Ġsol lic
Ġor i
ios um
Ġsapient ia
i ore
ĠA f
ĠS to
Ġun am
Ġob l
Ġscrip si
Ġrep et
Ã¦ c
Ġfid ei
Ġcirc iter
Ġbeat ae
Ġden ique
Ġbre v
Ġiuc und
p p
Ġqu e
ĠS am
Ġill ae
Ġg entes
Ġtu as
âĢ ľ
Ġpat et
Ġdef end
Ġult ra
Ġscient ia
Ġcupid itate
Ï Ħ
Ġ x
er r
in es
em ur
ĠS im
ob us
Ġips os
ior ibus
Ġpraes entium
Ġserv us
Ġeg et
Ġimper ator
Ġabs ol
Ġvirtut is
Ġfruc tum
h i
Ġre vert
ot a
Ġven erunt
Ġded uc
Ġdel ectus
Ġfid es
Ġdoc tr
Ġaper iam
Ġspec ies
ĠMa ii
ĠSanct i
Ġveh em
I V
Ñ ı
Ġf iunt
ot e
Ġcon str
issim o
Ġob i
Ġnull am
Ġpart icip
Ġiust itia
Ġsus pic
Ġexplic abo
I ta
m is
s u
u us
Ġ ort
Ġpr on
ol is
ell a
res si
ĠRoman a
Ġfrat rem
ĠMar t
Ġod it
Ġquant o
Ġadd uc
Ġadvers us
Ġmiser ic
tu or
åİ ¿
3 8
o ur
Ġs il
Ġs omn
it or
Ġc ult
ic ula
ut is
om m
Ġh or
Ġsed es
Ġca d
Ġcomm end
Ġapp ar
Ġact us
ĠAt hen
Ġlitter ae
Ġsapient iae
ĠOmn es
Ġprofic isc
at im
Ġi uv
ab antur
ĠP ol
ĠP ro
Ġpro hib
Ġea que
Ġprop ort
Ġus um
Ġmort e
Ġtot ius
Ġpublic am
Ġadi uv
Ġdemon st
c irc
u as
u imus
à «
er ibus
it ium
on ae
li v
ĠR e
Ġleg it
ali um
Ġrec us
Ġnoc te
Ġobs erv
Ġmeli or
u isset
ä ¸
Ġex ter
ĠE s
ĠI t
ell um
ub ern
Ġdom i
Ġmor ibus
0 5
V I
Ã ¢
Ġpr orsus
Qu am
ĠL e
ert um
ert ur
âĢ ī
Ġinter fic
Ġleg es
Ġann orum
Ġcommun ia
ios am
Ġalter a
Ġsalut em
4 6
Ġe dit
it es
at er
id a
Ġprae terea
ĠR es
ĠT ur
Ġfili a
Ġdix imus
Ġant ep
Ġ3 6
Ġsan gu
Ġlitter arum
Ġvest ra
Ġsens u
Ġmut ationem
Ġappell atur
Ġproc essus
Ġmun icip
ĠChrist us
Ġsaep ius
Ġloque b
Ġ om
ip p
Ġprae tor
Ġill ic
ĠP ot
ĠN ost
Ġcons pectu
ess or
Ġnost rae
Ġoc ulos
Ġimp et
Ġgen era
Ġist ud
Ġmal o
Ġcomp rehend
Ġserv i
Ġrec ord
Ġsubstant iae
ĠCon s
ĠIl le
c i
Ġc ess
Ġm y
ur as
Ġh orum
ĠP is
Ġvel le
Ġmort ui
ĠU bi
Ġdeb ent
Ġvoc abul
Ġpers pic
Ġreliqu a
Ð¸ Ð
Ġsubstant iam
pici atis
e or
u itur
x imus
Ġ ov
er ius
Ġa eg
in ibus
Ġn em
ur o
Ġcon p
ĠA cc
aec ati
Ġ2 3
ust ra
Ġbon us
Ġreg um
Ġdel eniti
Ġconsequ untur
Ġduc imus
Ġfal sum
Ġtrib un
Ġunivers a
Ġvig inti
Ġsacerd ot
Ā Ā
Ġd y
Ġm ente
ic es
ab ilia
ĠC ol
Ġper itus
ĠP ers
ĠM ihi
Ġcons c
Ġpl erumque
Ġsum pt
Ġor n
Ġtr act
Ġamic i
Ġconc lus
ret ur
Ġaqu a
a u
Ġ ur
Ġs is
it ter
Ġin dign
ol us
ĠS cip
Ġ2 2
ĠH el
Ġqua eris
Ġanim um
Ġdu od
Ġdu as
itt ere
Ġpu eri
di u
Ġmagis ter
ĠRoman us
Ġnov um
erm in
ĠIta liae
Ġepiscop alis
i erunt
r ig
Ġ z
Ġs oli
Ġs ese
ur sum
Ġcon fic
Ġill orum
Ġhab eb
ĠR hod
ĠV al
Ġacc ept
Ġleg is
Ġmult ae
Ġ3 9
Ġ18 6
Ġel ectus
Ġpraec epit
Ġmem in
Ġfug a
Ġfact ionis
Ġinvent ore
r ia
Ġ Q
in d
Ġc ec
Ġt urb
ut io
ol ae
Ġcon dit
ĠS ec
Ġse par
Ġcons erv
Ġmag no
ient ia
Ġleg ibus
issim os
Ġlab orum
Ġnov i
Ġpecc atum
' ,
A r
O mn
m en
at ore
Ġc ot
Ġn ub
Ġi i
Ġi re
ĠM irum
Ġvid et
Ġu ir
Ġmin ime
Ġabs c
Ġbell o
Ġdiscip uli
Ġaccus amus
Ġadm inist
ĠAl p
Ġmot us
ĠSpir itus
Ġquat tuor
L orem
Ã ¨
Ï Ĥ
em or
Ġm ont
Ġv ox
ut ionem
ent r
ere st
ĠP ontific
Ġvid es
Ġu erbum
Ġpro eli
Ġag itur
Ġnomin is
Ġmem b
Ġj udic
Ġalter ius
Ġvic tor
Ġperson ae
Ġpae ne
Ġterr arum
Ġgl ad
4 9
I tem
e um
r ius
Ġ os
Ġt y
et h
Ġex ig
Ġper cip
Ġprae f
Ġprae pos
Ġint eg
de o
Ġimp ed
Ġag it
Ġvoc atur
ĠâĢ ¢
Ġocc ult
Ġaccip ere
Ġmed io
Ġpac em
Ġpropri e
a de
Ġd ur
Ġm entem
Ġi uven
Ġre tin
ĠS uper
iss a
Ġu en
Ġpat ri
ĠIn fer
Ġnull us
Ġmol l
Ġcert um
Ġaet ate
âĢĿ .
Ġpae nit
Ġpere g
ĠCathol icae
circ o
d a
u eris
ar t
Ġdi g
Ġam ore
Ġaliqu ot
ient em
Ġ3 7
Ġspir itus
ĠÂ» Â»
Ġassum enda
Ġmiseric ord
4 7
n atur
er ere
Ġn oli
Ġl ine
Ġper fic
ĠN o
Ġfu erint
Ġsp es
Ġvolupt atum
Ġdec re
Ġded i
Ġocc as
Ġcae li
Ġcogit are
Ġlect orum
ĠAli quam
Ġfruc tus
Ġimag o
. âĢĿ
p l
er ta
Ġqu arum
Ġin qu
Ġt it
el es
Ġcon vert
Ġu oc
ĠR uss
Ġim agin
Ġist is
di xit
icum que
Ġact io
Ġfal sa
nam icus
igin ta
Ġs ita
Ġqu um
Ġd o
ia l
Ġg ubern
ens io
ell ae
Ġvol umus
Ġvir o
Ġmagn us
Ġverb o
Ġscrib am
ĠIo annes
Ġart ific
Ġadipisc ing
ĠVol upt
v ent
Ġ uit
at orem
on a
Ġm ilia
ut em
ac ulum
ab or
Ġco ep
Ġam or
ĠF eb
Ġtemp or
ĠG en
Ġfili orum
Ġinter dum
Ġciv itates
Ġnot ae
Ġepiscop us
Ġtert io
ĠZ en
Ġsust in
Ġagn osc
g a
p pe
s ent
t ae
v ol
Ġc ern
Ġm erit
Ġh ae
ib ulum
Ġad eo
ĠI tem
Ġdi erum
Ġfac ie
rat um
ĠL eg
ĠF ilius
Ġor atione
Ġven i
Ġloqu untur
Ġcommun is
Ġdel ic
ĠÐ ¿
Ġinv icem
Ġpatr ia
Ġcond ita
Ġconsuetud ium
M ar
m in
n us
n ae
Ï ĥ
er as
ar n
Ġsu ff
ĠI st
ĠD em
Ġdic atur
ect ae
iv um
ĠM ult
Ġqua ereb
Ġcont emp
Ġmin ister
issim is
Ġman ibus
Ġsim ilis
Ġtr iginta
Ġmaxim um
Ġfid uc
ĠGraec i
Ġvolunt as
Ġtab u
Ġglor ia
Ġsignific at
Ġsermon em
Ġcoll eg
Ġsept em
ĠPet rum
Ġadipisc i
Ġinterp ret
Ġdy namicus
E st
Ġ ore
is us
Ġh as
Ġre li
Ġcon stat
ĠC uius
Ġqui ppe
Ġvid emus
Ġu b
Ġ2 1
ĠB o
Ġpublic us
Ġcar n
Ġplac uit
Ġpers piciatis
Ġconven it
Ġbland itiis
P rae
Ã ³
Ġs od
Ġp isc
im entum
ĠI II
ra ph
ĠQu int
ĠM an
Ġlib ri
Ġsp em
Ġvoc e
Ġiudic ia
Ġdisc ess
Ġconc up
ĠCom m
Ġhon or
ĠAmer ica
Ġbe atum
ĠCaes aris
lar itas
Ġfortun a
qua quam
H ic
P ost
a uc
Ġqu oc
at os
Ġc entum
Ġd issim
an quam
ab iles
rat a
ect ura
ĠM et
ert us
Ġdol orum
Ġvolupt ates
Ġdu os
Ġcap it
Ġ18 7
Ġocc id
10 3
Ġsaec ulum
Ġord ine
Ġquaest io
Ġalb um
' .
8 6
a in
Ñ Į
is it
li am
Ġquod dam
Ġnihil o
ĠV el
Ġloc i
Ġob lig
ad modum
Ġdu obus
Ġpec uli
Ġdec lar
Ġocc ident
Ġinv id
Ġdomin o
An no
ast i
Ġadvers um
Ġparv a
Ġdam n
Ġe nt
ob iscum
Ġg reg
Ġhab etur
Ġab und
Ġexp et
Ġtot o
Ġfrat ribus
Ġord inem
Ġpraecip ue
Ġfamili ae
Ġy ou
Ġarbitr or
Ġrepell endus
Ġadul esc
Ġdistinct io
D atum
c ta
r it
Ġ á
Ġd ap
Ġin itio
re p
Ġad mon
Ġsc imus
Ġab i
Ġqua ero
ĠV ir
Ġacc ess
Ġmult os
Ġimp rob
Ġamic us
Ġviv it
Ġmat rem
Ġvide antur
Ġvis um
Ġvest rum
Ġabs que
Ġdign um
Ġorient alis
Ġdap ibus
4 1
4 5
? "
b at
Ġ {
ic os
Ġt ale
Ġi ub
Ġf ing
li um
Ġh odi
Ġre quir
ĠS equ
Ġdic entes
ra vit
ient es
Ġdixit que
Ġintell ectus
ios e
Ġinf er
Ġcred o
aria nt
Ġit in
N ihil
Ġ Ñģ
on es
on ius
Ġv entur
ĠA lex
ĠS y
Ġfac iet
ĠP y
Ġposs is
Ġu er
Ġanim ad
Ġsp onte
Ġvolupt atibus
ept us
Ġnecess aria
Ġluc em
Ġpulch ra
8 8
S a
Ã «
Ï ģ
on us
ec onom
Ġl ap
il le
ant i
Ġsu av
ĠI ust
Ġfac eret
ult us
Ġist am
Ġtr ist
Ġapp et
Ġocc urr
Ġpraec ed
Ġins ip
Ġux ore
Ġexerc itus
Ġsapient iam
Ġstud io
Ġull o
Ġfact ae
Ġsermon e
Ġdet ermin
tr ib
Ġlabor iosam
Ġhos p
- -
V III
o gn
Ġe le
Ġm om
Ġin uen
Ġh uc
Ġh eres
ar b
an am
ib ilis
ens a
Ġhab ens
ĠN umquam
und em
Ġamic is
Ġdiv id
ios us
Ġopp os
Ġinven ire
Ġsanct i
Ġspec ie
Ġquant a
Ġpropri et
Ġnob iscum
Ġcas u
Ġuol unt
Ġcunct is
ĠPrim um
ĠFeb ru
l ina
r ud
Ġa re
in arum
Ġqu alis
Ġd er
ut ae
re ct
ia c
ab untur
ĠD uo
ĠM ich
Ġne quaquam
Ġcons ili
ov ers
Ġpat i
Ġal l
Ġnum erus
Ġ3 5
Ġimp oss
Ġsim ile
Ġist um
Ġamic um
Ġel em
Ġopt imum
ĠPr op
Ġpatr ibus
Ġsermon um
Ġed uc
Ġhabe ant
ĠIll ud
Ġsimil iter
e unt
n unt
r ot
Ġ å
in dic
Ġp res
ar ch
an os
Ġex hib
ili ae
Ġquo ad
ĠT er
ĠV erum
ert e
Ġfu erat
inc idunt
Ġdix isti
ap h
Ġsim ili
Ġdeb eat
Ġapp are
ĠâĢ Ķ
Ġ4 0
Ġpa ulo
Ġpatr iam
ĠAp r
Ġcogitat ione
ĠEurop ae
. Â§
? ?
r od
Ã ®
Î µ
Ġa uct
Ġa eque
Ġf e
ul as
ĠP ic
ĠN emo
Ġquid quam
Ġver itate
Ġu erum
Ġid circo
Ġam are
Ġinter ret
ĠO ct
Ġnum erum
Ġaud it
sum us
Ġgrat iae
Ġsequ untur
Ġcognosc ere
ĠÃ ¥
Ġepist ulam
Ġcong reg
ĠIun ii
2 00
i ebam
Ġn atum
Ġm alis
ac ed
Ġhab eret
Ġar b
ient iam
Ġo lim
Ġquem admodum
Ġciv itatibus
Ġ18 9
Ġnot um
Ġexc ell
ĠOmn is
Ġdil ect
ĠLut etiae
Ġmoll itia
p lex
Ġv obiscum
Ġt incidunt
li o
il lim
Ġde orum
Ġali orum
eb o
iss um
Ġvid ebatur
Ġr ursus
ĠV ale
ĠIn s
Ġdeb itis
Ġel oqu
Ġcontr overs
Ġauctor itate
Ġmot um
Ġpol lic
Ġarch it
Ġvehem enter
Â «
Ġqu ale
Ġc uncta
Ġm are
ar g
id um
ĠS u
Ġprae b
Ġb apt
ĠQu em
ĠT ro
Ġpl eb
Ġprop terea
Ġlib ris
ĠRom am
avit que
Ġtabul is
Ġgrat ias
Ġnov a
Ġmolest ias
ĠSanct um
Ġquic quid
ĠChrist o
Ġp re
Ġm ore
Ġpr ot
ab ilem
ĠE b
est as
Ġver itas
ell us
Ġsol et
Ġacc eper
Ġmod us
Ġst ip
ator is
Ġdol oribus
Ġcaus is
ĠâĢ ¦
Ġ18 0
Ġserv um
Ġpraec ept
Ġprincip es
Ġsapient e
uct io
Ġtant o
Ġmun us
Ġscient iae
Ġprius quam
Ġspir itum
m et
us quam
Ġc athol
or s
Ġf ab
Ġad ven
ab ili
Ġcon stant
ĠN omen
Ġvid i
Ġid que
Ġpar ia
ĠT emp
Ġint erest
Ġinter f
Ġlib eri
Ġ3 3
Ġvit ium
Ġtabul ae
Ġcap ite
Ġpop ul
ios a
Ġfrat re
inis ter
Ġeffect um
Ġrepell at
Ġlum en
m odo
Ġ lig
Ġe quidem
Ġqu er
ic ta
un e
ed ere
Ġpos itum
Ġsol o
Ġrep udi
ĠIta lia
Ġinven itur
Ġquaer imus
Ġpo ena
Ġmemor iae
Ġcorrupt i
i rat
å ¸
Ġv ex
ar unt
ul erunt
Ġad or
ant is
ĠS ch
ĠD ixit
Ġper c
ĠQu oniam
Ġpro g
Ġor ationem
Ġlib rum
Ġlib enter
Ġar d
ĠIn c
Ġmult ip
Ġprim is
Ġquem quam
pon itur
Ġsem en
Ġocc aecati
Ġact ionem
Ġsap iens
Ġinven i
Ġvirtut em
ĠMar c
Ġsubi ecto
ĠAl b
Ġexemp lum
ĠChrist um
Ġmiss us
ĠAc adem
Ġparent es
Ġreli quit
M ont
i em
Ġe dic
in as
Ġp rec
ia lis
el a
Ġde fic
Ġsu orum
ĠC ont
ect i
ĠQu omodo
ens es
ĠM at
iss es
Ġr om
ell o
ĠH ab
ĠF ort
ĠT ar
fect um
fect us
Ġrec ta
Ġaet atis
ass et
Ġdilig enter
Ġfaci endum
Ġregn i
Ġaetern um
ioeces is
Ġeven iet
ĠNull a
ĠCic er
Ġori unda
ĠAlex and
4 3
I X
m i
s ec
Ġin p
ar c
ul lius
il lum
ot us
Ġdic amus
ra v
Ġvid erunt
Ġacc idit
Ġprop on
ĠB ib
Ġdix erit
Ġfec isse
Ġloqu ar
Ġimp l
Ġcommun i
Ġiudic em
Ġdiv ina
erc ule
Ġdomin um
Ġbe ata
Ġoppid o
ĠIes u
XX X
Ġperic ulo
Ġpropos itum
Ġsy ll
Ġimposs ibile
1 00
5 9
I T
I nt
I ac
b y
o go
r y
Ã ¶
Ġ )
Ġ Y
Ġqu al
Ġn usquam
Ġv indic
om et
ĠS ol
ĠC n
Ġb elli
Ġposs ent
ĠL ig
Ġcu b
ep iscop
ient ibus
Ġgen uit
Ġamic o
Ġdisc ere
Ġfr uct
ill am
Ġdilig it
Ġpertin ere
ĠFoed er
Ġpo et
ĠX X
ĠAegypt i
Ġli gn
ĠDec embris
ĠOct ob
Ġ â
Ġs at
ae pe
Ġm ense
Ġad dit
ag ina
Ġdi i
atur a
ir em
Ġsc is
Ġab iit
Ġam ant
Ġdix isset
Ġscrib it
Ġmor s
ĠAr ch
Ġsanct um
Ġsaec uli
Ġpertin ent
Ġadm itt
Ġdisp os
ĠK al
Ġsper o
Ġcr ud
ĠĠĠĠĠĠĠĠĠĠĠĠĠĠĠĠ ĠĠĠĠĠĠĠĠĠĠĠĠĠĠĠĠ
Ġquad r
Ġexped ita
ĠIt al
o en
us que
Ġd at
Ġm end
Ġin ius
Ġin sign
Ġv ulg
ar iam
id es
ent io
ĠS em
ĠN os
und o
Ġer ud
Ġer ga
Ġam at
ĠR ep
Ġcons ist
Ġlib eris
ĠO m
Ġ3 8
Ġcuius quam
ĠRom a
Ġconf us
Ġpraeter itum
Ġprov ident
Ġneg leg
Ġform ae
Ġj am
ĠGraec iae
ĠAmer ic
Ġcontr aria
Ġoper ibus
Ġmir um
Ġlic eat
Ġprofect us
Ġcreatur a
Ġdex ter
eor g
Ġconcup isc
Ġhodi ern
h em
Ã ª
es imo
ac ta
el is
ĠI bi
Ġpot erat
ĠM e
Ġne f
Ġqua dam
Ġ19 0
ĠO b
Ġo econom
res sa
Ġtr ibus
Ġsan cta
Ġamic os
Ġamic itiam
Ġcui que
ram mat
Ġinf irm
Ġpraec l
Ġvis us
ĠLat in
ĠLat inam
Ð¾ Ð»
Ġimper ium
Ġplur imum
Ġlaud antium
Ġaudiv it
Ġalien um
Ġsucc ess
Ġaux ilium
ĠIp sum
ĠUrb s
4 2
i episcop
v ar
ï ¼
Ġ =
er re
Ġs ort
Ġd idic
Ġin n
ĠE v
Ġper hib
Ġprae par
Ġu is
ĠT ex
Ġcomm emor
Ġreg e
Ġreg es
ator ibus
Ġmagn ific
Ġcomp et
Ġ200 6
Ġpraec lar
Ġcar itas
Ġsumm o
Ġsumm am
Ġintelleg ere
Ġstud ium
Ġstat u
Â» .
Ġfer re
Ġsecund a
Ġdiffic ult
erus alem
Ġasper natur
ĠAlp ibus
l u
Î »
Ġp ess
Ġn imis
Ġd a
Ġin m
Ġv iae
Ġh ora
un a
Ġl aus
Ġcon dem
Ġquam diu
est ig
Ġfac io
eb as
Ġvol uit
Ġres pic
Ġar m
Ġsem el
pe x
Ġdiv itiae
Ġapp aret
Ġconf it
ĠÐ ²
Ġnam que
Ġprinc eps
Ġ201 6
Ġgra d
ĠJ es
Ġdolorem que
Ġaccus antium
Ġscient iam
Ġpauc is
Ġcogno vit
ĠFebru arii
A l
E go
s ed
Ã ł
Ġe c
Ġa er
Ġp ap
Ġf inis
im am
Ġde os
al t
ĠS it
Ġdic as
ĠQu ibus
Ġsc iam
Ġer o
Ġtemp orum
Ġess es
Ġfili am
Ġdu plic
pon ere
ĠRoman um
Ġfr ig
Ġing redi
Ġexerc itum
Ġtra dit
Ġglor iae
Ġmet u
Ġalic ui
Ġped es
ĠSept embris
Ġpret ium
Ġnim ium
C h
C laritas
Ġa urum
in s
Ġm isi
or qu
Ġv ad
Ġi b
li d
Ġh inc
an em
ĠE l
end as
Ġfac ias
itur us
ĠN orm
Ġu erb
Ġreg no
issim ae
Ġtr ium
Ġ4 5
Ġ4 6
Ġfl ag
Ġperfect um
Ġdon ec
Ġtert ium
Ġincip it
Ġtestam entum
F ranc
V II
] ,
t io
Ð ²
in ia
Ġn ut
Ġn ig
Ġet c
Ġi oc
om mod
id o
ĠS um
Ġdi ut
ĠD uc
atur um
Ġinc red
Ġleg ere
Ġvir g
Ġiur a
Ġ4 7
Ġ4 8
Ġserv it
Ġsanct ific
Ġord o
Ġmuli eres
Ġimm o
Ġdub ium
ĠMa xim
ĠIo h
Ġref ert
Ġclar am
Ġdiffic ile
Ġutil itatem
Ġconting it
ĠPontific atus
Ġcontemp l
Ġanimad vert
Ġinterret e
P r
R es
d uc
m um
n s
er er
Ġn upt
Ġv inum
Ġt alem
re icae
Ġf un
Ġre vers
itat io
Ġprae stant
itur um
Ġhab ebit
Ġat tin
Ġpotest as
Ġreg io
Ġleg atum
Ġfec isset
Ġcur ae
Ġexp ugn
Ġiust um
Ġcar o
Ġcar nis
Ġubi que
Ġvirtut es
Ġappell antur
Ġmemor iam
ĠIuli us
Ġmand ata
Ġauctor itatem
Ġhonest um
Ġeffect us
Ġlum ine
ĠNost ri
å¸ Ĥ
h op
Ã ¼
É Ļ
Ġ }
Ġc it
Ġi ud
ol o
el icet
ot um
ĠS ex
ta vit
Ġper g
Ġg r
und us
and us
Ġer am
Ġte x
Ġint u
Ġprop inqu
Ġloc a
Ġob tin
Ġcuius que
Ġdeb ere
Ġdeb emus
Ġmortu um
raec e
Ġlat ine
Ġpuell a
ĠAugust i
Ġcib um
, '
a k
d in
e k
n es
p at
y l
Ġ æ
st in
en c
Ġad opt
ac tus
Ġdic ant
ip sum
Ġfac is
Ġg entibus
ĠQu in
ĠL ab
Ġam oris
isc i
Ġcons ent
ĠV est
ĠB or
Ġres ist
ient e
Ġven iunt
Ġdeb etur
Ġexp rim
Ġdes ign
Ġcogn itionem
Ġrec eperunt
Ġmaior a
Ġcl er
Ð° Ð½
Ġvest ri
Ġoffic io
Ġfam ilia
Ġsen ect
Ġdub io
ĠCaes arem
Ġoppid a
ĠAp ostol
Ġmet us
ĠTh reicae
ĠReg es
Ġperm itt
ĠNov embris
Ġteneb ris
PD F
Ġrecus andae
Ġom itt
ĠNorm ann
? '
a i
á ½
Ġe undem
er ae
in n
on am
Ġd atum
Ġt ene
ut ione
Ġf av
Ġf ons
oc h
Ġsu us
Ġcon cip
ĠS ocrat
Ġsi ue
Ġhab ita
Ġpos uit
iv is
Ġpot entiam
Ġvid eretur
Ġne quit
ĠT e
Ġor ationis
Ġ3 1
Ġob liv
Ġprim am
Ġind uc
Ġcet eri
Ġtrans l
ĠPrae terea
Ġlibert atem
Ġquar to
ĠHel v
ĠRhod ano
Ġarchit ecto
Ġrepudi andae
8 2
P rim
b urg
Ã ´
Ġ *
Ġa go
Ġp asc
ent orum
ol est
ant iam
ĠS yr
ĠC unt
Ġdic ebat
Ġali ena
Ġg entium
Ġinc id
Ġcons ult
Ġsol is
Ġcre sc
Ġsub t
Ġman et
Ġman cip
Ġist ius
ern ia
og raph
Ġcred unt
Ġneg at
Ġpa st
Ġintelleg o
ecta re
Ġdiscip ulos
arent ur
Ġcr uc
ĠSept entr
Ġra p
ĠNum quid
Ġconstr uctio
Ġnem inem
Ġsuff rag
Ġquoc umque
6 7
C on
n ic
p agina
v a
Ġin h
Ġt anquam
Ġex st
Ġtu os
ĠV er
Ġtemp lum
Ġres urre
Ġdom est
Ġact ione
Ġten ere
Ġmat rim
ĠGraec e
Ġsens um
Ðµ Ð½
Ġhum ana
Ġcognosc it
Ġdiscip ulis
Ġmil itum
ĠCaes are
Ġaetern a
Ġtert ia
Ġnegot ium
Ġcust odi
Ġsch ol
ĠSto ici
ĠPis o
Ġduod ecim
E R
f or
m an
r om
z e
Ø §
Ġa iunt
it em
ae mon
or ia
Ġv an
Ġv ari
Ġt ali
os e
Ġnon null
ant o
und ia
ub i
Ġinf ra
Ġcl aus
Ġfi eret
Ġred uc
ann is
Ġalter i
Ġalter o
Ġvirtut ibus
Ġmed ia
Ġpatr iae
Ġsup plic
Ġconstit u
Ġem pt
Ġost endit
ard ia
Ġspir itu
Ġmagist rat
Ġproxim o
Ġfoed us
Ġpron unt
Ġloqueb atur
ĠÂ»Â» Â»
A b
I acob
a ur
r upt
Ä ģ
Ġe ae
it ionis
in ium
Ġp ud
Ġp as
ic tus
ar o
ab le
as i
ion s
ĠD el
Ġdic endi
ip ot
omin us
ĠQu ot
ĠM al
Ġvel let
Ġsol ent
Ġint ro
ĠEt enim
Ġsp on
Ġdu xit
Ġvit ia
Ġrem an
Ġdes in
Ġrec ed
ĠRoman orum
ĠÐ ¸
ĠÐ ½
Ġcol lig
Ġcred ere
Ġdoc et
ill ae
Ġeg estas
Ġnecess arium
Ġdign issimos
Ġaqu as
Ġmuli erem
Ġperson a
ĠAegypt o
Ġdesc end
ĠHispan icum
Ġnasc itur
oh n
ĠThe od
Ġconsum m
Ġvul n
Ġfrequ enter
ĠTur c
C ur
v al
Ġa us
is que
Ġp ict
on io
Ġd ulc
Ġin str
od um
un que
ab us
ĠS ax
ĠD i
und i
Ġu i
Ġim b
Ġlib ros
Ġcor d
ĠO p
Ġpart ic
Ġcui quam
Ġintell ex
ĠAr v
Ġsanct orum
Ġaccip i
Ġconstit uta
Ġproc ed
Ġadm irat
Ġvi ol
Ġquant i
ĠIll a
Ġsimplic iter
Ġdiffer entia
Ġfel ic
ãĢ ģ
ĠMart ii
ĠTex iae
. (
6 0
A li
H ispan
R om
r isti
Ġ +
Ġp ell
an orum
ol e
Ġut untur
ant a
Ġde str
al lic
ĠA ustr
ĠI V
Ġvid elicet
ĠL ectura
ĠT usc
ĠV os
ĠV ide
Ġsol e
ĠG eorg
Ġcont ent
Ġnatur alis
Ġcommun ic
Ġac ta
Ġpart im
Ġnomin atus
Ġdec lin
Ġcomp l
Ġpu erum
ĠÐ º
Ġvide amus
ĠGraec is
Ġius sit
Ġtest is
ĠJ ud
Ġign is
Ġpet i
Ġreliqu um
ĠPh il
Ġquaest ionem
ĠTh om
qui esc
Ð¾Ð ²
Ġteneb rae
ĠLib ero
Ġsor or
Ġpen itus
"\"\"\"\"\"\"\"\"\"\"\"\"\"\"\"\ "\"\"\"\"\"\"\"\"\"\"\"\"\"\"\"\
Ġadminist rat
. ]
N unc
u f
ae n
ol um
Ġcon st
ĠE rat
ĠS en
ĠS ent
ĠC amp
Ġb r
Ġpot entiae
ĠH en
ĠF ret
Ġanim alia
Ġleg i
Ġincol ae
ad a
ĠRoman is
Ġexc us
Ġvolunt atis
Ġvirtut um
Ġconi ung
Ġproc ul
ĠSic ut
Ġprod uc
Ġcoll oqu
Ġdil ectus
Ġdim itt
ow n
ĠVid etur
Ġiniur iam
ĠCic ero
Ġcot idie
Sa int
7 0
S ic
] [
h or
m e
r ium
Ġqu andam
at ium
Ġc aec
Ġm atur
or ium
Ġt alia
Ġh unt
ec erunt
ent issime
Ġut ile
ĠA ene
ĠI dem
ip s
Ġfac to
ĠP or
Ġg ign
iv ae
ĠM C
Ġvel ut
Ġne x
Ġess entiae
ĠB al
Ġcomm ut
Ġfec imus
og en
Ġ18 8
sequ i
Ġintell ectum
Ġsal tem
Ġux ores
Ġintelleg i
ĠPat rem
ĠAb rah
ĠSanct us
ation i
Ġargum entum
ĠOctob ris
Ġiud ex
S T
b o
c is
l av
m ata
p ot
s al
u ers
y ri
Ġe andem
Ġp un
ic as
Ġv icus
es per
ar ibus
ĠC ras
Ġper fer
Ġb arb
Ġg rammat
Ġpot eris
ĠM ont
ĠL ingu
ĠB el
Ġnum er
Ġoc ulus
Ġoc tav
Ġcaus as
Ġcap ere
Ġamic orum
Ġact iones
Ġinf orm
Ġ5 0
Ġcred imus
Ġnov am
iens is
iti arum
pos s
Ġconstit uit
ĠPat re
ĠIes um
Ġcontin entur
Ġpor no
Ġfor o
Ġcel erit
ĠPrae s
Ġpal am
ĠMos es
Ġpauper t
Ġpolit icarum
Ġcarn em
Ġsod alis
Ġsimili que
Ġappare at
Ġcondem n
ĠArv ernia
L ib
b a
à µ
it y
it os
Ġp e
at ia
at ius
Ġc av
Ġn ud
ĠS ac
ĠS ab
Ġper cus
Ġfac iant
Ġg er
Ġpos ita
Ġsc and
Ġeius modi
Ġpot uerunt
eb unt
ĠL oth
ĠH uic
Ġcont end
Ġsec us
Ġreg i
Ġven iat
Ġimp os
Ġimp ort
Ġillum in
Ġbene vol
Ġdomin i
Ð¾ ÑĤ
Ġmun ere
Ġsing ulis
Ġprod est
Ġcoll oc
Ġeff ug
Ġperic ulum
Ġexcept uri
Ġinst rum
Ġdemonst rat
ĠPic ardia
? [
a il
h on
u erat
Ã ¤
Ï Ģ
Ġqu int
on o
st er
Ġd ile
Ġf iant
un iae
ant iae
ĠA em
ĠC an
itat a
Ġposs em
Ġr ogo
ĠL ud
Ġam itt
Ġvol uerunt
ĠĠ Ġ
ĠB e
Ġreg ionem
Ġman s
Ġnos se
Ġrat iones
Ġurb ibus
Ġmal ed
ĠNon ne
Ġconc ord
ĠAt qui
Ġins ula
Ġrespon sum
Ġmed ium
Ġproc ur
Ġmens es
Ġsac ram
Ġpac e
Ġmi ra
Ġlac rim
Ġnar rat
Ġperf ecta
Ġfig uras
Ġsempiter num
ĠRes pon
ĠNo e
Ġmultip lic
Ġattin et
J ohn
a h
t am
x erunt
Å į
á »
er no
Ġs o
or y
Ġin est
Ġf at
ent ior
Ġnon n
Ġl o
ĠA quit
ĠS in
Ġme as
ĠD um
ra verunt
iv id
Ġpot ui
ĠR erum
ĠF T
ĠF uit
ĠT unc
Ġma j
Ġor ig
ep i
Ġar ma
uli el
ire s
Ġdol ere
Ġsp e
Ġoc to
iat io
Ġrat ion
Ġurb es
Ġsuper b
Ġapp lic
Ġpu ero
Ġins id
Ġdef unct
Ġnesc it
ĠGraec os
Ġius ta
Ġtran se
Ġign osc
Ġoport ere
num er
Ġvi xit
ĠAp oll
Ġfl uv
Ġev angeli
Ġaudiv imus
Ġlic ebit
Ġdesc rip
Ġlac us
Ġtem per
Ġá ¼
ĠBor uss
ĠNormann ia
Hispan ice
5 6
5 7
@ Ą
c a
d o
m itt
n de
o ec
ä »
Ġn ulli
Ġm ox
Ġm onte
Ġf ine
ol v
Ġl eo
ac i
ac tum
ab imus
il li
ĠE um
ĠC irc
ĠD iet
itat ur
ĠP ap
Ġsed is
and is
Ġvid eat
ĠH odie
isc us
Ġpl ant
Ġfu i
Ġlib erum
Ġdix isse
Ġvir is
Ġloc uti
Ġaud ac
ĠAn d
Ġsem et
Ġpraes entia
Ġvoc ant
Ġput ant
Ġdiv itias
Ġdes iderat
Ġdoc t
sit an
Ġcert o
Ġimper ii
Ġsus p
Ġhon orem
ĠJ o
Ġconi ug
Ġ17 9
ĠAl iter
Ġnoc t
Ġth es
Ġtrib u
Ġpac tum
Ġvet ust
Ġmot u
Ġnol ite
ĠPl at
Ġpraest are
Ġsimil itudinem
Ġben ign
Ġmanifest um
Ġvul go
à« ¨
Ġfiduc ia
Ġmom enti
ĠApr ilis
by ter
Ġcrud el
Ġcelerit er
5 1
E cce
d om
l end
p a
p ta
u os
y c
y n
Â Ń
Ì Ħ
Ù Ī
at to
Ġc ito
Ġm entis
ic ulum
Ġet enim
ib ilia
oc k
ĠC ae
ĠC umque
Ġco eperunt
Ġhab itavit
ĠN esc
und e
eb amus
Ġver bi
Ġips ae
ĠH uius
Ġat trib
Ġpl ena
ov e
Ġfec eris
Ġvir os
Ġven isset
ĠO cc
Ġman ere
Ġvoc avit
Ġput a
Ġexp ect
Ġcomp ut
ĠRoman os
Ġdoc tor
Ġabs ur
Ġhon ore
Ġmed ioc
Ġstud ia
Ġw ith
Ġlong ius
Ġintellig i
Ġintellig ere
num quam
Ġpecc ata
Ġimm ort
ĠAp p
Ġhabe am
ĠPet rus
Ġnunt ia
Ġcas us
Ġgest a
Ġnav ig
rop ter
Ġaffect us
Ġbapt iz
ĠMC M
7 9
A T
t on
v id
Å ĵ
Î º
Ð ¿
ä º
Ġc entes
Ġd abo
or sum
Ġf auc
es iae
un ae
ĠQu ir
ens em
Ġ( -
ell e
Ġcu jus
Ġreg ionis
ran s
eris que
Ġloqu imur
Ġmagn ae
Ġmagn itudo
Ġput at
Ġcur sus
Ġciv ium
Ġeccles iis
ĠFranc icus
Ġsent ire
Ġpers uas
Ġopp ugn
Ġfr ustra
Ġord inis
Ġdisp lic
Ġrect um
Ġdem um
Ġdist ingu
Ġpor ta
Ġmon st
Ġav ar
Ġhost es
ĠCat ala
Ġconv iv
Ġaccep imus
ĠPa ulus
Ġarch iepiscop
Ġdemon str
Ġnat os
Ġasc end
ĠEn n
Ġsubs ist
Ġextrem um
Ġdoctr ina
A ct
S c
i en
i atis
m p
u erint
y d
Ä «
Ð ´
Ð ¼
Ġ Ä
Ġ é
Ġ umb
um entum
Ġf rum
ar s
Ġad sum
ac k
Ġut inam
Ġomn ipot
Ġme os
Ġdic endo
Ġver ius
Ġer is
Ġam o
ĠT amen
Ġun quam
issim am
Ġob t
ont o
Ġgrat is
Ġinv oc
Ġcl ass
Ġprob are
Ġfr u
reh ens
Ġimper io
Ġsanct us
oli a
Ġdign itate
pect um
Ġliber os
Ġcup io
Ġmater iae
ĠPh ara
ĠPh aed
ĠAp ud
ĠIuli a
Ġtrad idit
ĠAnt ioc
ĠIm mo
Ġrev oc
ĠSpir itum
Ġfem inae
Ġmer idi
Ġadul ter
ÑģÑĤ Ð¸
Ġinfin itum
ĠSec undum
Int er
ĠCatala uniae
5 3
D ixit
d en
r ica
Ñ ħ
it orum
am entum
Ġc at
or p
Ġf ra
Ġh Ã¦c
id erit
ul arum
ed i
Ġl en
ĠE z
ĠS oc
ĠC ui
Ġme orum
ĠD om
ĠD ioecesis
ta x
Ġprae di
ili or
Ġposs ibile
Ġvel is
ĠH eb
ĠB en
ine at
Ġven erit
Ġsim ilia
Ġsim plex
ĠAn glic
ĠÐ ļ
ios i
Ġmaior is
Ġpraec eptum
Ġlingu is
Ð¾ ÑĢ
Ġing ressi
Ġexerc itu
Et iam
Ġtant ae
ĠCon f
Ġconven ire
Ġpulch r
Ġfamili ar
Ġperson am
Ġperm an
Ġbib endum
Ġgaud io
Ġcal am
Ġconsuetud o
Ġopin or
pr ice
Ġrev el
Ġimag inem
rin sec
ĠFoeder alis
Ġfauc ibus
I C
M ag
N ec
u er
v el
Ġp iet
Ġn it
Ġn uper
Ġin quis
ut rum
Ġi unct
ar er
ar ing
ant er
ĠP raec
iss emus
ĠL ae
Ġvol ut
Ġacc ur
ĠB est
Ġcont um
Ġsp lend
Ġob iit
Ġpraes um
Ġvoc ari
stit it
Ġsicut i
Ġpop ulos
Ġserv os
Ġfrat ri
Ġdoc uit
ĠLat inae
Ġ7 0
Ġsaec ula
Ðµ ÑĤ
Ġlong um
Ġtant i
Ġpo eta
Ġmov etur
Ġeffic itur
Ġmand atum
Ġredd ere
Ġch risti
Ġnegot io
Ġconsuetud inem
Ġcop ia
Ġinim ic
Ġpuell ae
Ġamb ig
Ġcontem n
Ñĩ Ð°
Ġcael orum
Ġproport io
@Ą ą
S t
U N
m ae
s on
Ġ $
Ġa ffic
Ġs ter
Ġc am
Ġc od
Ġin op
Ġv as
il itate
ot ae
Ġb ore
ect io
ĠP ublic
Ġtu orum
ĠM aria
Ġvel uti
Ġvid imus
ari os
ess et
ĠB er
Ġcomm ent
Ġcomm itt
ient iae
Ġprim ogen
Ġman e
ĠAn nis
Ġpraes entem
Ġvoc es
Ġiudic are
Ġdes id
Ġsent io
Ġserv o
Ġgrat um
Ġscrib o
Ġviv unt
Ġcar ne
Ġdef ens
Ġtra h
Ġpropr iam
Ġadm ir
ĠPat ris
Ġth at
Ġaudi erit
Ġpulch errim
Ġphilosoph us
Ġexemp lar
ation um
Ġgaud ium
Ġdiss er
Ġepist ula
Ð¾Ð ¼
ĠPost ea
Ð°Ð ¿
pr od
Ġcogno v
Ġra dic
Ġir r
ĠCap ut
Ġpossib ilia
Ġobi ectum
Ġmunicip ium
Ġmend ac
T or
U S
e us
ur n
Ġf erm
Ġh ave
os a
ĠA ch
ĠC el
Ġdic eretur
end os
ĠQu orum
ĠQu ando
Ġhab eri
Ġr u
erit as
Ġvol uerit
Ġpl an
Ġnost i
Ġsub l
Ġag endum
Ġciv es
ĠRoman o
Ġing ressus
Ġaccip it
Ġsubi ecta
Ġaequ um
Ġluc et
Ġfor nic
Ġantiqu a
Ġphilosoph iae
Ġdiss ensio
ĠAegypt um
Ġhonest e
Ġ/ /
Ġnar r
Ġiuc undum
Ġfig ura
Ġbenefic ium
ĠMo ys
ĠImper ii
Ġantep on
Ġquadr aginta
ĠOm ne
ĠEz ech
G en
g uis
Î ·
â Ĩ
er ter
in vent
Ġqu icumque
Ġp ign
Ġc ent
Ġn a
em pt
Ġf ont
Ġh ercule
Ġre de
se l
Ġquod cumque
ĠS aepe
ĠC am
Ġsi g
ĠN isi
iv o
eb is
Ġu ide
Ġu iu
Ġr id
Ġcons on
ĠV is
Ġun i
Ġnost ros
Ġsim iles
Ġpraes enti
Ġput et
ux erunt
Ġdiv in
og allic
Ġcorp ora
rem o
Ġmaior ibus
Ġrespon de
Ġux oris
Ġduc e
Ġdign a
Ġpet ere
Ġind ivid
Ġfal s
Ġbeat i
Ġvet eres
Ġpossess io
Ġart is
ĠGal li
Ġatt end
Ġalien o
Ġ194 6
Ġsin ist
Ġmerc ed
olog iae
Ġnasc untur
Ġsociet atem
Ġiniur ia
Ġpoen am
ĠAf ric
Ġpereg rin
. :
8 0
G raece
c it
e f
h n
i k
r ici
Ġ Å
Ġ ï¿½
Ġs tare
is iones
Ġc and
Ġc erta
Ġd id
or am
Ġv ade
Ġpr odi
Ġad eptus
il itatis
ĠS erv
ĠC ant
Ġfac erem
Ġb is
ĠP ort
omin e
no v
ĠM ulta
Ġquo quo
Ġver sus
Ġvel lem
Ġvid isset
Ġr ob
Ġaliqu i
Ġcons iderat
ĠG uliel
Ġint ent
Ġbon ae
Ġven en
Ġmult as
Ġdu abus
dic t
Ġist ae
Ġmaxim am
entes imo
eli um
ĠÐ ´
Ġten et
Ġ201 3
Ġopp rim
Ġexc el
Ġprincip ia
Ġsanct o
Ġnecess ario
Ġlaud em
Ġlong a
Ġmun era
Ġdon um
Ġeffic it
Ġfor sitan
Ġfin ibus
Ġcan on
Ġdefin itio
ren ae
Ġcast ra
Ġdis per
Ġlaet itia
ĠEpic uri
Ġno uit
ĠArist ot
rius que
ĠInfer iori
ĠAquit ania
I am
P age
c ere
r uc
r icus
Ġ ë
Ġ Ã¦
Ġs ect
it iones
Ġp ontific
Ġt ang
re al
Ġf ung
li x
im ini
Ġh om
ent iis
Ġre dem
ac ula
il itas
Ġex aud
ĠC erte
Qu o
Ġper se
Ġill uc
Ġsc iat
Ġquid d
iss is
ĠF ab
Ġma iorum
Ġint us
ĠB urg
âĢ ĵ
ig ht
Ġinter esse
inc ip
Ġpat res
Ġdol oris
Ġ3 2
Ġcommun em
Ġurb icula
Ġciv is
Ġdec ern
Ġconf ess
ĠÐ ¾
Ġ5 7
Ġpers ec
Ġpraeter ita
Ġvide or
Ġconsequ i
Ġduc ere
Ġgra dus
Ġull um
Ġsen atu
Ġconstit utum
Ġpropr io
ĠCon c
Ġpraedic atur
Ġfaci atis
Ġfaci ebat
Ġquin qu
ãģ ®
Ġaequ o
ĠPh ili
ĠGerman ia
Ġsing ula
Ġperfect io
Ġexemp lo
Ġrespond ens
Ġcorr ig
Ġquar tum
Ġceleb r
Ġpert urb
Quam quam
ĠEb or
ĠPhaed rum
prod uct
8 9
I d
L at
T emp
b est
s ic
y m
Ġ urg
Ġe b
Ġs imus
Ġs ati
on ii
on ensi
Ġv ar
Ġt ol
ar r
Ġad t
Ġl ectus
ab ar
ĠI ap
itat ione
Ġb l
Ġco h
Ġhab itus
Ġpot erunt
ĠM us
Ġap t
ĠR hen
Ġpro fer
Ġinc on
ĠT orqu
ĠB eat
Ġor ta
Ġlib erat
Ġres id
Ġres crip
eri is
Ġfec erat
Ġter m
Ġ- -
Ġman sit
Ġ4 9
ug iat
Ġcomp lect
Ġ5 6
Ġpraefect us
Ġmem ini
Ġsal us
ĠCon sequ
Ġcontr ario
Ġepiscop i
quis que
Ġtur pe
Ġlux ur
Ġbre vi
âĢĻ .
ĠAs s
Ġdivers a
âĢ¦ ]
Ġorb em
Ġdev or
Mont real
ĠJes us
poss ibile
Ġvolut pat
UN IT
Tor onto
I ll
M an
g e
y mn
Ð ±
Ġ ol
Ġs ag
Ġs urg
et um
id ae
Ġl orem
ac ti
Ġut riusque
il itatem
ĠS el
Ġdic ebant
ĠP al
Ġg em
no x
Ġhab entur
Ġpot issimum
ĠM aced
Ġver t
Ġer ip
ĠH er
Ġpro i
Ġcons ens
ĠV ic
ari orum
Ġma ximus
Ġint rod
Ġmin orem
Ġmult itudinem
rae sent
Ġciv ibus
Ġnomin ibus
Ġinv estig
Ġfrat ris
Ġins ulae
Ġ6 9
Ġaet atem
Ġsatis fac
Ġsens ibus
Ġph ys
Ġdiscip ulus
Ġdiscip lin
Ġmater iam
Ġrespond ere
Ġfin es
ĠGal liae
ulg ate
Ġy our
Ġcong ue
Ġfem ina
Ġquaes itum
Ġminist rorum
ĠMich ig
ĠAbrah am
ĠLoth aring
ĠLud ov
N ull
N isi
P l
P er
a libus
e u
u jus
v m
á ¿
qu ot
Ġa ere
Ġp urg
Ġp eperit
Ġc m
Ġc en
Ġm ari
Ġf lor
Ġh eb
id ium
ec c
ent u
Ġut ero
il a
ot o
Ġpot ens
Ġcom pon
Ġcons ilia
Ġcont ig
Ġcor rum
ĠO pt
Ġnum eri
Ġ3 4
Ġag am
Ġhabet is
Ġexp os
Ġdisc ed
Ġfort itudo
Ġconf id
Ġiust ific
Ġcol or
Ġcert us
Ġform as
Ġalter am
Ġnecess itate
Ġgra vis
Ġreliqu erunt
Ġsup p
Ġdiscip lina
Ġintellig it
ĠCiv itatum
ĠUn ivers
lo ad
Ġcontin et
Ġpac to
Ġobs ec
Ġobs cur
ĠPl ac
Ġparv ulus
Ġang ust
iret ur
Ġaccid ens
Ġaccep i
Ġaug ue
ĠIp se
Ġvalet ud
Ġcrim en
Ġau fer
Ġantep os
Ġoccident alis
ĠVir g
ĠQuir ites
Ġcontum eli
âĨ ĳ
D ol
G erman
o f
s an
Ġ lim
st i
Ġd abit
Ġm ores
or ta
Ġt ard
Ġi ra
ar us
Ġre qu
ĠA ud
ĠI gitur
ĠC et
Ġdic emus
ip so
Ġper i
Ġb y
Ġg essit
eg o
Ġeius que
ĠM il
ĠM erc
ĠM olest
Ġop eris
av erat
Ġam orem
ĠF al
Ġpar iter
Ġpar oec
isc ip
ĠEa dem
Ġacc essit
Ġar tem
Ġleg imus
Ġdol o
Ġsem in
Ġpu p
Ġconf er
ĠÐ Ĺ
Ġmat hem
Ġdoc ere
Ġval e
Ġpa x
Ġsanct ae
Ġtran si
Ġmut are
ĠMar cus
Ġconi uncta
Ġglor i
Ġtrans f
Ð½ Ñĭ
th ag
Ġvult is
Ġamp li
Ġcop iae
Ġcong ru
Ġequ um
ĠHi er
Ġaux ili
Ġmilit es
ĠEpic urus
Ġcontem pt
Ġflum en
Ġpraet orem
Ġcael est
Ġabsc ond
Ġty ran
Ġpres byter
ĠAcadem iae
Ġsyll ab
var ic
ĠMCM L
A m
E T
O N
a se
c o
s k
y p
æ ľ
Ġa ustr
Ġp eper
Ġc ave
Ġm o
ur es
Ġi rac
Ġi ratus
li go
ul ch
ib ili
ol it
ĠS a
ĠC re
ĠC ato
orum que
Ġfac imus
Ġhab itum
Ġhab ebant
arum que
ĠM iss
Ġvid ent
Ġid one
Ġim it
ĠV I
Ġpotest is
ĠG a
ĠG u
ĠG rat
ĠB ene
Ġinter c
Ġloqu etur
Ġter ris
Ġsub ito
Ġmult arum
Ġnomin i
ĠâĢ Ŀ
ene x
Ġdec ess
Ġcomp lex
Ġdes ert
Ġocc ur
Ġpublic e
Ġquos dam
Ġ201 4
Ġconsequ ens
Ġinven it
ĠAr d
Ġing red
Ġdign itatis
ĠMar iae
Ġstud iis
Ġstud ebat
Ġexist imo
Ġspec iem
Ġfamili as
Ġpraest o
Ġatt ing
Ġmagist ratus
Ġingen io
Ġscript is
Ġdivers is
Ġsociet as
Ġperven it
Ġdex t
ĠIns ula
Ġcontrovers ia
ĠHelv et
Ġfra ud
Ġmathem at
( '
H odie
c on
c uius
i atum
v ae
x i
Ä ĵ
ç ļ
Ġ um
Ĭ ¤
in os
Ġp anem
Ġn orm
Ġin numer
Ġv ine
Ġv ici
Ġt ales
Ġf orum
Ġf undum
et us
un icip
Ġut itur
Ġex pon
ĠS us
Ġdic ti
Ġper dit
Ġill ust
itur a
atur us
Ġhab ui
ĠN ap
Ġver ae
Ġinc omm
Ġma iore
Ġacc epta
ĠB on
ĠB as
Ġreg iones
Ġst up
Ġar s
ap ropter
Ġoc ulorum
Ġsub d
Ġmult itudo
Ġmort is
Ġdom ibus
Ġag unt
Ġ[ âĢ¦]
Ġdisc ern
Ġrep ugn
Ġded ic
Ġmortu o
Ġcogn itione
entes que
Ġinf am
ĠAt l
Ġmis erum
isp rud
Ġvest ig
ĠGraec ia
Ġsens it
ĠJ os
Ġpet o
ĠCon stant
Ġsac ra
Ġcontin uo
Ġmon ast
Ġmand uc
Ġepist ulae
Ġfaciam us
Ġaff irm
Ġperpet uum
Ġnim irum
Ġbened ic
Ġdioeces is
ĠEs se
Ġedit ae
Ġproeli o
ÑĩÐ° ÑģÑĤÐ¸
ĠÐĹ Ð°Ð¿
) :
C or
I N
O R
h er
v s
z a
² ł
å ħ
ì Ĭ¤
í Ĭ
Ġ ç
at ed
Ġm eret
ur p
om p
ar y
que b
ab iliter
ĠE ph
ĠI up
ĠS il
Ġdic tus
est us
Ġper sequ
Ġprae varic
Ġg raec
Ġco eper
iv us
Ġquid dam
eb ar
Ġu al
Ġop ponitur
av is
Ġinc lud
ĠV II
inc eps
Ġreg ibus
Ġar ti
Ġloqu eris
Ġter min
ĠIn de
Ġal bus
esc it
Ġpart is
Ġput es
ern a
Ġdiv inum
Ġrep raesent
Ġdes per
Ġplac ere
Ġvis a
... ]
Ð¾ Ð½
Ġnesc iebat
ĠGraec orum
Ġeg reg
Ġplur ima
Ġdign us
ĠPr imus
Ġaccip iat
Ġmed ic
Ġw e
act enus
Ġ| |
Ġprovinc iam
ath ed
Ġpon it
ĠQuis que
Ġult imum
Ġcond imentum
Ġgrav ius
Ġamp l
Ġexemp la
Ġnegot ia
Ġon us
Ġpauc a
Ġcogno vi
ĠMos ellae
Ġacced ere
Ġanc illa
ĠAthen is
Ġpereg r
ĠPy renae
ĠEv angeli
ĠÐĹÐ°Ð¿ ÑĩÐ°ÑģÑĤÐ¸
²ł ìĬ¤
íĬ ¸
²łìĬ¤ íĬ¸
5 2
6 3
6 4
A p
L u
P h
T he
Ñ İ
å ®
um entis
Ġs el
it ibus
it le
Ġqu alem
Ġc ras
Ġc amp
Ġv ent
Ġv esc
Ġi act
id ia
Ġnon numquam
oc a
oc r
Ġre di
al itas
Ġcon l
Ġsc ito
Ġse v
ĠR ec
ĠT ert
ĠEa UNIT
Ġinter n
Ġor nam
Ġlib era
oqu in
Ġreg ionum
Ġcre ata
Ġar te
Ġven erat
ĠO ffic
Ġvit io
Ġcap i
Ġded erit
Ġcorp or
Ġ5 9
Ġcar itate
Ġnov it
Ġprov id
Ð° ÑĤ
Ġdilig entia
Ġplur is
Ðµ ÑĢ
Ġ9 8
Ġintellig itur
Ġem end
Ġtrans fer
Ġfal l
Ġtim ere
Ġsermon es
Ġdiff erunt
ĠSic ilia
Ġprod uct
oth ec
Ġhabe atur
Ġprof ess
Ġbib ere
Ġvig il
Ġquot idie
Ġingen ium
Ġorient ali
Ġhistor iae
Ġdia b
ĠAtt ico
Ġline a
Ġoccident ali
ĠLig eris
Ġlign um
Ġinn oc
Ġprodi erunt
Ġë ²łìĬ¤íĬ¸
ĠLotharing ia
Ġaustr alis
5 5
6 8
C ar
E r
M a
V ol
e z
s unt
Ã ²
Î ¼
Ñ Ĩ
Ø ±
á º
Ġ ul
Ġc ed
Ġn ullius
Ġin u
Ġin ut
Ġv esper
Ġi un
ar emus
ĠE ius
ĠE odem
ĠA dam
rat ur
ist ae
ĠN az
uc h
Ġpot ero
ĠM is
ĠM on
ĠM or
Ġab b
Ġvid entes
Ġu era
ĠL ond
ĠH om
ĠR em
ĠR ub
Ġpar iet
Ġcons ue
Ġmod erat
00 3
Ġvir orum
Ġprim ae
le v
Ġmagn itudine
ĠU r
Ġdu orum
res sum
Ġdeb eo
Ġag rum
Ġsan guis
Ġiur isprud
itud ines
Ġdes ertum
Ġ200 5
Ġnov em
Ġ7 9
Ġfam a
Ġind ustr
Ġw h
Ġw as
Ġpraedic antur
Ġlat inam
ĠCaes ari
ĠFoederat arum
Ġth is
Ġperfect ionem
Ġquaest iones
Ġeffic ere
Ġconsul es
Ġgaud eo
Ġunus quisque
Ġlabor avit
Ġsept u
Ġaux ilio
Ġvideb itur
Ġpossid et
At que
ãĢ Ĥ
Ġtestam ento
Ġangel us
201 5
ĠEpiscop us
Ġrelic ta
Ġmemb ra
ĠQuint us
Ġpraecl are
Ġpap a
Ġthes a
I l
U M
V ulgate
h uc
l er
p sit
t t
Â °
Ñ Ī
à ¤
Ġs ursum
Ġs enex
in orum
Ġp unct
on y
Ġc are
Ġd ari
Ġin an
Ġv ias
Ġv ariis
ut h
Ġi uli
en as
es ima
unt ia
ar it
os se
ec i
ul atus
Ġpr em
Ġpr ol
Ġre dit
Ġquae sumus
ĠA qu
ĠI ov
ĠD es
Ġb as
rat i
quam ur
Ġhab erem
iv am
Ġpot erant
und is
eb itur
Ġvid erit
Ġvid etis
Ġop eri
av imus
Ġcons id
Ġcons pic
Ġcont entus
Ġcomm ov
Ġpat itur
Ġst atum
Ġsp ons
ĠIn d
Ġoc t
Ġimp on
Ġcuius dam
Ġas pic
di et
Ġopt imus
Ġinven erunt
Ġdign itatem
Ġaccip iunt
Ġpertin uit
Ġaper t
Ġcontr arium
ĠSanct o
Ġmov et
ard in
Ġphilosoph i
Ġaetern itate
ulp a
Ġart ic
Ġnol o
Ġclar itatem
Ġproxim um
Ġingen ii
Ġinim ici
Ġ194 5
Ġ199 9
Ġmar t
Ġfortun ae
Ġasper iores
Ġment ionem
Ġplen um
Ġconsec utus
Ġorb is
com p
ï¼ Į
Ġgrad u
Res pon
own load
Ġaccur ate
ĠAtl ant
7 7
I o
P ater
i ani
u ia
å ı
Ġ à«¨
em a
Ġm ass
or k
Ġin esse
ic ia
Ġv ulp
ut ionis
re v
Ġf as
li ane
en i
Ġl arg
Ġex itum
ĠE lis
ĠE quidem
Ġper v
ili am
Ġsed ul
Ġhab entes
Ġsc i
ĠM el
ĠH is
Ġca li
ĠR eli
ĠF orm
ĠF ilium
ĠT ub
Ġtemp est
Ġacc ommod
Ġmod is
Ġsec utus
Ġst ell
ient er
Ġven io
Ġloqu ere
Ġaud io
Ġdeb uit
Ġrat ionibus
Ġist uc
Ġcur r
Ġiudic ii
Ġdiv inae
Ġ4 3
Ġcogn itio
Ġpublic um
Ġviv endum
Ġdicit is
Ġmor itur
Ġfi x
Ġcae ter
ĠAr g
Ġj uxta
Ġeg ressus
Ġimper diet
Ġnecess itas
Ġvirtut i
Ġpul v
Ġoper atus
tr ue
Ġvult us
Ġhabe amus
ĠGal lia
Ġhost ium
Ġsimil itudo
Ġpugn a
ĠCar olus
Ġaccid erit
âĢĻ ,
Ġuid etur
Ġson um
Ġscriptor es
Ġsch ola
Ġscel ere
Ġvac ua
Ġbest iis
Ġecclesiast icae
Ġau f
Ġappar uit
Ġconclus io
Ġuir tut
Ġpercip i
ĠInfer ioris
Ġmisericord iam
?? ??
Ġdexter am
Ġperhib eret
Ġmatrim onium
Ġcord is
Ġarchiepiscop us
invent ory
ĠBurg undia
çļ Ħ
, [
. Â»
8 4
A nt
a ut
i ata
l at
n g
o us
p ost
r id
s ur
Ã ±
Ġ `
er vi
Ġs ab
am a
am enta
Ġd imis
Ġm ob
Ġt el
Ġi ung
Ġf il
en ae
Ġh er
Ġh actenus
ol d
Ġad ept
ion ys
Ġsu ad
ĠE sa
ĠS ub
ĠS ap
ĠD ie
Ġdic es
Ġdic etur
Ġali arum
Qu ia
Ġ1 18
Ġfac illim
Ġg ess
ĠM er
Ġab omin
Ġer ub
Ġaliqu os
isc ere
ĠG o
Ġinter dic
Ġreg ula
ro nt
ven it
abul a
Ġprim i
Ġnos met
Ġag i
Ġpraes c
Ġvoc at
Ġput are
Ġtabul ar
Ġcap iunt
Ġexp l
Ġciv ili
Ġeccles ie
Ġnomin avi
Ġ4 4
Ġinv enta
Ġnot itia
Ġcred id
Ġpraeter ito
Ġopp ort
Ġval ere
Ġvest ibulum
Ġ6 0
ill us
Ġcet er
Ġconi un
Ġod ium
Ġadi ung
ric es
ev o
ang u
Ġantiqu ae
Ġbeat am
Ġexplic at
ĠPost quam
De us
pr op
Ġaur es
Ġle vis
Ġmilit ibus
ĠVen et
Ġtribun alis
ĠScip io
Ġimagin es
ogn osc
Ġder el
ĠProp ter
Ġcompet it
rinsec us
Ġiurisprud entiae
6 9
D ic
E a
L ingu
T h
f ex
h aec
i Ã¦
l ine
n er
r oc
u atur
Ù Ħ
å Ī
Ġe unt
qu ia
in k
in ii
ae t
ae qu
Ġv ect
Ġt ellus
ec erit
ul aris
Ġre nunt
Ġl us
Ġex itus
ĠC a
ĠC oll
Ġ1 00
Ġfac ite
eg it
iss ae
ort uus
Ġver am
Ġvid ens
Ġvid eris
Ġvid endum
Ġr is
Ġr ust
Ġne pot
ĠF r
Ġcons u
Ġcons crip
Ġpl or
ĠB ab
Ġinter fect
Ġor ator
eri es
ĠO c
Ġmult orum
Ġpost er
Ġag imus
Ġag ri
Ġsuper ius
ali z
Ġis dem
Ġconc lud
Ġdie i
Ġ5 2
Ġ5 4
Ġdicit e
Ġexc og
ĠIta liam
Ġux ori
ĠGraec a
Ġaet as
Ġext ran
Ġoffic ii
erb a
Ġexerc it
Ġfut uri
Ġreliqu is
Ġ12 9
Ġspec ia
Ġfal lac
Ġbe ate
ĠGerman icus
Ġtrib ul
ĠReg num
Ġauctor itas
ĠÃ ł
Ġcal c
Ġhuman itas
ĠIos ue
Ġproxim e
Ġmeli orem
ĠCat il
ĠSpir itu
Ġutil itatis
ĠHi erusalem
Ġscrips isse
Ġsust ent
Ġrefer re
Ġsaep issime
Ġret t
Ġturp is
ĠIoseph us
ĠCl aud
Ġfacult atem
Ġdatur us
Ġperspic ere
Ġabsc on
dixit que
Ġinterf uit
ĠIoh annes
Ġschol am
ĠFret o
àµ į
ĠAntioc h
ĠPhili pp
Ġarti fex
5 4
6 1
7 8
C ap
E nt
S al
d es
m ent
p it
s ch
v ille
é ĭ
Ġa e
Ġs ta
Ġqu icum
Ġp om
Ġp end
Ġp urus
on ec
Ġn ationes
ae que
em ent
ic ere
en ique
Ġh eri
id is
ac um
Ġquam uis
ĠC ast
ter um
Ġprae tere
itur g
ra que
Ġpos uere
eb untur
Ġvid ete
ita vi
Ġr isus
Ġr hon
Ġsit us
av a
ĠL ong
ĠF lor
ĠF ilio
ĠF inn
Ġsol ebat
Ġbon am
Ġreg im
Ġnost rorum
Ġleg o
Ġleg ata
Ġ19 18
Ġman uum
Ġann us
ĠU num
entia s
Ġvoc atum
Ġcur am
Ġexp lor
Ġexp edit
Ġeccles iarum
Ġ4 2
Ġdec imo
Ġtot us
eli x
Ġinv entum
Ġmaior i
Ġpraec eper
Ġcar m
Ġsign is
Ġvide os
Ġprob arent
Ġfr om
Ġdilig entissime
Ġvic tus
ĠAd m
Ġbell a
Ġsac ri
Ġmuli eris
Ġimm ut
ĠSanct ae
Ġepiscop o
Ġmov eri
Ġult ima
Ġconven iat
Ġsing ulos
Ġpulch rum
Ġaetern am
Ġref eruntur
Ġredd et
ĠPl anc
ĠPl ato
Ġprom itt
Ġbre vis
Ġaccid ere
Ġdesc rib
Ġlac inia
Ġiac et
Ġfoed eris
ĠPom pon
opt ion
Ġment itum
ĠCl od
ĠBritann ia
Ġprud entia
Ita liane
Ġsangu ine
Ġmy ster
Ġaeg rot
Ġvictor ia
Ġdiscess imus
eunt e
Ġnex us
Ġperfer endis
Ġquint o
atto os
ĠEnn ius
A R
D ec
M unicip
S ec
b um
n ec
n iae
n unc
u at
v erit
Î ¯
Ġ osc
Ġ \/
Ġe quit
it etur
in ati
Ġqu ales
at as
Ġm edit
ut ate
Ġf erunt
Ġf ert
Ġf oris
ĠE o
ĠA v
ĠS at
ĠS int
ĠC aec
ip at
Ġper p
ĠP os
ost oli
Ġpot uerit
iss us
Ġquo libet
Ġposs emus
Ġab est
Ġop es
av eris
ult ur
emp e
Ġaliqu ae
Ġvol ui
ĠT ibi
ĠV III
Ġacc eperit
ĠB av
Ġor itur
eri que
Ġleg ati
Ġter re
ire nt
Ġaud itum
Ġscrib endi
tin am
Ġins ulam
Ġmat re
Ġmat ris
Ġ201 5
up id
Ġinven iuntur
Ġred dit
Ġduc es
ill is
Ġdilig ere
Ġ8 0
Ġvic t
Ġcognosc itur
Ġmil le
Ġfact urum
Ġhabe as
ĠId us
Ġdep rec
Ġcop iis
Ġpauc i
Ġopin ione
ĠIudae i
Ġpuer os
ĠHispan iae
Ġiac ulis
Ġoff end
Ġrel ati
Ġir asc
Ita que
Ġort us
Ġov es
Ġoccas ionem
ĠZen onem
ĠÐ¿ ÑĢ
ĠIust o
Ġinsip iens
Ġdiut ius
Ġmendac ium
Ġredem pt
ĠâĢĿ .
Ġvulp utate
8 7
A N
E N
M ihi
S unt
d isc
o od
t ol
Ã İ
Ð ·
Ù ħ
æ Ĺ
Ġs urre
us ta
in ius
in io
Ġp are
on ice
Ġc epit
Ġn ou
Ġd iam
Ġm os
or io
Ġin itium
Ġt w
Ġt et
Ġt ulit
ut am
en um
es is
id am
Ġad im
Ġad ol
Ġl ug
il eg
ot am
op ere
al itatem
Ġex cip
Ġex ilium
ĠD an
ĠD ionys
Ġg e
Ġg ens
Ġco el
Ġhab erent
ĠN or
Ġpot uisse
Ġver i
Ġver ec
Ġr idic
Ġam bit
Ġma er
ĠB ellum
Ġcont urb
Ġcomm erc
Ġinter im
Ġfu imus
Ġst atus
ient ium
Ġloqu atur
Ġquis quis
Ġaud ita
ĠU s
Ġput em
ali ae
Ġ4 1
Ġsent iat
ĠCh al
Ġ5 1
Ð° Ð»
ĠLat inum
Ġvest ris
enti arum
reh endi
ĠIs a
Ġius su
Ġtran sit
Ġdilig entius
ĠQuae dam
Ġintelleg it
Ġsaec ulorum
Ġaccip e
Ðµ Ð»
Ġ12 0
Ġconstit ui
ĠEx erc
Ġpropr iae
ast is
âĢĿ ,
Ġpon d
crip tum
Ġexs p
Ġunivers is
Ġantiqu is
Ġantiqu os
Ġaudi erunt
ĠAnt onius
Ġconsuetud ine
Ġopin io
ĠLib er
Ġexspect o
Ġiniqu itatem
Ġquat enus
Ġfel is
ĠUrb es
Ġha eret
Ġdia lect
Ġdepos itum
Ġbened ict
Ġpros unt
Ġspect at
Ġextrem a
Omn es
Ġmisericord ia
ĠIst e
ĠComm un
Ġoccurr it
Ġpraecept is
Ġincred ibile
ĠSocrat es
ĠThom as
Ġmira retur
ĠBer ol
ĠGuliel mus
Ġexcel s
ĠSel ectae
Ġsedul itatem
Ġrhon cus
' s
N eque
P ro
a uit
b erg
h oc
x erit
Ã º
er ium
Ġs eg
am in
am ini
Ġc ense
Ġd isi
Ġt ul
Ġi ei
im os
Ġh ii
os um
ul pt
ul ari
ol ite
Ġad esse
el op
Ġde est
Ġex h
ĠA ur
ĠC ali
Ġdic enda
Ġill as
ĠP ont
Ġco erc
Ġsc itis
Ġvid isti
ell is
ĠH inc
Ġam is
Ġpag inam
ĠF ilii
ĠT re
ĠT ri
ĠV erg
ĠV ultur
Ġsol emus
Ġacc eperunt
Ġcomm odo
Ġsec ret
Ġreg ionibus
Ġcre de
les imo
Ġloqu endi
Ġloqu aris
Ġmagn is
eret is
Ġquem que
Ġag ric
Ġac quir
Ġeam que
Ġrem itt
Ġmal orum
Ġdiv es
Ġpop ulorum
Ġserv are
Ġmis eri
... )
Ġrespon di
ĠAr ab
Ġquaer eremus
Ġplur imi
Ġdign i
Ġlaud e
Ġfact is
": [
if y
Ġadm odum
ĠPh ilosoph
Ġsermon is
Ġexs ist
Ġconven iunt
Ġeffic i
emb er
Ġobs c
Ġsecund am
Ġparv um
Ġindic ia
ĠNov i
Ġequ us
Ġinim icus
ĠMag ni
ĠAut em
Ġmar itus
Ġgest arum
ĠPa ulo
Ġsor orem
Ġaffect um
Ġvere or
Ġparent ibus
Ġtem pt
Ġpraesid io
Ġmus icae
ĠEpiscop i
Ġgenerat iones
ĠPompe ius
ĠInter rog
Ġhabeb is
Ġitin ere
ĠDixit que
Ġib idem
Ġnig rum
ĠHen ricus
Ġomnipot ens
Ġferm entum
Ġsati et
Ġmeret ric
Ġiei un
5 8
I m
g ypt
h el
i erit
o ut
w e
Ð ³
Ø ª
Ġe un
Ġe uis
it are
us a
on dam
Ġc iu
or o
Ġt ent
Ġi f
re tum
Ġf unct
id us
Ġpr idem
Ġl ep
ac ulo
Ġcon j
Ġex im
ĠE os
ĠS ar
ĠS PD
Ġdi rig
Ġfac inus
Ġsed em
Ġcom edit
ĠH a
ĠH anno
ult um
ore et
Ġaliqu ibus
isc e
ĠT ra
Ġess emus
ĠG ab
Ġint r
ĠB a
Ġor o
ran g
Ġant ec
Ġmult itudinis
Ġimp le
Ġcuius cumque
Ġdeb es
Ġtr in
Ġdes unt
Ġ200 2
Ġconf und
ĠCh ana
Ġpublic o
Ġ5 3
Ġten u
Ġplac erat
Ġmis era
Ġnov ae
Ġsap ere
up ta
Ġpa ulum
Ġprincip ibus
Ġintelleg itur
ĠEccles iam
Ġstud iorum
Ġsup pon
act io
Ġglor ific
Ġaqu arum
Ġquin ta
Ġdisp ens
Ġoper atur
Ġpon ere
Ġpon itur
Ġnoc tem
Ġdon a
Ġvult um
Ġcond idit
Ġarg entum
Ġmiser os
Ġredd idit
ĠGal lic
Ġincip iunt
Ġopin ionem
Ð°Ð ·
Ġscript ura
Ġarbitr ium
Ġaur ibus
Ġperd uc
rent ur
Ġmulier ibus
Ġpraem ium
Ġhistor ia
Ġpoen it
Ġsuffic it
ĠOr din
Ġoperat ionem
Ġconcess um
Ġimperator is
Ġsangu inem
ĠPot est
Ġpraepos ita
Ġinqu antum
Ġuit a
Ġmerit o
Ġstip ul
Ġedic tum
ĠTar rac
ĠAmeric anus
Ġcit ius
Ġresurre ct
ĠÐ½ Ð°
ĠPor ro
Ġtranse unt
Ġcentes imae
Ġdid ici
German ice
ĠBab yl
Ġeuis mod
7 3
A ut
C o
C ic
f uit
p ere
p ro
p iter
p rae
Ġc athed
ae us
em in
Ġv arius
Ġt ort
Ġest is
om e
om an
es ne
Ġh end
od e
an ct
an ne
Ġad j
Ġl up
il d
Ġde g
Ġde pon
ĠC ass
Ġdi is
Ġme h
ect is
Ġquid que
Ġab st
Ġr ub
Ġr het
ĠL am
ell am
ĠH ort
Ġam en
ĠR ex
Ġpro ut
Ġpro inde
Ġinc om
Ġinc end
Ġvol ebat
Ġcons ilii
Ġpotest atis
Ġprop ius
Ġeo que
Ġanim arum
Ġcre avit
ient is
Ġcor da
Ġleg itur
Ġloqu eretur
Ġsub j
esc ere
Ġimp rim
Ġcommun iter
Ġag at
Ġvoc ibus
Ġrem iss
Ġciv em
Ġciv ile
Ġ[ ...]
Ġiur i
Ġmortu is
Ġcogn ita
Ġsent iam
Ġsent entiis
Ġfort is
Ġocc idit
Ġscrib erem
Ġcorp oribus
ios is
ret iva
Ġcl aud
Ġins c
Ġvide amur
Ġmolest um
Ġprob atur
Ġvest ram
Ġdign itas
ĠPr incip
Ġsapient em
Ġappell ant
Ġsen ator
Ġlong us
Ġproc ess
Ġintellig entia
Ġmens a
Ġpecc ato
Ġtrans m
Ġost ium
ĠIo ach
Ġdist rib
Ġluc e
Ġprod esse
ĠReg ni
Ġrespond erunt
Ġref orm
let um
Ġhuman ae
Ġsimil em
Ġmagist ri
Ġsucc essor
Ġconv al
Ġquodam modo
Ġped ibus
Ġeven it
ĠIacob us
Ġpret io
Ġvinc it
Ġdiffer entiae
ĠPrim o
ĠPompe i
Ġtabern aculum
Ġdoctr inam
Ġnem ini
ĀĀ ĀĀ
ĠSu ec
Ġservit utem
ĠDiet ae
Ġbore ali
ĠAristot eles
Ġantepos uerit
Ġseptu aginta
Municip ia
disc retiva
ĠChana an
D ie
O L
O r
T um
U bi
b r
e ff
f l
h inc
k r
r ist
s am
v ariant
Ï ħ
å ľ
Ġ !
Ġe idem
Ġs ax
in ter
Ġp oll
on ibus
Ġn atae
ae v
re pt
im enta
ia re
ac c
ĠE li
est a
ĠP op
ens us
Ġhab uerit
ĠN ob
ĠM ess
Ġcom per
Ġvel int
Ġvid ero
Ġu ere
Ġer os
ĠL ic
ĠH eli
ĠH ung
ĠT en
ĠT im
ĠG ad
Ġsec uri
Ġar mis
isi i
Ġven iret
ĠO st
esc unt
Ġnatur ale
Ġcommun ibus
Ġrat ionis
Ġpart ium
cip it
Ġmal itiae
Ġrep ut
Ġmaxim o
Ġmagis que
Ġsent it
Ġocc isus
Ġgrat issimum
Ġinf eros
Ġfid el
Ġpers onis
Ġmis erunt
Ġmor iens
iens es
Ġval eat
ĠGraec ae
Ġ6 8
Ġeg it
Ġeg ressi
Ġquando que
Ġ8 9
Ġsaec ulis
Ġfut uro
Ġw eb
act is
Ġsen atum
Ġmil es
ĠBr utus
Ġpecc are
ãģ Ħ
Ġsignific ant
Ġsignific atur
ĠX en
Ġsoc iis
Ñģ Ðº
Ð½ Ð¾
Ġadi unct
ĠIo as
Ġluc tus
Ġdon avit
Ġfer endum
Ġexplic ari
Ġch ar
Ġsept entr
Ġdelect at
Ġvig esima
Ġquot iens
Ġfur or
Ġfur tum
ĠIudae os
Ġmitt o
Ġaccep isse
Ġterr itor
Ġson us
Ġcens es
ĠMos en
Ġfacilis is
Ġhi em
Ġfest in
Ġhabitat ores
Ġpraet ore
ĠImper ium
Ġcomprehend erunt
Ġvocabul um
Ġcec idit
Ġcoep i
Ġsustin ere
Prae terea
Post quam
Ġele v
ĠFort asse
Ġtrium ph
Ġflag it
ĠVest ibulum
ĠBel g
Ġnonn ulli
Ġabsur dum
Ġobsec ro
Ġincomm ut
Vol upt
ĠEsa u
ipat et
ĠHanno ver
ĠTarrac onensi
6 5
7 1
C ont
O X
b er
h ab
n ia
r erit
Ã §
ä ½
æ Ī
æ ĸ
Ġ ~
er amus
Ġa str
Ġs ord
Ġqu endam
Ġqu ondam
Ġp est
Ġc Ã¦
Ġd ant
Ġd aemon
ic iam
Ġt end
es que
et i
ar am
an as
ec un
ib iles
oc t
Ġut er
ion alis
Ġcon uen
Ġex stitit
ĠA ct
ĠS atis
Ġme arum
Ġdic et
Ġdic erem
Ġ1 19
Ġb o
ĠQu os
ens ium
Ġhab uerunt
uc hi
ĠM D
ĠM ass
Ġap ta
Ġver is
Ġu ult
ĠL aced
ĠH unc
ĠF rat
Ġinc ogn
Ġpl erique
ĠG re
Ġlib entius
ient i
Ġsp oli
Ġus quam
Ġincol um
Ġag untur
Ġac quis
Ġpraes entibus
Ġvoc antur
Ġexp ul
Ġdisc rim
Ġiur id
Ġapp os
ĠQuid quid
ĠÐ ¼
Ġeis dem
Ġpraeter mitt
Ġnov issimo
Ġneg are
Ġsumm e
Ġfug ere
Ġ7 5
ĠAr t
10 88
Ġ6 3
Ġimper atore
Ġ8 6
Ġhum ani
Ġfut urus
Ġign em
Ġcet eros
Â» ,
Ġmun eribus
Ġlat ina
if end
Ġost endere
Ġthe olog
ĠIo annis
Ġcond itum
Ġcel er
ation alis
Ġprof essor
Ġdiss ol
Ġnegot ii
Ġdict ae
ĠCur abitur
Ġhost ibus
ereb at
Ġsalut is
Ġmitt ere
Ġsucc ed
ĠMag na
ĠPer ipatet
Ġsin u
Ġscrips isti
ĠAugust us
Ġhered em
Ġprophet a
Ġdiffer entiam
Ġta libus
ĠCor ne
Ġjust o
Ġstult us
Ġamb o
Ġsep ultus
Ġanc illam
Ġanc illae
ÏĦ Î¿
Ġx x
Ġort um
Ġcad ere
Ġur na
ĠSuper ioris
ĠVolupt atem
Ġfiduc iam
Ġele ifend
Ġlig ula
Ġfruct u
Ġconsist it
Ġgr and
Ali quam
ogallic e
Ġsinist ram
Io annes
Ġhend rerit
ĠLaced aemon
A C
A L
D U
b l
c em
c unque
f orm
j a
o z
r arum
s il
t itle
u ad
v am
Ġ #
Ġc anc
ae i
ae ter
em iae
Ġm it
Ġm aris
or us
Ġin j
Ġin l
ic ulo
ur arum
Ġv endit
Ġi ug
Ġf ict
om ach
ar on
Ġpr Ã¦
Ġad p
ac umque
Ġut endum
Ġde inceps
ĠE m
ĠS er
Ġdi rect
Ġper ag
Ġco ha
ĠQu apropter
ir o
ĠN ic
ĠN obis
iss o
ĠH e
Ġpar a
Ġpar em
Ġpar ata
isc o
Ġcons oc
Ġpl ag
âĢ º
ig it
Ġlib id
Ġbon os
Ġst ir
Ġst rep
Ġmin ores
Ġmin imum
Ġleg ato
Ġaud iunt
Ġcaus arum
ii i
Ġdeb eant
Ġvit uper
Ġput andum
Ġist orum
Ġtabul arum
Ġrem ot
Ġcap ta
ux i
Ġdiv inam
tor es
Ġdec ima
Ġscrib as
Ġsequ atur
Ġcar ere
Ġpraeter itis
Ġcae lis
Ġrespon s
ino esiae
Ġsumm i
Ġsal vi
Ġnesc imus
Ġquaer enda
ĠGraec o
Ġ6 1
ĠIs ra
Ġdilig at
Ġdilig unt
Ġrei ecta
Ðµ Ðº
Ġ9 9
Ġmens ibus
Ġ15 0
Ġpul s
ĠQuis quam
Ġ14 9
Ġregn avit
Ġmet rop
Ġdet er
Ġpossess ione
ĠReg ione
Ġauctor es
Ġphilosoph orum
Ġinstit utum
Ġart es
Ġexemp l
Ġexemp lis
Ġcogitat iones
Ġhuman is
Ġhuman itatis
Ġcan is
Ġdict is
Ġerr ore
Ġsex to
Ġdiffic illim
Ð¾Ð ¹
ĠIll inoesiae
ĠIos iae
Ġmeli ora
Ġlibert ate
Ġequ o
ĠAs ia
ĠHispan ia
Ġson o
Ġcast ris
Ġsy n
Ġturp ius
Ġcreatur ae
Ġprophet ae
Ġcapt us
Ġsusc epit
Ġadv entum
Ġbest iae
ĠDol or
Ġbenefic io
Ġot ium
Ġquaerit is
Ġinfin ita
Ġbrev iter
Ġiuv ent
ustra li
Omn ia
ĠDem ocr
Ġpisc es
ĠSequ anae
Ġspecie i
Ġauct ore
ĠCont ra
ĠCicer onem
Ġpas sus
ĠAustr iae
ĠAss yri
ĠIup piter
Ġcali dum
Ent abul
Ġeun uchi
1088 36
. ï¿½
6 2
= =
E ccles
N ov
O V
b e
h ac
l t
y th
z i
Ã ¥
Ï Ĩ
ç Ķ
Ġ >
Ĩ gypt
er ia
Ġs inc
am e
Ġn is
st em
Ġd ere
em ini
Ġm orem
Ġm enti
ic k
ur s
Ġt or
ut iones
Ġf us
li othec
en is
Ġh ist
et t
Ġpr ior
Ġad uers
Ġre us
Ġre st
Ġut raque
ĠA et
ĠC y
ĠD iv
Ġali bi
Ġfac iens
Ġprae pon
rat io
ens ibus
Ġpos ui
uit u
Ġsc ulpt
aec enas
ĠM ur
Ġ( ...)
Ġvid erentur
ĠL us
erunt que
ĠH ae
ĠH omin
ĠH erm
Ġpro u
Ġpar atus
Ġinc or
Ġinc ertum
Ġinc ommod
ĠT ib
Ġqua erunt
ĠV t
Ġsol es
ĠB OX
Ġcont ul
Ġfili as
Ġinter sit
Ġres pectu
ri i
ire n
Ġal lig
ĠU tinam
Ġdu p
Ġdeb it
Ġnull ae
Ġvoc ati
Ġtr ip
Ġrem ed
Ġrem ov
Ġmal us
Ġamic itiis
ici endis
Ġrec essit
Ġrec ognosc
Ġmol lis
Ġgrat a
Ġconf ite
Ġdel eta
Ġ5 8
Ġlab orem
Ġprov oc
Ġ7 7
ill o
Ġsanct is
ass em
Ġaccip itur
Ġign omin
Ġreliqu i
Ġ9 0
act ae
Ġ15 9
Ġsubstant iis
Ġpraedic ta
Ġlat ere
ãģ §
Ġtim ore
Ġ14 0
Ġadi ut
Ġult rici
Ġconsul atum
Ġphilosoph ia
ĠÃ Ĩgypt
Ġmi x
Ġdep ut
Ġrecip iunt
ĠPrae sent
Ġmagist rum
Ġiuris dict
ĠSc io
Ġpropri is
Ġaccid entia
Ġlibert atis
Ġdefin it
Ġmar it
Ġconiunct io
yr r
Ġrelig ionis
Ġvideb antur
Ġsociet ate
Ġquaes ita
Ġgener ale
Ġjust itiam
ĠAng liae
Ġvend idit
Ġrelic tum
Ġiucund ius
ĠSim iliter
ices imo
Ġcec iderunt
Ġturb a
Ġventur a
Ġtrist itiam
Ġauct orem
Ġdifficult ate
hop ify
Prim um
ĠCamp ania
Ġbr ach
Ġmeridi em
Ġsag itt
ĠPyrenae orum
ĠAtlant icorum
éĭ ¼
Ġultrici es
A cc
I ron
M at
S im
i ur
p ublic
´ ì
Î ¬
Ñ Ħ
at enus
Ġc erv
Ġm ig
ic tum
Ġv illam
Ġv ires
ut er
Ġf ul
es i
Ġh erb
et iam
ar ias
id io
ib ilem
Ġad nunt
ed e
Ġre n
Ġl es
Ġl una
ab itis
Ġut ilia
el uia
Ġde a
Ġde esse
Ġde orsum
ĠI udic
ĠS atur
ĠS cript
ĠC red
ĠC aus
omn e
Ġdic eres
Qu oniam
Ġ1 12
Ġb ov
atur ae
ĠN a
ĠM ater
Ġips as
Ġop pon
Ġca dit
Ġpl erisque
ert i
Ġacc edit
ĠB onum
Ġcomm or
Ġlib ere
inc ta
Ġdix erimus
ri que
Ġnost ras
abul um
Ġloc orum
ĠO ri
Ġal tare
Ġsub ic
Ġsub lim
Ġdom ic
Ġcommun es
Ġdeb eret
Ġput atur
Ġurb ana
Ġcap ita
Ġapp rob
itud ini
Ġdec ed
Ġact is
Ġinv as
Ġlitter am
Ġcred idit
Ġcred iderunt
Ġpraeter quam
Ġ201 7
Ġ201 8
Ġopt ima
Ġprob ari
Ġprincip iis
Ġ6 6
Ġdilig entiam
ĠChr ys
Ġ8 5
Ġsapient is
Ġmut ari
Ġhon oribus
Ġaed ibus
Ð¸ ÑĤ
pos uit
ĠEx c
Ġem an
Ġmil lesimo
Ġaper ta
ĠX I
Ġliber orum
Ġaequ alis
Ġaedific ia
Ġaedific avit
Ġadi uncta
crip ta
Ġpraecip io
Ġeffic iunt
Ġtrad itum
Ġconsul em
Ġscire t
Ġphilosoph is
Ġaetern itas
Ġspir it
Ġref ertur
Ġcal um
Ġhuman itate
Ġdil uv
Ġhost em
Ġreper iuntur
Ġproxim i
Ġlibert as
Ġ194 7
Ġhabit are
Ġsententia s
ĠHi erem
Ġhered itatem
Ġfabul ae
Ġtut el
Ġla oreet
Ġtem ere
Ġargum enta
Ġcapt iv
Ġcondic io
Ġpraesid ium
ĠCor p
Ġfrequ ent
Ġpert ineat
Ġasc endit
ok s
ĠSal om
Ġconcess a
Ġobl itus
Ġvocabul a
itter et
Ġcot idi
Ġpaenit entiam
Franc ogallice
enc ia
ĠSax oniae
Ġillumin at
ĠMoys es
ĠMolest iae
Ġnorm am
Ġsacri fic
Ġadol esc
" ;
' ;
1 000
A c
D P
H X
I dem
S it
X II
b is
d iv
e amus
e fac
m ag
r iae
s h
v o
v imus
w w
Ã ¹
Ä Ļ
Ù ĩ
Ġ ÑĤ
Ġe quis
it et
Ġp us
Ġp anis
at que
on ias
Ġn ox
Ġn au
st or
Ġin sequ
Ġt eg
Ġi anu
re x
Ġf ov
Ġf ate
om a
im as
Ġh il
ul d
ul are
Ġpr ist
Ġpr av
ud um
el unc
ot t
Ġde stit
ag og
ĠC as
ĠC ain
ĠD rus
est atis
Ġali unde
Ġali oquin
Qu a
Ġ1 15
ĠP u
ĠP ac
ĠP oss
Ġpos uerunt
Ġsc iunt
ina vit
Ġu est
ĠL itter
ĠH istor
Ġam ari
ĠR ob
ĠR ect
Ġinc lin
Ġsol eo
.. ...
Ġacc um
Ġres c
Ġreg ina
Ġfec erim
Ġvir go
Ġ19 19
ĠO I
ĠO l
Ġsp elunc
Ġmult itudine
Ġaud isset
Ġob v
Ġmagn itudinis
Ġcuius libet
Ġnatur aliter
Ġdeb itum
Ġag as
Ġvoc um
Ġvoc as
Ġpec ora
Ġcur sum
Ġdiv itiarum
og le
Ġdec ret
Ġdec lina
Ġserv is
Ġel abor
Ġnot itiam
Ġ5 5
Ġcred ibile
Ġdef endere
Ġopt imi
Ġpraefect ura
Ġmolest us
Ġprob ata
Ġinven iri
Ġred ire
Ġvest ro
Ġ7 6
ĠAr c
ĠGraec us
Ġtest es
Ġcognosc i
Ġappell avit
Ġunde v
Ġconi ur
Ġ9 4
Ġstat ua
Ġpraedic atum
ĠBr ute
ĠX II
Ġmov eatur
Ġ16 9
Ġ10 9
Ġvet erum
Ġhabe atis
Ġinstit uta
Ġnol uit
Ġperson arum
Ġbib it
Ġclar a
Ġang eli
Ġsex aginta
Ġcop ias
Ð¾Ð ´
Ġ< /
ron ae
Ġhabit ant
ren s
Ġinterrog avit
Ġveh icula
Ġdam num
Ġfabul am
urr it
Ġperven ire
Ġtut o
Ġsch olae
lac k
Ġarc am
Ġperpet uo
ĠNull am
Ġpostul at
Ġitem que
ÐµÐ ¼
Ġcant us
ĠCal v
Ġapostol ici
ĠAf rica
Ġsomn o
Ġindign um
Ġdecre tum
Ġpeculi o
Ã« l
Ġdivid itur
ĠLingu a
Ġoctav o
Ġirr itum
Ġpign us
Ġmerced em
ĠArd uen
cuius que
ĠIov is
Ġconsu libus
Ġrelati ue
ĠBerol ini
ĠIsra Ã«l
. ;
K i
S p
V ariant
c re
c id
e y
h ic
i eri
i enda
l ent
p iam
p ectus
Ã »
ç ´
Ġ è
um enta
er io
er ra
Ġa em
Ġa ustrali
ae um
Ġd arem
em per
Ġm ur
Ġm asc
Ġm ach
ur ia
Ġv ali
Ġv aria
Ġv ariant
Ġt un
Ġi ri
Ġf ertur
Ġf ront
Ġh e
ar at
Ġad itus
ed o
Ġl iter
Ġl unae
Ġex or
Ġex ire
ĠE d
ĠA x
ĠI deo
ĠS ov
ag or
ĠD a
Ġdic antur
Ġdic erent
Qu are
Ġfac erent
Ġprae stit
ĠP tol
per et
Ġg ymn
Ġco eperit
Ġhab enda
Ġtu arum
ĠN eg
Ġsc iendum
uc ta
Ġpot u
iss i
Ġab duc
Ġab stin
Ġr um
Ġr ursum
Ġid est
Ġne quam
ĠR ei
ĠT ol
Ġnihil um
Ġsol am
ĠG er
ĠB ar
ig i
ient ur
Ġleg at
Ġleg ionibus
Ġsp atio
Ġincol unt
Ġpost ulo
Ġob nox
Ġimp ud
ad es
Ġgen erum
Ġag is
Ġac ies
Ġnunc up
pe xit
Ġcap iat
ern um
Ġciv itatum
Ġdec et
Ġas inum
Ġcomp rob
Ġserv ire
Ġconc ub
Ġrec ept
Ġviv ific
Ġsequ ens
Ġcar itatem
Ġcar din
Ġins cript
Ġten uit
Ġcred entes
Ġopp ress
Ġexc lud
anc e
Ġprob atum
Ġprob ationem
Ð° ÑĢ
Ġ7 8
reh ensum
Ġ6 5
Ġeg redi
Ġtran qu
Ġnecess itatem
Ġmed iae
Ġpatr on
ĠEx emp
Ġaccus are
if ex
Ġtrans g
Ġost endam
Ġtim or
ide as
Ġaedific ata
Ġadi un
Ġepiscop um
Ã© n
Ġdet est
Ġpraecip ua
Ġvet us
Ġdum tax
Ġart ibus
Ġfin ita
Ġbre ve
Ġdiu ers
Ġindic at
ĠIudae is
Ġmitt am
ĠAli quid
Ġpraed ia
Ġoff ens
ĠAugust inus
Ġcompos itum
Ġrelig ionem
Ġarc u
Î¿ Î½
Ġcrim ine
ocrat icae
ĠDol ab
Ġbened ixit
Ġdubit amus
Ġtoll itur
Ġindig entia
Ġperspic uum
ĠCol osse
Ġur bi
Ġretin ere
Ġpaenit et
ĠMult i
Ġabund antia
Ġcathol ica
Ġfab ric
Ġpoet ae
Ġuerb a
Ġmagistrat ibus
Ġpercus sit
Ġbenevol entiae
ĠAem ilia
Ġorig inem
ĠPhara o
Ġsig no
ĠCali for
Ġtort or
Ġincor rupt
Ġdumtax at
7 2
? Â»
A P
C ons
E S
L a
R eg
S um
T u
e ae
i etur
r ari
v eg
y si
{ "
Ã ¬
Ä ĥ
Î ³
Î ´
Ġ ÑĢ
Ġp el
Ġp ub
Ġp ress
at iva
Ġc arum
Ġc ith
Ġd ot
or g
Ġv t
Ġt ib
Ġt al
Ġt ag
Ġh ujus
od us
id s
os i
Ġnon o
Ġad l
Ġad est
el us
Ġde stin
Ġcon atus
ĠS ine
ag es
Ġ1 17
Ġb ut
ist it
ĠP od
iv oc
uc ius
uc tum
Ġse ipsum
Ġer imus
ĠL oc
Ġpar lam
Ġinc ho
ĠV oc
Ġtemp lo
Ġmod est
ig h
ine ant
Ġinter fectus
Ġpat rum
Ġpat ef
Ġanim os
Ġven eris
Ġven ientem
issim as
Ġloqu ens
Ġ19 20
Ġ19 33
Ġoc ulo
Ġmult us
Ġpost remo
Ġscrip to
Ġdu i
Ġag g
Ġag enda
ĠAn sel
Ġac erb
Ġtabul am
Ġmal itiam
Ġeccles ias
Ġrep per
Ġas sign
Ġpu erit
Ġcogn itum
ĠFranc icae
Ġconc ept
Ġrec uper
Ġgrat ul
ĠRoman iae
Ġcorp ori
Ġconf ec
rem a
ĠQuod si
ĠCh ar
ios ae
Ġviv i
Ġviv at
Ġnot andum
Ġcl ari
Ġten eri
Ġplac itum
Ġpers uad
Ġlab oris
Ġdef l
Ġmor ta
Ġnov o
Ġnov us
Ġval eas
Ġinven imus
Ġinven iat
Ġfr ug
ĠAr men
Ġnesc i
Ġduc em
Ġius s
Ġplur imis
Ġcogit o
Ġreliqu os
ĠAd huc
ĠUt rum
Ġaqu is
Ġaper te
Ġpecc atorum
Ġcontr ist
ãģ «
Ġsignific are
Ġpon am
Ġaequ ales
Ġdiff in
Ġdiff ert
Ġev ac
ard us
Ġinstit utus
Ġinstit utis
ĠEst ne
ĠAnt e
Ġcogitat ur
Ġprom pt
Ġprom otus
Ġerr orem
Ġsept imo
Ġrecip it
Ġreper ire
ĠPet ro
Ġuid eri
Ġdisput are
atu or
Ġlud um
Ġambul are
Ġmerc es
Ġignor at
Ġvers antur
Ġfabul a
Ġfabul as
Ġmer uit
Ġfest um
ĠEn im
Ġsuffic ere
Ġflum ine
Ġflum inis
Ġunius cuiusque
ĠEurop a
ĠPers arum
Ġdecre ta
Ġtit ulum
Ġgubern ator
Mar cus
aph at
aph ys
ĠInc olae
ĠĠĠĠĠĠĠĠĠĠĠĠĠĠĠĠĠĠĠĠĠĠĠĠĠĠĠĠĠĠĠĠ ĠĠĠĠĠĠĠĠĠĠĠĠĠĠĠĠĠĠĠĠĠĠĠĠĠĠĠĠĠĠĠĠ
ĠSem per
Ġdexter a
Ġoeconom iae
ĠLatin os
Ġomitt am
"\"\"\"\"\"\"\"\"\"\"\"\"\"\"\"\"\"\"\"\"\"\"\"\"\"\"\"\"\"\"\"\ "\"\"\"\"\"\"\"\"\"\"\"\"\"\"\"\"\"\"\"\"\"\"\"\"\"\"\"\"\"\"\"\
Ġdile xit
ĠBe atus
Ġdefunct us
ĠCirc a
Dixit que
ĠSoc iet
ĠJos eph
Ap ud
comp are
Ġmass a
cem odi
ĠSov iet
7 4
7 6
? âĢĿ
C L
E odem
I O
I S
M ult
N e
O m
c or
i ol
m er
n ihil
p g
r icae
s et
t amen
u al
v ide
Å Ļ
á ĥ
Ġ Ø
Ġ Ã©
Ġe uen
er entia
Ġa f
Ġa st
it ania
us ce
Ġp ur
Ġn atu
Ġd aret
Ġt an
Ġt attoos
re e
re xit
Ġf atum
Ġf iet
Ġf oll
et ae
an y
ec imo
Ġre nov
Ġre iciendis
Ġl iturg
Ġut atur
Ġut rique
ĠE am
ĠE orum
ĠS ull
ĠS ara
ĠC la
ĠD ico
est i
ĠP lin
ĠP enn
Ġg entem
Ġhab itura
ĠM ath
Ġse i
ĠH anc
ĠH Ã¦c
Ġne qu
Ġinc lus
Ġaliqu et
ĠT it
ĠT est
ĠV nde
Ġma y
Ġma uris
Ġsol itum
Ġsum itur
erat ionem
Ġbon itatem
ro que
Ġleg unt
Ġven ias
Ġloc up
Ġloqu endo
Ġsp atium
ĠIn dic
Ġal leg
Ġus urp
Ġsub ter
Ġaud eo
Ġob j
Ġob sequ
Ġscrip tus
Ġnull is
Ġvit iis
Ġcur are
Ġsuper iorem
Ġsuper ioribus
ui que
Ġciv itati
ĠĠĠĠ Ġ
Ġdec ip
Ġdec eat
Ġded isse
Ġmortu a
Ġdes er
ĠFranc iscus
Ġsent iunt
Ġconc ilium
Ġrec ens
Ġrec epit
Ġscrib itur
Ġscrib endum
Ġinv entus
ios o
Ġiust i
Ġviv entem
iens i
Ġfi ebat
Ġmolest ie
Ġcert iorem
Ġvest er
Ġ7 3
Ġquaer endum
ĠGraec iam
Ġ6 2
Ġaet atibus
Ġhon ores
Ġtab ell
ĠMar tin
Ġaed es
Ġem ere
Ġfact io
ĠX VI
Ġdub itatio
ĠAl t
Ġoppid i
Ġdet rah
Ġpac is
Ġdiss ent
Ġalic ubi
Ġnegot i
Ġlect ores
Ġexistim es
Ġon line
ĠIudae orum
Ð°Ð º
Ġpraed est
Ġdefin itionem
Ġdefin itione
Ġaccep isti
Ġ199 1
Ġped em
Ġutil itas
Ġfoed er
Ðº Ð°
Ðº Ð¸
Ġ197 4
Ġret ro
quae que
Ġdia p
ĠAg rip
ÐµÐ ¹
Ġpros per
ĠPompe io
ĠSal v
Ġfacult as
ĠMin ore
Ġoperat io
ipp us
Ġmont em
Ġdelic iis
arn ationis
Ã³ n
Ġitin era
ĠTer ra
Ġcongreg ati
Ġpraeclar a
ins ula
Ġanimadvert i
Ġadopt ionem
ĠQuot quot
Ġaus us
ĠJud a
Ġmatur itatem
Ġpe ius
Ġscand aliz
ail able
Ġpraedi orum
ĠCant u
Ġredi it
ĠLond inii
Ġsab b
sil v
Ġstrep itum
OV E
/ /
E s
I p
P i
P rop
X I
e is
g er
g en
l iter
n as
p ort
w s
} }
Ï ī
Ù Ĩ
Û Į
ä ¹
å ¤
å į
Ġ Ñĥ
it ionibus
us ae
in et
in ar
in itatis
is a
at iae
Ġn or
Ġm ac
Ġin ha
ic iae
Ġt z
Ġi umentis
Ġf en
Ġf ast
en na
om b
an ensi
ul es
Ġpr a
ol s
un i
ed erunt
iam ur
ion ali
Ġquae si
Ġsu ave
al itate
ĠA ll
ĠI b
ĠI on
ĠC ot
ĠC ong
Ġme que
Ġdic entem
Ġdic ebatur
Ġper uen
Ġfac ili
Ġprae dit
rat ionem
ĠP ag
Ġsed ere
Ġsed ens
Ġg ent
Ġhab ebam
Ġsc itur
Ġpot ent
Ġpot uisset
Ġap ostoli
Ġse ver
and as
Ġvid erat
Ġr ip
Ġop tin
Ġer rare
ĠH am
Ġca erim
ĠR osc
ĠF in
Ġvol um
Ġvol ueris
ĠT rans
Ġcons uli
Ġim o
Ġnihil ominus
ess itatibus
ĠG ali
ĠB ulg
ig inti
Ġfu eris
Ġfu issent
Ġor ci
Ġpat rim
Ġreg ia
Ġreg ioni
Ġmin ore
Ġsp ectare
eat rum
Ġvolupt atis
Ġnos c
Ġdu plex
Ġag atur
Ġpraes idem
Ġput abat
Ġcur su
Ġamic a
Ġmaxim ae
Ġsua de
Ġconc epit
Ġfort uit
iet is
Ġiust e
Ġel ecta
Ġpossit is
ĠAm or
Ġcred idi
Ġerit is
Ġexc lus
Ġval ent
Ġneg ant
Ġprob andum
Ġinven ies
Ġprincip em
Ġvest rae
Ġ7 1
Ġj us
Ġduc it
Ġund ique
Ġnecess itatis
Ġgra dum
Ġabs ente
Ġintelleg atur
Ġ8 2
Ġvic it
Ġsapient es
ĠJ oh
Ġhum ano
Ð¸ Ñı
Ġlaud atur
Ġdiscip l
Ġdiscip ulorum
ĠEx p
Ġtant am
Ġoport ebat
Ġmil itiae
Ġfact am
Ġsac r
ĠBr utum
Ġpo Ã«
Ġadm inister
Ġimm edi
ĠX V
Ġoper ari
Ġost ensum
Ġsermon ibus
ĠIo ann
Ġult rices
Ġnoc ere
Ġdet err
Ġfl am
Ġpraecip uum
Ġadd ere
Ġtrib uit
ĠW est
Ġev an
Ġed ere
Ġlic eret
Ġfin it
Ġprofect i
Ġlae tus
Ġdiffic ilius
ĠPost um
rob rium
Ġsper are
ĠPet ri
Ġequ itum
Ġnunt ios
Ġnav is
Ġpuell am
ĠHi eros
Ġads crib
Ġdivis it
ĠPa ulum
ĠIl li
Ġrefer ri
ĠPar s
enn io
enn ium
Ġargum ento
Ġadv oc
Ġecclesiast ica
Ġangel o
Ġsacerd os
Ġpoen ae
ĠPompe ium
Ġsep ulc
Ġpossib ili
Ġproficisc itur
Ġproport ion
Ġinterfic ere
Ð¸Ð ¹
Ġaeg r
ĠAcc ius
Ġconsc ientia
Omn is
Ġglad io
Ġiuven is
Ġiuven es
ĠRuss iae
ĠDem ocraticae
Ġelem entum
Ġbapt is
ĠAlexand er
ĠItal icus
Ġrevers i
Ġsenect ute
Ġvari et
Ġintellex i
ĠTusc ul
ĠBoruss iae
ĠNesc io
Ġ$ (
ĠPublic ae
product s
ĠMichig aniae
ĠGo ogle
ĠFr ider
ĠAssyri orum
Ġaccum san
! "
8 3
8 5
D omine
E n
F ac
S hop
U nde
d io
d ecim
f r
f in
f iles
k a
l it
p end
p ote
t ione
Ð ¹
Ġ à´
Ġs id
it ius
in iae
Ġp udic
at rix
on c
Ġn il
Ġt av
Ġt ri
Ġf o
ar ae
id isse
Ġnon g
un um
Ġl og
ab ilius
Ġes ur
ere a
ot r
Ġsu g
Ġcon fect
ĠA aron
ĠI an
ĠS e
ĠS m
ĠC le
ĠC upid
ĠD o
ĠD u
Ġ1 13
ect or
Ġsi quidem
Ġhab entem
und ae
ĠM osc
Ġab l
Ġu obis
Ġop erum
ĠH ac
ĠF or
Ġpar atum
isc ons
Ġvol es
ĠT am
Ġsol em
Ġess endi
Ġprop in
ĠB ur
ĠB eth
Ġcomm in
ov ie
Ġsum atur
ig er
erat io
Ġres crib
ep isti
ĠEt si
Ġdix eris
Ġdix issent
Ġmin oris
Ġven isse
Ġven iens
ĠO tt
Ġsub m
ific a
Ġob st
Ġob oed
Ġdom ui
Ġimp ut
ad i
Ġag ris
Ġpraes entes
Ġpraes crib
Ġtr istis
Ġiudic o
Ġciv ilis
Ġdiv ulg
Ġdisc essit
Ġrep let
Ġpu eris
rim i
Ġconc ili
irc um
Ġviv o
Ġviv et
Ġinf lam
Ġfid elium
ĠAm en
Ġmor bo
Ġhuius cemodi
Ġprov erb
Ġexc lam
Ġmolest e
Ġprob itatis
Ġcirc uli
Ġinven io
ĠLat ini
erem ur
Ġfr ui
Ġcontra h
Ġ7 4
Ġnesc iebam
Ġ6 4
Ġduc ta
liqu a
ans iae
Ġext rinsecus
Ġtest ific
oli um
Ġsatis f
ĠJ acob
Ġappell at
Ġappell amus
Ð¸ Ð½
Ð¸ Ð»
Ġpatr onus
Ġw ill
Ġ9 7
Ġlaud es
ĠAd d
Ġprovinc iarum
Ġ17 0
Ġfaci enda
Ġmuli ere
Ġspec ial
Ġaedific ationem
Ġaedific avi
ĠGerman ici
Ġsing uli
Ġantiqu orum
Ġcond uc
Ġquic k
Ġconsul e
Ġgrav ida
Ġaudi eris
Ġtert iam
ĠAnt onium
Ġcogitat ionem
Ġgaud ere
Ġdep end
Ġdict u
Ġrecip iat
Ġdelect ari
Ġeff ig
Ġnunt ium
Ġculp am
ĠMag ister
Ġ199 0
Ġnar rare
Ex o
Ġiuc unda
Ġdivis ionem
Ġadf lic
Ġquar ta
Ġtut ela
Ġarc a
Ġargum ent
Ġangel um
Ġdesider ium
ht t
Ġconsol ationem
Ġot io
Ġsep ulch
Î¹ Îº
ĠLe vi
Ġsacerdot es
Ġsumpt us
Ġinteg r
Ġinteg rum
Ġoccult um
Ġagnosc ere
Ġub icumque
Ġiub et
Ġpropriet as
Ġfe ugiat
ĠCicer onis
ĠDuc atus
Ġintu ens
Ġconsumm ationem
Ġdile x
Ġfluv ius
ĠPap a
ÙĪ Ø
Ġster ilis
Ġpulcherrim a
Ġcand id
Ġquinqu aginta
ĠEbor aci
Ġtol er
queb atur
Lu ke
Lingu a
ĠAdm inister
Ġge omet
ĠNor veg
Ġxx x
Ġnis l
ĠAx onae
8 1
C omp
E D
M irum
P s
P lac
V est
c d
g et
j pg
l r
m ium
n ot
r unt
s hopify
t s
t ur
u el
w n
Ã ½
å ±
å ¹
å Ĳ
qu oniam
Ġa is
Ġa uri
Ġqu atuor
Ġp i
at ui
am ento
Ġd anda
em et
Ġin ept
ic tor
Ġt t
Ġt og
Ġf ini
ul s
ia b
un s
un us
Ġad fer
Ġre quiesc
el ph
il oqu
Ġde lib
Ġde ven
ĠE g
ĠI X
ĠS ina
ag o
ĠC ro
ĠD am
Ġdic to
end orum
Qu omodo
Ġ1 10
Ġfac in
Ġprae l
Ġprae dam
Ġb ac
ĠP ub
ĠP yrr
Ġco op
Ġco eg
ĠQu antum
ĠN as
ĠN unquam
eg oria
eb urg
Ġu eritas
Ġr utrum
ĠL u
ĠL iv
ĠL aud
ĠL ex
ĠL XX
ĠH or
Ġam antur
Ġam ph
ult or
ĠR ed
Ġat qui
Ġpar vis
Ġvol at
ĠT err
ust um
ĠG r
ĠG reg
Ġor g
Ġor are
Ġor atore
Ġsec ur
eri i
Ġst omach
ri et
Ġcre atum
ven iet
Ġpost r
Ġimp ot
Ġimp end
Ġag ens
Ġvit Ã¦
Ġtabul q
Ġtabul w
Ġtabul z
Ġtabul ator
Ġsuper ior
Ġapp rehend
og is
Ġ18 13
Ġas pectu
Ġrec ess
Ġcorp orum
Ġconf orm
Ġpublic i
Ġpublic is
Ġnot am
Ġcl av
he um
Ġlingu arum
Ġexc it
Ġinven erit
Ġred itus
10 82
Ġimper fect
Ġgra vi
Ġintelleg am
Ġ8 4
Ġexerc itatione
Ġvic esimo
Ġtab h
Ġtab j
Ġtab ull
Ġtab up
Ġtab lu
Ġhum anum
Ġcognosc imus
Ġmed icam
Ġind ulg
Ġreliqu isti
Ġstud iosus
14 50
Ġconi ectura
Ġoport eat
Ġsac rae
Ġaqu il
ĠBr uto
Ġaper tum
Ġaper ire
Ġaper ti
Ġliber am
Ġliber ius
Ġsoc ium
Ġoper ae
ĠUn ionis
ĠGerman i
Ġmov eat
ang el
Ġfl uct
Ġanima libus
Ġperfect us
Ġev ident
Ġaudi ebamus
Ġfamili am
Ġfamili aris
Ġsecund us
Ġbib am
Ġpraest at
Ġhuman itatem
Ġdict urum
Ġatt ul
Ð¾Ð ³
Ġuid et
Ġdesc endit
ĠSt ud
rac ch
Ġaccep isset
Ġeffect u
Ġperd idit
Ġlud us
32 16
Ġfortun am
Ġconiunct i
Ġhered itatis
Ġsor ores
Ġaffect u
Ġcircum s
ĠMos i
Ġdis pon
Ġquaes ivi
Ġ197 2
Ġscel erat
Ġscel eris
Ġfund us
Ġplen am
Ġiniur iae
Ġta ub
Ġadv entu
Ġmus ica
Ġangel orum
ĠDol orem
Ġbenefic ia
ĠMo ab
Ġorb e
Ġapostol us
Ġsil v
Ġvocabul o
Ð¸Ð ¼
Ġ186 6
Ġuir tus
Ġmemb rum
Ġglad ium
Ġmisericord iae
Ġuit am
Ġmerit um
Ġtabu k
Ġtabu al
ĠVel it
ĠPy thag
ĠMich ae
Ġconsili is
Ã® s
Ġpollic itus
Ġpleb e
Ġâ ľ
ĠMe lius
Ġnef as
Ġsenect utem
Ġinh abit
Ġvan itas
Sic ut
ĠCras sus
ĠDum iatis
Ġfluv ium
ĠPlat onis
Ġprimogen itum
ĠEzech iae
Ġquidd itas
Ġcoh ort
Ġcomplect itur
Ill ud
ĠMerc ur
Ġtyran n
Er go
Ġiuli anus
ĠBav ariae
ĠIsa ac
Ġmeh ercule
ĠHieros ol
cd n
* *
6 6
< /
? {
A S
A utem
E p
H is
I st
L e
V erum
a f
c ui
d oc
e os
e antur
h am
i el
k ing
l ae
m am
m ihi
m enta
r uit
t ionem
u erim
w a
Ä ±
Ä Ľ
Ù Ĭ
à ·
Ġs ob
Ġs ess
it ion
Ġqu om
Ġqu ing
on go
Ġn acti
Ġn empe
Ġd atus
Ġd antur
Ġm el
Ġm oli
Ġin stant
Ġt q
Ġt s
Ġt rec
Ġt ba
re st
Ġf eri
en o
es op
et em
an es
an iam
os y
ent ina
ol am
un am
Ġad rog
Ġre qui
Ġl ongo
ac ia
Ġut cumque
il us
ot is
ĠE arum
ĠA lia
ĠI us
ĠS aec
ĠD ors
ĠD olia
est im
ta or
ip h
ip pe
Ġper vers
Ġill arum
Ġb u
ob rem
ĠP ed
Ġg abulator
Ġco inqu
Ġco opt
Ġco aeter
ĠQu asi
Ġhab itu
iv amus
gn osc
eb atis
ĠM inister
Ġse pe
pt um
Ġvid eret
Ġr abulator
Ġid ea
ĠH ad
ĠH omo
Ġam isit
ĠF l
Ġat bulator
Ġinc ircum
Ġaliqu as
Ġpl uv
Ġun ic
Ġfu erant
Ġor iuntur
Ġres erv
ep isse
Ġst r
Ġcre vit
Ġmin im
Ġleg um
Ġleg istis
Ġven er
Ġven imus
Ġnum eros
Ġmagn opere
ĠU x
Ġo ur
ris que
res c
Ġag ro
Ġput avi
Ġput arem
Ġtabul stor
Ġtabul agor
Ġtabul taor
Ġcur rent
Ġexp rob
Ġapp rop
Ġcomp ell
ĠQuid am
Ġserv orum
Ġfort ior
Ġrec eptum
Ġscrib endo
Ġdel eg
ĠÐ ±
ĠÐ ³
ĠÐ ·
Ġsequ enti
Ġfrat rum
Ġcar men
Ġcol ore
Ġmis erat
Ġdef uit
Ġvide ant
Ġexc ed
Ġvis u
Ġneg as
Ġ6 7
Ġduc tus
Ġmund anum
Ġtran st
Ġgra ve
ĠPr oc
Ġsapient i
Ġtab il
Ġtab uo
Ġtab bulator
Ġtab ultor
Ġcognosc at
Ġreliqu ae
Ġ9 1
Ġlaud at
act e
Ġmil li
Ġsac c
ath a
Ġsubi ectae
ãģ Į
ĠX VIII
Ġsoc ius
Ġdub ito
Ġpon i
Ġpon atur
ĠUn a
ĠQuam vis
ĠAb ram
Ġaedific are
ĠSanct orum
Ġcontin eri
Ġadd ita
Ġantiqu i
Ġtrad ere
Ġtrad itur
Ġmir abile
Ġarg u
Ġev id
Ġgrav itate
Ġphilosoph iam
Ġtert ius
Ġart ium
Ġrespond et
Ġclar us
Ġnegot iorum
Ġprom isit
Ġrecip i
Ġhost is
Ġtabulat r
Ġtabulat od
Ġtabulat ir
Ġtabulat ro
Ġtabulat tor
Ġtabulat pr
Ġtabulat kr
Ġtabulat lr
ĠIos aphat
Ġsalut e
Ġpauc os
Ġtabula for
Ġtabula otr
ĠAs c
Ġnunt ius
Ġinim icum
Ġpraed a
Ġpraed ium
Ġarbitr io
Ġarbitr antur
Ġperic ulos
Ġperd ere
Ġhabit et
Ġmiss a
Ġhered es
Ġcompos ita
Ġadf irm
Ġfabul ator
ĠIun o
ĠIp sa
ĠVid esne
ĠProvinc iae
ĠNull us
Ġcondic ione
ĠMed ia
Ġta h
Ġta ulator
Ġta abulator
ĠEpic uro
Ġbest iam
CC CC
Ġbland it
Ġeleg ant
iu ers
Ġtabulato f
Ġtabulato or
ĠCap it
Ġfacult ates
ĠCal isii
Ġpolit icorum
errim a
ĠSim on
Ġabsol ute
Ġlegit ime
Ġcess avit
Ġquaereb am
Ġtabu ator
Ġub er
Ġpeculi um
Ġent ia
Ġacceper is
Ġimpl eri
Ġfruct ibus
ĠArch id
ĠRep ell
Ġhodiern a
Ġduplic em
Ġtex tus
Ġconsult o
ĠSeptentr ioni
ĠTurc iae
ĠFret i
ĠAene an
ĠLingu ae
Ġlacrim is
Ġpulchr itudo
Ġdisser endi
ĠConsequ atur
Ġsatisfac it
Ġdisciplin ae
Ġul ter
Ġtabular or
Ġtw bulator
Ġcathed r
Ġuter que
Ġcanc ell
Ġcardin alis
ĠPod ii
Ġclari fic
ĠPenn silv
Ġtav ulator
Ġtt abulator
Ġtabulq tor
Ġtabulw tor
Ġtabulz tor
Ġtabulator r
Ġtabj lator
Ġtabull ator
Ġtabup ator
Ġtablu ator
Ġtaub lator
Ġtabuk ator
Ġtabual tor
" )
" ]
, ,
9 9
B rit
C et
C omm
C ulpa
I uli
M ed
O M
P ot
T unc
U rb
V en
X IV
l ed
o y
r iter
v ir
y or
y lator
Ġe vers
Ġp oc
on iis
Ġn as
Ġm ess
Ġin ert
ic quid
ur os
Ġt bulator
Ġi u
et si
ar iter
ec a
ec ce
ia le
un ic
ed er
Ġl ub
Ġl angu
Ġut roque
as a
as h
Ġquae libet
Ġex eunte
ĠE u
ĠI oram
ĠS pe
ag esimo
ĠC r
Ġdi rimi
Ġdic ebam
Ġper n
Ġper ierunt
Ġ1 14
Ġ1 16
Ġb al
ra d
ra st
ect ione
ĠP aen
Ġhab endi
Ġtu eri
Ġsc iens
Ġsc iant
ĠM ut
iss io
Ġcom itia
Ġab ulator
Ġvid isse
Ġu os
Ġr ost
ĠL ep
ell entesque
Ġam andi
ĠR atio
ĠF DP
ĠT oll
Ġqua eri
Ġtam que
ert o
Ġsol ere
ing s
ĠB oh
ĠB rix
Ġcont ex
Ġsum ps
ig en
Ġst et
Ġanim alium
Ġcre b
Ġcor rect
uli er
ator i
Ġter ras
ĠO pp
Ġdol um
Ġdol entes
Ġus i
Ġus ui
Ġnum m
Ġman eat
Ġimp lic
ad is
res sit
Ġdeb ui
Ġac ie
Ġpraes ente
Ġpraes cript
ie w
Ġcog ita
Ġquas dam
ne que
Ġcap itis
Ġmal itia
Ġmal lem
Ġei que
Ġ18 10
ug a
Ġmaxim is
Ġdes it
Ġ200 3
Ġfort em
Ġscrib e
Ġconf ort
Ġinv is
Ġviv eret
Ġviv erra
Ġfid elis
Ġcl em
Ġcred erent
Ġdoc tus
Ġdoc ti
iens ium
Ġpa ul
odo x
ĠLat inis
ĠLat inus
Ġvest ras
Ġj e
ĠGraec um
pic ere
Ġvolunt ati
Ġtest ibus
Ġabs unt
Ġintelleg erem
Ġ8 7
Ġmut avit
Ġtab lator
Ġtab ylator
Ġfut uram
Ġcet erae
Ġ9 5
Ġlong inqu
Ġstat uam
Ġconstit utionem
Ġglor iosum
erv a
Ġoport uit
ĠIud as
ĠBr undis
ãģ ¾
Ġideo que
Ġtim e
Ġtim eo
Ġdem in
Ġmov ens
Ġcontin etur
ÑĢ Ñĥ
Ġ16 0
Ð» Ñĭ
Ð» Ñı
Ġbeat iorem
ĠReg no
Ġgrav ior
Ġinstit uit
ation s
ĠPl us
Ġparv uli
Ġgaud et
Ġcal icem
Ġepist ola
Ġrecip ere
Ġhost e
Ġmagist ratum
Ġtabulat ot
Ġsper at
Ġy abulator
Ġindic avit
Ġtabula or
Ġtabula ator
Ġtabula yor
Ġnob ilis
Ġmitt i
ĠEp ist
Ġequ os
Ð°Ð ¼
Ġrog avit
Ã¡ s
Ġcas um
Ġnav es
Ġads unt
Ġnasc i
Ġvideb is
Ġmanifest e
Ġli quid
Ġtut or
uram entum
Î¿ ÏĤ
Ġ196 1
Ġfund o
Ġexper tus
Ġpen es
eatur ed
Ġcommod um
ĠAg e
ĠEpiscop o
Ġtabulato e
Ġelect io
Ġdorm ivit
Ġsep ult
Ġiucund e
Ġcult um
Ġprohib et
Ġsangu inibus
ipp iae
Ġcomprehend it
Ġtribun us
Ġsacerdot um
ĠScip ionis
Ġnub ere
Ġmont es
Ġperfic i
Ġoccas ione
Ġconvert it
Ġtabu ulator
Ġhonor ific
Ġá ½
Ġtrist itia
Ġall eluia
ĠTer rae
Ġpre dic
ĠMat th
ĠMat ronae
ĠTar qu
Ġpraecl arum
Franc ice
Ġnut r
Ġpast ores
Ġmagistrat u
Ġimb ec
ĠGeorg ius
Lib er
Ġmaj or
Ġimmort ales
Ġpersuas um
Ġconviv ium
Ġcognov issent
Ġfont em
Ġperse v
Ġconsens u
ĠLudov icus
ĠHier ony
ĠSa ul
ĠMiss iss
Ġdesert o
ĠNap ole
Ġpulv inar
Ġfacillim e
ĠColl eg
Ġexercit uum
ĠCatil ina
Dec isiones
Ġsurre xit
Ġexsp ectare
Ġconval lis
Ġmetrop olit
Ġdomic ilium
ĠCalv orum
ĠArduen na
ĠColosse um
Ġtag ulator
Ġtan ulator
Ġtz bulator
Ġimmedi ate
Ġtabh lator
Ġevident ius
Ġtq bulator
Ġts bulator
Ġtba ulator
ĠDors orum
Ġtabil ator
Ġtabuo ator
Ġtah ulator
' );
A s
M ulta
N esc
R ev
S anct
V ir
b et
c ae
g raph
h us
i anum
l os
l oc
o i
at ive
on ica
Ġc li
Ġn ib
Ġd ati
Ġd rac
Ġd abis
Ġm aria
Ġm ilibus
Ġm oen
or ter
Ġin possibile
ic uli
Ġv ino
ut urum
Ġf a
Ġf asc
Ġf rang
li ps
id ius
ec essor
Ġpr idie
ia les
Ġad quir
oc inium
Ġre fic
Ġre trib
Ġl av
Ġquod que
ac es
ab ilibus
Ġut or
al o
al og
ĠI urae
ĠS per
ĠS anto
ĠC laritas
ĠC ardin
ĠC DU
Ġomn im
ĠD E
ĠD ix
Ġper l
Ġprae fer
rat is
ĠP o
ĠP ecun
Ġg ran
ir st
ir emus
ĠN oli
Ġquid vis
Ġcom es
ort um
Ġver itati
Ġse ips
and os
Ġvel lent
Ġvid erem
Ġop ibus
Ġsit u
ĠH S
Ġne ut
Ġne pos
Ġca utum
Ġam atur
Ġpar c
Ġpar i
Ġinc orp
erit is
ĠT y
ĠT antum
Ġqua que
Ġqua libet
ĠV itae
ari e
Ġsol itudine
Ġint entio
Ġscr ut
ĠB at
ĠB ern
ig mata
Ġor ans
Ġres p
Ġreg ul
ri e
ven iens
Ġneque unt
issim orum
ers on
ĠO rb
Ġsp atia
Ġus uram
Ġaud istis
Ġmagn itudinem
Ġsim p
Ġcommun itatis
Ġpraes ent
ch e
Ġiudic atum
Ġiudic abit
ĠĠĠĠ ĠĠĠ
Ġdisc endi
Ġrep os
Ġrep reh
ĠâĢ ¹
Ġ18 15
Ġ18 50
Ġmortu os
Ġcomp let
Ġocc ulta
irc a
ex t
Ġinf l
Ġfid eles
Ġsequ etur
Ġins uper
Ġcol umb
Ġplac ent
Ġcred itur
Ġpraeter m
Ġvide am
Ġconsequ at
Ġopp robrium
Ġfi erent
Ġval eant
Ġmolest a
Ġneg et
Ġprob arem
Ġred di
Ġcontra dic
Ġquaer ens
Ġnatura libus
Ġius iur
fer am
Ġabs ens
Ġfam ae
Ġ8 1
Ġ8 3
Ġmut uo
Ġcogit amus
Ġaccip iam
Ġaccip iens
Ġsup pos
Ġlong am
Ġconstit utione
Ġod erit
Ġfact urus
Ġfaci endi
Ġlat inae
Ġsubi ecti
ãģ ¦
ãģ Ļ
Ġspec ulum
Ġsignific atione
Ġost ent
Ġ13 0
Ġdiff erent
ĠSic iliae
Ġluc is
vert ere
Ġeffic iuntur
Ġantiqu um
Ġantiqu itus
Ð» Ð°
ĠW h
Ġvult u
Ġvet eribus
Ġgrav es
Ġmand avit
Ġphilosoph os
Ġnol unt
Ġperson as
ĠAnt onio
Ġcogitat io
Ġlabor o
Ġdep rehend
oni z
ãĥ ¼
Ġav unc
Ġuid entur
Ġnob il
ĠNov um
ĠCat onem
ĠIudae a
ĠAs iae
Ġinim icorum
Ġpriv atis
ress ed
ĠMag nus
Ġpropos ito
Ġnav ibus
Ġutil itates
Ġconiunct um
Ġscrips eram
Ġdam natus
Ġignor o
Ġhered itate
Ġcompos itae
Ġrelig ione
Ġfabul arum
Ġsociet atis
Ġiniqu itate
Ġcunct ae
Ġle ve
Ġmilit aris
Ġgener ibus
Ġgener alis
ĠVen iam
ocrat es
Ġha eres
Ġrestit uere
Ġcommod ius
Ġsingul ari
Ġprud entiam
Ġprud entiae
Ġmori etur
Ġconsider andum
Ġsolv ere
Ġ195 7
Ġrepet ere
Ġdoctr inae
Ġadduc am
à« §
Ġinterfic iam
Ġimpet us
Ġconsc ientiae
Ã¨ s
Ġjudic ium
ĠVolupt as
ĠDem et
Ġsod ales
ĠComm ent
Ġdissim ilis
ĠMet ellum
Ġventur um
Ġoppos itum
ĠTro iam
Ġlig no
Ġquer ela
Ġprec es
Ġsyll ogis
Ġduplic iter
Ġdiut ur
Ã¼ r
Ġtene atur
ĠHelv etiae
ĠSyr iae
Ġvuln era
Ġui uit
Ġbarb ar
Ġinstrum entum
Ġapplic atione
ĠJo annes
Ġnuntia vit
äº º
Ġcod icem
Ġvenen atis
ĠMichig anensi
Ġinut iles
Ġvesper um
ĠRub en
Ġoct og
ĠReli qu
ĠNob eli
Ġweb sit
Ġiurid icae
Ġdere liqu
Ġianu am
Ġdetest abili
ĠCalifor niae
Ġlocup let
Ġquick Shop
Ġcoopt atus
ĠPaen insula
ĠMississ ippiae
Ġnib h
1 12
9 0
J hn
N umquam
P et
S ol
U T
U n
V el
X L
] :
d ius
e lius
l ov
l og
r or
r io
r ing
r Ã¦
t en
w ord
y t
z y
Å ¼
Î ¸
Ï ĩ
à ¶
Ġ liqu
it ioni
Ġqu estus
Ġp uncta
am que
am ina
Ġc aret
Ġn oll
Ġd as
Ġm ou
Ġin lum
Ġv ae
Ġv il
Ġv ana
Ġv illa
Ġt orqu
en am
es p
Ġh ar
Ġh are
an k
id iae
ul at
ul isti
ol eo
un quid
que st
Ġad pet
Ġre tr
Ġl uct
ud et
ac em
Ġut eb
Ġut imur
ant as
Ġex alt
ĠE i
ĠA T
ĠA per
ĠI uven
ag us
ĠD ub
ĠD iscip
ip ublic
Ġper it
Ġ1 11
Ġprae est
Ġb i
Ġco actus
ĠQu as
ĠQu Ã¦
ĠN er
und iae
ĠM en
Ġap tum
ort ium
ort ui
Ġver us
pt is
and arum
Ġr aro
av isse
ĠL em
ĠL eo
ĠL ev
ĠL ang
ĠH on
ĠH isp
Ġca er
Ġam as
Ġam aret
Ġinc idere
ĠT r
Ġqua lia
Ġeum que
Ġma x
Ġsol ebam
Ġsol lem
Ġun is
Ġun icum
Ġun iuers
Ġtemp la
ĠB uc
ĠB ello
ov iae
Ġfu issemus
Ġor at
erat ione
Ġpat iuntur
Ġst il
Ġanim antium
Ġleg atorum
ap ud
Ġ19 29
Ġmult am
Ġaud iam
Ġaud ite
Ġpost erius
Ġmort ale
Ġann unt
Ġmagn as
Ġcommun ione
Ġpraes entiam
Ġvoc avitque
ch i
Ġist ic
Ġtr it
Ġsuper fic
Ġamic itias
Ġdisc ord
Ġrep ud
Ġ18 48
ug h
ug it
Ġmaxim i
Ġded erunt
Ġas inus
Ġ200 4
Ġocc is
Ġlit ig
ios orum
Ġviv endi
he us
Ġins ol
ĠCom itatu
Ġcol orem
Ġcred endum
Ġdef er
Ġdef orm
Ġmor iendum
Ġnov is
ĠIta li
Ġprob at
Ġcae s
Ġdomin a
Ġred im
Ġj uramentum
Ġnesc ire
Ġquaer eretur
Ġext it
Ġext end
Ġnecess ariis
Ġnecess ariam
Ġfam es
Ġ8 8
Ġvic es
Ġfut uris
Ġpet unt
Ġreliqu o
Ġw ork
Ġ9 6
Ġlaud ibus
Ġconstit uitur
ph us
Ġexist ens
ĠBr uns
Ġpecc atis
ãģ Ł
ĠX III
Ġaequ itate
ĠK ansiae
Ġaedific ium
crip s
Ġcontin u
Ġperfect e
Ġmir abilia
Ġmir aculum
Ġmon str
Ġmon ach
Ġgrav iter
oth er
Ġaudi endi
Ġlic entiam
Ġnol uerit
ĠAnt on
ĠAnt ecessor
XX I
Ġepist ulas
Ġhuman am
Ġdep rav
Ġsex us
Ġsex ta
ĠAegypt ii
ãĥ ³
ãĥ »
Ġdil uc
Ġexistim are
Ġpugn are
Ġmagist ro
ereb atur
Ġsucc essit
ĠAs per
Ġlac um
Ġscript urae
Ġpriv atus
Ġpriv ata
ãĤ ĭ
Ġaur is
Ġpuer orum
Ġrev erter
Ġ199 4
Ġiac ere
Ġgest um
Ġutil itate
Ġoff er
quod que
Ġscrips erunt
Ġdivis ae
Ġrelin quam
Ġvideb imus
ĠIl lum
Ġpossid endam
Ġsimplic is
Ġcircum stant
Ġpass io
Ġcustod iam
Ġquaes ivit
ĠDic it
Ġlaet itiam
Ġfund amentum
Ġsalv um
Ġrelinqu itur
Ġeleg it
Ġsingul are
ĠArist onem
Ġconsider are
Ġparticip atione
Ġsomn um
ĠPol it
ĠPot ius
Ġmy th
ĠAcc us
Ġsumpt u
ĠScip ionem
Ġconfic i
Ġnub ibus
Ġos sa
Ġty pi
Ġimagin ibus
ĠZen o
Ġcern itur
ĠLeg e
Ġadulesc entia
Ġrequir itur
Ġuer itatem
Ġelem enta
Ġcontrovers iam
ĠTemp us
Ġprog ress
Ġinsign e
Ġsort e
pex i
Ġuerb o
Ġsupplic io
ĠDel ph
Ġspon sus
ĠTheod isc
Ġconst et
Ġpaupert atem
Ð¾ÑĤ Ð»Ñĭ
Ġevangeli um
ĠBoruss iam
Ġsemet ipso
Act s
ĠÄ Į
Ġfrum entum
ĠÐļ Ð¾Ð»
Ġpiet ate
ĠAch a
ĠMoys en
Ġuide atur
Ġperi erat
Ġtransi it
Ð½Ñĭ Ðµ
Ġcongru amus
Ġoccur rent
Ġindustr ia
Ġerub esc
Ġexpl an
ĠOc tav
Ġfallac iloqu
Ġpraeceper at
Ġeman cip
ĠRect e
Ġgymn as
ĠOtt oman
Ġdilex isti
Ġâľ ¿
Ġunic uique
ĠPennsilv aniae
Brit onice
Ġiusiur andum
Ġfallaciloqu ae
, .
7 5
9 7
B o
E um
I s
N emo
S e
X VI
d ia
e ar
i anus
j e
k t
l en
m b
n or
n os
p is
u ada
Ã ĥ
Å ¡
Î Ń
Ð ¡
Ñ į
ä ¼
æ ĺ
Ġ 000
Ġ ÏĢ
um m
er antur
Ġa es
Ġs et
Ġs entias
is e
is ta
at ic
Ġc ereb
Ġn uc
Ġn upta
Ġd og
or iae
Ġin eb
ic it
ic ium
Ġt itio
Ġi e
Ġf oc
Ġest o
om us
ar ro
ib at
un eburg
Ġad ire
Ġad sequ
Ġad di
Ġre deo
ac o
ab as
el lig
as ph
Ġde fectus
ĠA liae
ĠI N
ĠS h
ĠC ent
ĠC og
end ite
Ġ1 01
Ġfac itis
Ġfac ientibus
Ġill inc
Ġill ustr
ĠP R
ĠP an
Ġsed e
Ġg ut
Ġg erere
Ġhab u
ĠN im
ĠN olite
uit as
eg er
Ġsc irem
iv erunt
ĠM inus
iss ionis
Ġquo vis
Ġmihi que
av ero
av erint
ĠL ac
ĠL ug
ĠR uf
Ġpag i
Ġpag inis
ĠF at
ĠF ili
Ġaliqu anto
erit o
Ġvol u
Ġvol uisse
ĠV ia
ĠV erba
Ġma i
Ġsol utum
Ġun ct
Ġun itas
ust ae
ĠB apt
ĠB arc
Ġcomm is
Ġmod icum
Ġsum pta
Ġsum psit
Ġinter val
Ġor a
Ġsec retum
Ġbon itas
Ġst abilis
Ġcre are
Ġcre ati
Ġmin ora
Ġmin ori
Ġleg atis
Ġvir ibus
Ġven isti
Ġven iet
Ġ19 22
Ġ19 25
ĠO per
Ġser u
Ġaud imus
Ġaud itor
Ġpost eris
ific em
Ġ- ,
Ġquibus cumque
Ġo liv
iat i
Ġag etur
Ġsem it
Ġvit iorum
Ġput averunt
Ġput abam
Ġrem ans
Ġiudic is
Ġiudic et
Ġiudic as
Ġiudic iis
Ġdiv inis
Ġdiv itiis
Ġmaxim as
Ġmortu orum
ĠFranc ica
Ġfort iter
Ġconf ido
Ġdel e
Ġnot us
Ġcar c
Ġten ent
Ġten entur
Ġcol unt
Ġlab ores
Ġconsequ itur
Ġprob o
Ġtantum modo
Ġform id
Ġfr ag
Ġadh a
Ġduc ibus
Ġsanct os
Ġplur imae
Ġintelleg unt
Ġdign issim
Ġfam e
Ġhon oris
Ġcogit andum
Ġcogit abam
Ġunum quodque
Ġaccip iuntur
Ġmed ius
ĠMar it
Ġappell atus
Ġappell ata
Ġpatr oni
Ġ9 2
Ġ9 3
Ġsen es
Ġintel ligo
Ġproc ons
Ġintellig endum
Ġsubi ectus
Ġquin decim
ãģ Ĺ
Ġsignific atio
Ġsignific ationem
ffect us
Ġpon e
Ġpon dus
ĠCiv itates
lo w
ide libus
ĠGerman iam
Ã© s
ÑĢ Ð°
Ġ10 3
Ġunivers o
Ġmir or
Ġvet eris
Ġelig ere
Ġaudi ebant
Ġed ita
Ġredd itur
Ġuel ut
Ġfin itum
Ġprofect um
ĠGal liam
Ġden ot
Ġden uo
Ġsept ima
ĠPrae ter
ĠIll o
land ia
Ġpugn avit
ĠCar thag
Ġalien is
Ġcupid itas
Ġfur ti
Ġport us
Ġk al
Ġteneb ras
Ġconv entus
Ġaur o
Ġaccep istis
Ġlud is
pici ens
Ġvers ibus
Ġhered itas
Ġsor oris
Ġcens ent
Ġhort um
Ġhort us
opt ions
all y
ĠThe oph
Ġcreatur is
ĠPrim a
ĠNe w
Ġostend itur
Ġrestit u
Ġtestam enti
Ġhistor iam
Ġdepos iti
Ġcommod e
ĠMo ysi
Ġdesider io
Ġasc ens
Ġelect ionem
Ġconvers i
Ġconvers us
Ġfirm a
ĠLa od
ĠSam ara
Ġdefend itur
Ġcult us
Ġlegit ima
ĠCons ilium
ind ob
Ġmemb ris
Ġuen it
Ġtit ulo
Ġent e
Ġexpet endum
ĠSy rac
Ġoccurr unt
Ġarb orum
Ġdilect ionem
ĠIns ulae
Ġeloqu entiam
Ġconstant er
Ġdefic it
Ġmagnific e
Ġvirg ines
Ġnupt iarum
Ġ} );
Ġconsent iunt
Ġobliv isci
Ġconsult um
rupt i
Ġreman et
Ġdesin it
ĠPhil ot
ĠApoll onius
Ġá¼ Ģ
Ġsubsist ens
ĠÐļ Ð¾ÑĤÐ»Ñĭ
Ġvas a
Ġintent ionem
ĠRhen i
Ġintrod uc
Ġcontig erit
Ġsyllab a
Ġinfam ia
ĠEph ra
Il le
Ġstell arum
Ġopport un
Cap ut
Ġregim en
ĠIoach im
Ġdiscrim en
Eccles ia
Ġbrach ium
Ġsagitt is
ĠCaus a
Ġbov em
Ġprav ae
Ġapprop inqu
"] ,"
4 28
9 5
9 8
D onec
H ab
J er
L eg
N os
R e
] }
c ra
f t
f ort
h es
h ii
i udic
j ect
m og
r ui
t orum
u k
u ert
Å ¾
Ï Į
Ï į
Ð ¶
å Ń
Ġ ]
Ġ ulc
Ġ ÏĦ
Ġ ä¸
Ļ éĭ¼
qu em
Ġa evo
Ġs a
us us
Ġp es
Ġp ug
at ii
am b
Ġc he
Ġn i
Ġm am
ic y
ic io
ic omm
Ġv iis
Ġv endere
Ġt ar
Ġt orm
Ġt ecta
li orum
et es
ar k
id uo
ec isti
ec utus
ul arium
Ġpr ost
Ġpr osc
ia li
ib it
ol os
Ġad sequi
ed ic
Ġre stat
ac iter
Ġut pote
al s
Ġcon fectum
Ġex str
Ġex ha
ĠE dit
ĠA it
ĠA ed
ĠI erusalem
ĠC li
ĠC IC
omn is
Ġdi urn
ĠD oc
ĠD eb
ĠD enique
end e
Ġfac ilior
ili bet
ĠP la
Ġg ente
Ġco qu
ĠQu ippe
Ġpos uisti
Ġsc itum
iv es
ĠM ac
Ġab ys
Ġab bat
Ġsit e
ĠH ar
Ġne utrum
Ġca lig
Ġca lid
ĠR atione
ĠF usce
Ġvol uisti
ĠT rin
ĠT ulli
ĠT rib
Ġcons urg
ĠV arr
Ġint end
Ġint rat
Ġscr ibi
Ġprop h
ĠB ad
ĠB erg
Ġcomm ittere
Ġsum ere
Ġst igmata
Ġcor ona
Ġloc uta
Ġloqu antur
Ġ19 14
Ġ19 23
ĠO n
ĠO s
Ġsp ha
Ġincol as
Ġser p
Ġsub stit
Ġaud iat
Ġpost erum
Ġcaus atum
le y
Ġimp ress
ad o
ero g
ĠU lix
aud iae
Ġrat um
Ġvit are
Ġvoc is
Ġput atis
ff er
Ġcur rit
ne x
Ġsuper iore
Ġmal le
Ġiudic e
Ġrep ente
Ġnomin antur
Ġdec us
Ġded eris
Ġ200 1
era que
ĠFranc ia
Ġlit ore
Ġgrat uit
Ġconf ug
Ġconf erre
ĠÐ ¡
Ġinv itus
Ġinf idelibus
Ġnot is
Ġpraec edit
Ġcar cere
ĠAm mon
ĠCom p
Ġcol onia
Ġmis isti
Ġpraeter it
Ġmor a
Ġmor iuntur
Ġvide ar
Ġcirc uitu
Ġinven isti
ĠLat ino
ann a
ann ib
Ġprincip atus
Ġcert is
Ġsumm us
Ġfug iunt
Ð¾ Ñģ
Ġduc ti
Ġeg erit
Ġext rah
Ġing ressa
Ġexerc itat
Ġvic tum
Ġvic arius
Ġsapient er
Ġit al
Ġcognosc etis
Ġfut ur
ĠMar ci
Ð¸ Ðµ
Ġw ord
Ġiis dem
Ġstat uit
Ġproc re
ĠBr und
Ġaper it
Ġmuli erum
Ġcontr actum
Ġquin tum
Ġtrans ire
Ġimm in
Ġimm ol
Ġliber ae
Ġliber atus
Ġsoc iorum
ane um
Ġaedific atum
ĠIo ab
Ġmet imur
Ġdist ric
Ġdet rim
Ġfl u
Ġpraecip it
Ġquaest or
Ġquaest ione
Ġadd uxit
Ġarg ent
Ġev entus
Ġmiser rim
Ġredd at
Ġch em
red itur
Ġbib as
Ġbib liothec
Ġparv am
ĠNihil o
uic em
Ġlabor are
Ġclar iora
Ġerr oribus
Ġcop ul
Ġcop iam
Ġcop ios
land iae
Ġincip ere
ereb amus
ĠIm p
ĠIm possibile
ipisc i
De inde
Ġpriv ileg
Ġrog at
Ġrog atus
ãĤ ¹
ãĤ Ĵ
ĠMag num
Ġpropos ita
Ã¡ ria
Ġaest ate
Ġ199 3
ĠNec essitatibus
Ġlud os
Ġpuell is
Ġtestim onia
erd in
olog y
Ġvers atur
Ġra pt
ĠNum erus
Ġfide libus
Ġorient em
Ġpossid ere
Ġsimplic em
Ġ197 8
ĠDic endum
Ġscel us
ech n
ĠNe ap
Ġadv entus
ĠBritann iae
ĠDol ore
Ġ198 9
ÐµÐ ´
Ġfacult ate
Ġexcept is
Ġdioeces i
ĠOr d
Ġminist ri
ĠSam aria
Ġhor as
Ġiuv at
ĠNost rum
Ġimpet um
Ġrecord atio
Ġsacerdot io
Ġaccept o
Ġmemin isse
Ġproeli um
Ġvictor iam
ĠRuss ia
Ġdeclar at
Ġinvid ia
Ïģ Î±
Ġhosp it
Ġdilect io
Ġpleb is
ĠHab et
Ġqual itas
Ġâ Ĺ
ĠArch iepiscop
Ġinius t
Ġconfit eri
ĠSum ma
Ġrevers us
ĠSex t
ĠLab an
Ġresist ere
Prim o
Ġcruc em
Ġresurre xit
Ġnonnull a
Ġclaus a
Ġpeti erimus
ĠSent entia
Ġoctav a
ĠRespon d
Ġsusp ecta
Ġnoct es
atto o
Ġavar itia
Ġsubl ata
ĠEzech ias
ĠÅ ¿
Ġrob ust
ĠOpt io
Ġparoec iae
Ġglori ari
Ġpeper cit
ĠGa ius
Ġatting ere
Ġimpon itur
Respon deo
Ġadept o
ĠUs que
Ġexcels iores
Ġimprim is
ĠHung ariae
ĠGre ek
ç´ Ļéĭ¼
ĠAnsel mo
ĠCantu Ã¡ria
ĠBruns v
! !
' )
? )
A M
C ras
E C
L L
R ep
S U
a ad
c ont
i atus
l orum
m ann
n y
n esc
r iam
r ant
r oni
s ae
t es
u itatem
w h
¤ ãĥ
Ä ķ
å ¥
å Į
er atus
Ġa x
Ġs eri
it que
in xit
Ġqu and
Ġqu acumque
Ġp ens
at ch
am i
on icae
Ġc entur
Ġc arent
Ġn erv
Ġn ich
Ġm ere
Ġm enda
Ġin nox
Ġin eff
Ġin uicem
Ġv ag
re l
Ġf onte
Ġf icta
Ġf olia
im ile
id os
ul erit
Ġad op
Ġre b
Ġre um
ud ens
ab amus
Ġut risque
ot i
ot es
ot os
Ġde ponere
ĠI ure
ĠI terum
ĠS eg
ĠS crib
ĠC ulpa
ĠD ur
est atem
Ġprae p
Ġprae fic
rat ione
ist icae
ĠP en
ĠP sal
ĠP uer
Ġsed uc
Ġen um
ĠQu ar
uit us
Ġquid itas
Ġpot uimus
aec umque
ĠM aecenas
Ġab ut
Ġab dic
Ġab sit
Ġab hor
Ġu ers
Ġr ud
Ġr ot
Ġop orter
ĠL icet
ĠH ost
Ġam avit
ĠR eb
ĠR usc
Ġpag e
Ġinc umb
Ġvol ebam
ĠT enn
Ġpl eraque
Ġnec atus
Ġnec non
ĠV icip
ĠV ivamus
ĠV indob
Ġun itate
Ġacc eptum
ĠB ell
ov a
Ġdix ero
Ġdix erint
Ġanim as
Ġleg avit
Ġven iant
Ġloqu entem
ĠO x
ĠO ly
Ġdol eo
Ġnum erat
Ġaud iret
Ġimp let
Ġquibus cum
itas se
Ġdu arum
Ġo ut
Ġnatur alem
Ġcommun itas
Ġdeb eatur
ĠSed es
Ġag no
Ġac quiesc
Ġurb ium
Ġtr ac
Ġcur at
Ġrem ota
Ġdisc ept
Ġnomin atur
itud in
ug ium
Ġcogn itam
di ffic
Ġfort es
Ġrec re
Ġrec urr
Ġact ionibus
Ġconf ecta
Ġdel et
Ġinf antes
Ġpraec episti
Ġ5 00
Ġcar itatis
ĠAm as
Ġcol um
Ġmat ri
Ġmat tis
Ġlab eo
Ġmor eretur
Ġdoc e
Ġvis it
Ġneg lig
Ġdomin ium
Ġprincip is
Ġcert amen
Ġfug erunt
Ġ7 2
ĠAr aris
Ġquaer am
Ġduc itur
Ġduc atus
Ġfam am
Ġmut atur
ord in
Ġcognosc eret
Ġappell ati
Ġpet it
Ġpet eret
Ġcet erum
Ġstud iose
uct ae
Ġlaud is
Ġproc edit
Ġintellig entiae
Ġmens am
ĠBr as
Ġaper itur
Ġpecc at
Ġcontr ariae
ãģ ª
Ġsignific et
ĠX IV
ĠMa ximus
Ġaequ a
Ñģ Ñı
Ġsimul ac
ric em
Ġdiff erant
Ġtrib uta
Ġadvers ariis
Ġbeat issimum
Ġgrav em
Ġmand avi
Ġlic itum
Ġmiser am
Ġaetern us
Ġobs id
Ġsecund ae
Ġinstit u
Ġperm ut
Ġlae ta
Ġdict urus
Ġpugn am
Ġdelect or
Ġreper io
Ġpauc orum
Ġmeli ores
Ġnob ili
ĠAli ud
Ġlac ess
Ð°Ð ¹
Ġcorr ip
Ġrog are
lem ent
Ġperic uli
Ġ194 8
Ġ194 9
Ġrev era
Ġmar itum
Ġmar ito
Ġlud o
Ġnar ravit
Ġfem inarum
Ġaug ur
Ġmiss i
Ġambul abat
Ġdivis io
Ġcast rum
Ġdivers um
Ġcompos uit
Ġsor ore
Ġfide icomm
Ġpret iosa
Ġiniqu um
Ġcircum cid
Ġpass im
ĠPar isi
Ġintra re
Ġsy stem
Ġparent um
Ġvinc itur
Ġinde x
Ġscel era
Ġnat alis
Ġnat ionibus
Ġfund i
Ġperpet ua
Ġfecerit is
Ġfel es
Ġcondic ionem
ĠMed iol
Ġconced i
Ġcrim ina
Ġrelinqu ere
Ġcommod a
Ġsempiter nam
ĠCathol ica
Ġeleg antiam
Ġgenerat io
Ġindig et
Ġalt ius
Ġalt itudo
ĠImper ator
ĠMin ime
Ġ185 3
Ġtabern ac
Ġinst ar
ĠAf ricae
Ġx ii
Ġdeduc ta
Ġparticip es
our t
Ġsomn ium
Ġhor am
Ġcad unt
Ġproficisc i
ĠPro inde
Ġmunicip ia
Ġsumpt um
Ġaccept i
Ġ186 0
Ġmemin it
Ġnub es
Ġinteg ra
Ġdur ius
Ġinqu iunt
Ġdelic tum
Ġquaereb amus
Ġcapit ulo
Ġgreg em
ĠSequ i
Ġuer itate
Ġinsip ientes
Ġinsip ientium
Ġuolunt ate
Ġpollic etur
Ġacceper at
Ġ180 6
Ġperc ept
Ġmultip lex
ĠMaxim um
Ġpast or
Ø§ ÙĦ
Ġnonnull is
Ġreman sit
Ġconsumm ati
Ġui uere
Ġpartic eps
Ġcontent ione
ĠJud ae
Ġcotidie que
ĠSab audiae
Ġevangeli z
ien ce
Inter rog
ĠPraec l
Ġprimogen itus
Ġconsiderat a
Temp oribus
sic ut
Null a
Ġcen am
Ġrequ ire
ĠCet erum
ĠGrat ias
Ġdext ram
ĠNap oleo
Ġvestig ia
Ġegreg ium
ĠEvangeli um
Ġabb as
ĠDes erunt
Ġbas il
???? ????
Ġabscon dit
Ġabscon di
Sec undum
ĠAv ic
æĹ ¥
Ġexh ered
ĠTre b
ĠDemocr itus
108836 28
Ġprou inc
Ġdiluv ii
Ġcotidi ana
Ġtranqu ill
Ġdeterr itum
Ġinflam mat
ĠSaec ulo
Ġpern ici
ipublic ae
ĠSyrac us
Ġoporter et
! )
8 39
C ol
G rat
H ac
I ust
T ert
c as
c ons
d is
d ific
f ord
i er
i ano
k er
m l
t as
v us
v eris
x isse
y a
» ¿
Î ®
å ½
å Ĩ
è ¡
Ġ ic
Ġ lius
Ġ 01
Ġ ....
Ġe lic
er u
Ġs h
in one
Ġp ensa
Ġp sal
at arum
on os
Ġc ale
Ġc eperunt
Ġc Åĵ
ae st
Ġd ate
Ġd aretur
Ġin di
Ġin pr
Ġin quir
Ġin eptum
ic s
ic ul
ic al
ic itur
Ġv ov
Ġv ast
Ġt arn
re a
re ta
Ġf erat
en ce
im age
Ġh el
id ior
id itas
Ġpr or
Ġpr Ã¦c
ol es
ol vit
Ġad fic
oc endi
Ġl itus
ac a
Ġut ar
Ġut ilis
Ġut eretur
el e
op at
Ġex stat
Ġquam que
ĠS uet
ĠC en
ĠD ig
ip iam
Ġper ire
Ġaut h
ĠP un
Ġco gitur
quam quam
ens o
Ġhab uisse
ĠN atus
Ġsc ias
Ġsc iri
Ġsc iebat
uc tus
Ġpot eram
eb or
ort is
Ġver so
Ġips arum
and er
Ġop e
Ġop ert
av ailable
ĠL o
Ġam amus
Ġpag inae
ĠF erdin
Ġinc epit
ĠT anta
Ġpl anum
ĠV bi
Ġsol itudo
ing it
ĠG ra
Ġint est
Ġcont endere
Ġcomm issa
Ġinter ven
Ġfu ere
Ġfu isses
Ġor igin
Ġlib rorum
Ġsec uta
ep os
Ġdix erim
ran e
ĠO g
ĠIn stit
Ġser o
Ġsub dit
Ġaud eat
Ġob ed
Ġann untia
Ġsim ilibus
res so
Ġdeb ebat
Ġag endi
Ġput antur
Ġput avit
Ġist os
Ġcur es
Ġdiv ino
Ġiur ibus
Ġrep rob
ĠâĢ ŀ
Ġdec ur
Ġas ino
Ġdes erta
ici untur
Ġintell ecta
ĠFranc orum
ĠFranc ogallic
Ġrec ent
Ġgrat ius
Ġscrib imus
Ġconf erunt
Ġinv ito
Ġviv us
he ight
Ġfrat ern
Ġins unt
Ġins crib
Ġten eat
Ġplac eret
Ġvide as
Ġprov idere
Ġfi ebant
Ġvis ionem
Ġprob abis
Ġsal ub
Ġing em
Ġtest em
Ġintelleg is
ĠPr os
ĠPr oph
Ġvic em
Ġmut ata
Ġmut uam
ĠJ erusalem
Ġaccip iatur
Ġreliqu orum
Ġcet eras
pos sumus
pos ition
Ġsen ectus
Ġph il
Ġ12 1
Ġ12 6
str orum
Ġstat uta
Ġstat utum
inam ur
Ġintellig atur
Ġmens em
Ġmil lia
Ġsac ris
ĠSan e
Ġaccus atus
Ġsubi ect
Ġsubi ecit
Ġsignific antur
Ġcup it
Ġrect issime
ĠMa ur
Ġ13 3
Ġ13 8
Ġthe y
Ġthe ir
ĠOmn ium
nam e
ĠIo anne
ric o
ric is
Ġmov ent
Ġult ro
Ġult imo
Ġnoc tu
Ġconven erunt
Ġth em
Ġperfect iones
Ġdon ata
Ġquaest ionis
Ġ10 7
Ġunivers um
Ġfer ri
ĠW e
ĠW il
Ġmir abantur
Ġarg enti
Ġdebet is
la y
Ġexplic are
Ġfamili arem
Ġamp ut
ori arum
Ġch at
Ġcogitat ionibus
Ġpraest et
Ġcal or
Ġdelect ant
Ġhonest a
ĠNov a
Ġcupid itatem
Ġfur oris
Ġopin iones
De u
ĠAli i
Ġnunt iatum
Ð°Ð ²
Ġpriv atae
Ġcr u
Ġconv entum
Ġpropos itio
ĠInt ern
Ġcas ibus
Ġ199 2
Ġaff lic
ĠHispan iam
Ġmar iti
Ġimag ine
ix um
Ġgest orum
Ġnav ium
Ġconiunct ionem
Ġscrips erit
Ġignor are
Ġcompos itionem
Ġadhib etur
Ġscriptor ibus
Ġsch olis
Ġordin atus
Ġeu angeli
Ġiniqu itas
Ġcompar atur
Ġpass iones
ĠDec isiones
Ġturp iter
Ġcreatur am
Ġconsum ere
Ġ196 0
Ġsusc ept
Ġpauper es
Ġgl ob
ĠCl er
Ġrestit ui
ĠBritann icus
ĠDol ores
Ġacced unt
Ġfest o
Ġfest iv
Ġgenerat ionem
Ġsingul aris
Ġcib o
Ġ185 8
Ġconfirm atae
Ġapostol is
Ġ195 8
Ġtabern a
Ġsollic itudin
err imus
Ġcommend at
Ġiuv are
Ġproport ionem
Ġadiuv at
ĠEs iae
Ġcess at
Ġmy st
ĠScip ione
Ġsoli dum
ĠSec undo
Ġty p
Ġperfic ere
Ġdecre vit
vent ore
ĠGen esis
ĠZen onis
Ġminister ium
Ġadulesc ens
Ġaccess eris
Ġfing unt
Ġrequir it
ĠSequ itur
Ġventur us
Ġpropriet ates
Îµ Î¹
200 00
Ġcathol icae
Ġpopul aris
ĠAcadem iam
Ġedic to
Ġpoet arum
Ġconfus ionem
Ġconcupisc es
Ġhodiern um
Ġnut ri
Ġexprim ere
Ġcler icus
Ġpermitt itur
Ġconcip i
Ġobliv isc
ĠSyr iam
Ġcresc it
Ġpict ura
ĠOp ort
Ġadmirat ionis
Ġnud us
Ġimport at
Ġmaled icta
Ġprocur ator
Ġsacram entum
Ġlacrim ae
Ġlo quamur
Ġration alis
ĠDiet am
Ġnoct ibus
dom ad
Ġmedioc ri
ack son
Ġobt ulit
ĠCel tae
Ġfont es
Ġrede amus
Ġpontific atus
Ġhom ic
ĠÐ¾ Ð±
Ġbl asph
Ġcomplex us
Ġillust ris
Ġbenedic at
Ġtermin os
Ġmedic ina
ÑĨ Ð¸
uth rot
ĠElis atia
Ġcarm ina
Ġverec und
Ġmaer ore
Ġcoerc endi
":[ "
Ġceler itate
ĠOri ent
Variant s
Ġadiun xit
igh ly
ĠCong reg
ĠFrider icus
Ġnong entesimo
Ġsug g
ĠNorveg iae
ĠHierosol y
Ġsepe li
Urb s
ĠEphra im
ĠTenn esiae
0 2
: [
: //
= "
? âĢĿ.
A ud
B eat
C l
C at
D ownload
E dit
I us
I ab
K G
O f
S ub
S uper
V id
a que
d u
d ere
f eatured
g es
g ar
h um
i ra
i emus
s ub
t ionis
u untur
v um
Ã ¸
á ŀ
å °
å ĩ
æ °
ï »¿
Ġ Ïĥ
Ġe dixit
er y
er ven
Ġa vers
Ġs es
in u
Ġqu aliter
Ġp ont
nt ur
Ġc f
Ġc ari
Ġc edit
Ġd etur
Ġd entes
Ġd ans
Ġd atam
Ġm en
Ġt on
ut es
ut as
ut iae
re liqua
Ġf ato
Ġf reg
li xit
en ia
om i
im et
im arum
et ia
et te
ar m
ec k
ent ae
ent os
Ġnon aginta
Ġpr iori
ia vit
ia libus
Ġad aequ
Ġl atus
Ġl ate
el o
as que
Ġde ae
al d
al itatis
Ġex ord
Ġex inde
Ġex ponere
Ġex amin
ĠA ug
ĠA liqu
ĠS ta
ĠS oph
ag ement
ĠC ath
ĠC ity
omn es
ĠD or
ĠD id
ĠD isc
ĠD ign
Ġper sequi
Ġb el
Ġb eg
ect ed
ĠP isc
ĠP ad
ĠP KG
omin a
Ġg al
Ġg entis
Ġg eruntur
no w
Ġco empt
ĠQu inct
ĠQu icquid
ens am
ens ione
Ġhab ito
Ġpos c
Ġpos it
Ġsc iebam
Ġpot entes
und am
eb imus
ĠM M
are st
ort us
Ġposs es
Ġab hinc
Ġu p
Ġer rat
Ġer og
ĠH os
ĠH arum
Ġca ud
ĠR a
ĠR est
ĠR up
ĠR ursus
ĠF ann
Ġaliqu antum
ĠT ul
Ġpl ene
Ġnec ati
ĠV i
ĠV il
ĠV ero
ert atis
ess i
Ġpotest ati
Ġsol vit
ing ere
ing ton
ĠB y
Ġcont ulit
ull us
Ġor ationes
Ġres usc
Ġsec uti
Ġsic c
Ġst o
Ġst ans
Ġanim is
Ġmin imo
Ġcor n
Ġleg iones
Ġfec issem
Ġloqu ente
Ġ19 34
ĠO ce
Ġaud iamus
Ġomnes que
Ġimp ii
Ġmagn os
Ġmagn arum
ĠRom e
Ġnatur ali
Ġnatur ales
res pon
Ġdeb eri
Ġnull as
Ġac adem
Ġput abant
Ġsuper v
ern is
Ġexp ell
Ġmal it
Ġiudic ibus
Ġamic e
Ġdisc imus
Ġnomin ati
Ġded ocendi
Ġdes uper
Ġtot idem
Ġact ionis
Ġdel ecta
ĠÐ °
Ġel udet
Ġinf ans
Ġcl arum
Ġpraec epi
Ġcar iorem
Ġcred as
Ġdef ini
Ġopt imo
Ġdoc endi
Ġprob lem
Ġprob abantur
Ġcirc ulum
Ġprincip alis
Ġfug am
Ġsal t
ĠGraec am
Ġaet erno
Ġtum ultus
ea u
Ġimper fectum
Ġing ress
Ġoffic iorum
Ġsus pectum
Ġintelleg imus
Ġsapient ium
Ġhon orum
Ġcogit et
Ġaed em
Ġappell ari
Ġappell atio
Ġreliqu iae
Ġsup erest
Ġlaud ari
Ġsen atui
Ġ12 2
Ġconstit uere
Ġglor iose
Ġglor iatio
Ġod isse
Ġdiscip ulum
Ġintellig imus
Ġmens uram
Ġsubstant ias
Ġmun eris
Ġfact ionem
Ġpraedic ari
Ġmuli eri
Ġcontr ib
Ġlat et
ĠX IX
Ġsoc ios
Ġuna quaeque
Ġost endi
Ġ13 4
Ġ13 9
Ġaequ alia
ĠQuam obrem
Ġ14 7
Ġregn a
crip sit
Ġsing ulae
Ġperfect ionis
Ġpraecip iendum
Ġadd itum
Ġ10 2
ĠIuli o
Ġearum que
ĠTh em
Ġconsul ere
Ġmand atis
Ġmand ato
Ġfamili ari
Ġinstit uti
Ġreprehend it
Ġref ell
Ġeodem que
ĠAnt iqu
ĠAnt oni
Ġperm ulta
Ġparv o
ĠGal aad
ĠId ibus
Ġprom is
Ġdict ator
Ġerr ores
Ġdil ecta
Ġpugn at
Ġdelect et
Ġreper itur
Ġlibert us
Ġdesc isc
Ð°Ð ±
Ġdisput atum
Ġdisput ationibus
Ġteneb itur
Ġ199 6
Ġ199 7
Ġnav em
ict ion
Ġson at
Ġaug eri
rec ta
Ġfortun as
Ġcogno verunt
Ġmerc ator
ĠAugust o
Ġdivis a
ĠPa uli
Ġmanifest a
Ġsociet ates
Ġpossid eat
Ġhort o
Ġrel eg
ĠPar th
Ġment iri
Ġagn um
Ġvinc ulum
Ġmer ita
Ġhi er
Ġ196 5
Ġ196 6
Ġ196 8
ĠDic itur
Ġplen itudinem
Ġsalv a
ĠUrb is
Ġpraesid es
ĠÎ ¼
Ġpraem itt
Ġbest iarum
ĠLuc ius
Ġtac ere
Ġstult itiam
Ġdepos ita
Ġcomed e
Ġ198 2
ÐµÐ ²
ÑģÑĤ Ð²
Ġtoll endam
ĠAng lia
Ġmori ar
Ġclam at
Ġtabern aculo
Ġabsol vi
Ġsuspic io
Ġsuspic ione
Ġsil entio
ĠPot es
Ġimpet u
Ð¸Ð ´
Ġconsc ientiam
Ġturb ae
Ar g
Ġmont ibus
Ġpraepos itum
Ġinqu ies
Ġuoc atur
Ġartific io
Ġquaereb atis
ĠBo oks
Ġdissim ile
Ġcapit ulum
Ġ187 0
Ġinvid iae
Ġent is
Ġgreg es
Ġlap is
Ġare a
Ġ189 3
Ġeloqu entiae
Ġpraeb et
Ġ180 3
Ġpopul ari
Ġcub iculum
ĠFoeder alem
Ġrespic it
Ãł m
Pr ov
Ġnupt iae
Ġtex t
ĠApostol us
Ġhabita verunt
burg um
Ġsuffrag io
Ġsupplic ium
ĠMal mog
Ġproced unt
Ġpell ic
Ġpell entesque
Ġdestr u
ĠGeorg iae
Ġcolloqu ium
Ġdimitt e
Ġeffug ere
Ġconcord iae
Ġorig ine
Ġsuperb ia
Ġsuperb iam
ĠOcc itania
Sc io
Ġinvoc abo
Ġbore alis
Ġincon stant
Ġincon veniens
ĠTorqu ate
ĠMaced oniam
ĠHer od
ĠHer ac
ĠLudov ici
ĠCet era
æľ ¬
ibili ora
Ġsel ectio
Ġconl oqu
Ma xim
Ġinterdic tum
Ġceter arum
prop ter
Ġplor avit
ĠPompon ius
Ġreddit ae
Ġpare ns
ĠTri arius
Ġobsc ura
Ġsuppon at
ĠFrat er
Ġpraepon unt
Ġconfite or
ĠSalom on
Ġhil aretur
ivoc e
Ġpuerit ia
Ġdiap ente
Ġpraedit i
Ġdiscipl inam
Ġspecial iter
htt ps
1450 839
Ġuber iora
Ġulter ius
ĠHierony mus
ĠOrb is
ĠNobeli anum
ĠÄĮ erven
Ġineb ri
ĠLug d
Ġprocons ul
Ġproph etis
ĠRusc inone
" ).
' :
' ).
( );
. *
> ,
> .
C om
M in
M olest
O pt
O ffic
P ar
P ers
S PD
U C
V ers
X V
b ur
c es
d ae
f it
f ell
f ecit
f rag
i ebant
m ate
m entum
p ol
p ad
t he
u j
v iae
x isset
Â º
Â Ĺ
Ã £
Ã ı
Ä ĩ
Å Ĥ
Ñ ī
å Ľ
Ġ Ú
Ġ one
Ŀ ¼
qu ant
um en
um ent
er p
er ne
Ġa erum
Ġs ur
Ġs ud
us um
us andae
in v
Ġp ig
Ġp endere
Ġp ictor
at ivum
on as
Ġc ul
Ġn unquid
ae o
st is
Ġd ando
Ġd urum
Ġm ili
Ġm ost
Ġm isc
Ġm avis
or iam
ur iam
ur rent
Ġv entum
Ġv ini
Ġt ir
Ġt ectum
Ġt aed
Ġi v
Ġi vit
re qu
Ġf ulg
Ġf elix
Ġh y
Ġh yp
an im
ul ares
Ġpr iore
ed en
Ġre o
Ġre quis
Ġl acte
ud it
ac e
ab imur
el um
as on
as ch
il ud
ot ograph
Ġde lig
Ġsu arum
al um
al la
Ġcon antur
Ġex stit
Ġex tor
Ġex quir
ĠA ri
ĠA di
Ġan x
ĠS ev
ĠC ed
ĠC ore
Ġdi ligo
ĠD aniae
Ġqui libet
Ġdic ent
est um
Qu aes
Ġsed ebat
ĠQu arum
Ġpos itus
Ġpos ito
ĠN av
ĠM ic
ĠM ex
ĠM odo
iss am
ort es
Ġab out
Ġvid ebam
Ġvid uae
Ġu ic
Ġu elle
Ġ2 18
Ġer as
ĠL B
ĠH o
ĠH orum
ĠH ir
ĠH annib
Ġca ut
Ġca strorum
Ġam issa
Ġam oen
ĠR el
Ġpag inas
Ġinc rem
Ġcu ipiam
ĠT ab
ĠV ers
ess um
Ġun gu
Ġacc idunt
ĠG od
ĠB is
Ġcont enti
ull o
Ġinter itum
Ġor atores
Ġpat ientiam
Ġpat ienter
Ġbon itatis
lig ht
Ġst atio
Ġmin u
Ġnost rud
Ġloc utionem
Ġloqu imini
Ġ19 12
Ġ19 30
Ġ19 32
ĠO dit
ĠIn f
Ġquis piam
Ġincol is
Ġob lect
Ġscrip ti
Ġimp ius
Ġimp ub
Ġcuius modi
Ġcommun ionem
iat ionis
Ġrat ioni
Ġvit ulum
Ġvoc amus
Ġist arum
Ġeam dem
Ġdiv ini
Ġ18 14
Ġ18 36
Ġas sequ
Ġpop ulis
Ġcomp reh
ĠQuid em
Ġcogn omen
Ġact ibus
Ġconf l
Ġconf estim
Ġconf erebamus
Ġviv imus
Ġpossit ne
Ġsign avit
ĠAm ic
Ġins itam
ve h
Ġnov as
Ġnov erunt
Ġopt ion
Ġdoc ebit
Ġhuius ce
Ġprob antur
Ġprob abile
Ġcirc ulo
Ġcert am
Ġcert ior
Ġvest imenta
ĠAr n
Ġj ur
Ġquaer atur
Ġpecun iis
Ġpecun ias
pic io
ass es
Ġdilig entiae
ĠQuae s
fer endis
cr ibi
Ġdign os
Ġdign itati
Ġexerc ere
ĠPr ob
Ġvic ti
Ġmut u
Ġcogit es
Ðµ Ñģ
Ġhum ili
Ġcognosc es
Ġaed ium
Ġpet ivit
ll us
ll am
Ġpatr ono
pos ita
Ġbell e
Ġprovinc iis
Ġproc lam
Ġproc edere
In de
Ġem itt
Ġem olum
Ġexist is
Ġfaci ebant
Ġlat ron
ãģ ĵ
Ġspec ialis
Ġfal si
Ġsignific ans
Ġimm orta
Ġrect us
Ġ13 1
ĠGerman icae
Ġregn avitque
Ġepiscop os
Ġdiff lu
Ġmov entur
Ġnoc et
Ġnoc ent
Ġluc ri
Ġconven iant
Ġth ron
Ġprod ux
Ġfer oc
Ġtrad ita
Ġev ol
Ġed idit
Ġlic ere
Ġlic entia
Ġarbit ra
Ġnol uisti
Ġexemp li
Ġch ili
Ġparv ae
Ġdiss ip
ĠId que
Ġepist ularum
Ġden unt
Ġatt ulit
Ð¾Ð º
ĠChristi anae
ĠPrae mium
Ġav es
Ġav ia
ĠIll ae
Ġvera x
Ġon eris
Ġon ly
ĠCar oli
Ġalien ae
Ġhonest ius
Ġproxim a
Ġproxim is
Ġlibert i
Ġquot idi
ĠCat one
Ġport um
Ġport as
Ġsuscip ere
Ġequ orum
ĠAli o
Ġingen i
ĠPer se
Ġperd itum
Ġlud ere
Ġimag inamur
Ġgest is
Ġped um
Ġaug etur
Num quid
ĠSept em
Ġambul at
Ġconiunct ae
Ġdam ni
Ġdim ic
Ġexspect amus
olog ia
Ġdux erit
ĠIacob i
Ġperven erunt
Ġordin atur
Ġfre e
Ġrel ationem
Ġpass uum
ĠPar lam
all ust
Ġment io
Ġcustod ia
Ġvinc la
Ġ197 5
Ġturp itudinem
Ġmilit ari
Ġfund amenta
Ġplen i
Ġfel ices
Ġcondic iones
Ġpauper ibus
Ġexper i
Ġcrim in
Ġrelinqu o
Ġpostul et
Ġceleb rat
Ġpoen as
Ġelect i
Ġsuffic iat
Ġot iosus
Ġfacult atibus
Ġdioeces im
Ġvend ibiliora
Ġscit ote
ĠLa ur
Ġvehem entius
Ġobi ect
Ġadduc et
ĠAthen as
ĠRe ad
Ġloqueb amur
Ġvocabul is
Ġconp rehend
ĀĀ Ā
Ġorn are
Ġduod ev
Ġhabeb itis
ĠVal le
Ġmemin erimus
Ġcec idi
Ar ch
Ġglad ius
Ġpercip itur
Ġpraef uit
ĠRuss ica
ĠZen oni
Ġcolleg ium
Prae s
ĠQuint o
Ġinvid iam
ĠSy n
Ġhosp itio
ĠEuropae ae
Ġarb or
Ġexcell entiae
Ġprec ibus
Ġvulg i
Ġpraepar abit
Ġrespic e
Ġconfit etur
ĠJes u
Ġec lips
ĠQuibus dam
Ġuerb is
ĠMaxim e
Ġomitt amus
Ġconcip eretur
Ġsubt ilius
ĠSeptentr ione
Ġdomest ica
Ġcustodi erit
ER O
Ġcord ibus
Ġaccipi enda
Ġcompl ures
Ġconiung i
Ġgign untur
Ġbarb aris
ĠPraes es
Ġdemonstrat io
ĠRespon dit
Ġvetust atem
Ġbenign e
Ġdisplic uit
Ġdistingu itur
Ġavar itias
Ġdemonstr ari
ĠAnglic a
Mag ister
Ġaffic ere
Ġdesid ero
Ġfornic ati
Ġresponde as
Ġattend e
ĠAfric am
ĠÃ¦ ter
ĠÃ¦ dific
Ġpersec utus
ĠBeat rix
Ġrescrip s
Ġterm inus
Ġsurg ere
ĠMaced onia
ĠVic tor
Ġcontig it
ĠPlac eat
Ġvaletud inem
ĠMolest ias
Ġabscond itum
Ġsyllab ae
Ġinnumer abilia
Ġrepugn et
Lu k
The od
ĠOffic ia
Ġconsue vit
Ġthesa uris
Ġconsid eret
Ġconscrip ti
ĠPhilipp us
ĠLong um
ÐµÐ» ÑĮ
Ġexim ia
Ġremiss ionem
Ġinsc itiae
Ġsax um
ĠXen oph
Ġincogn ita
ĠLus it
Ġtutel ae
Ġfront e
Ġpatef actio
Ġnesci ebatis
Ġevac u
ĠTit ularis
ĠGali lae
ĠWest ph
onc ili
Ġpropin qui
ĠPyrr ho
ĠTerr arum
Ġincorp or
Ġwebsit e
Ġuteb are
Ġcaer ule
Ġoccurrent ia
ĠâĹ ī
ĠOly mp
ĠAvic enna
Ġinpr udens
Ġopert arum
& @Ąą
A pp
B e
D um
E rat
H omin
L XXX
O cc
T ur
i j
l as
l ad
m ina
m ortuus
o unt
p io
s ol
t ius
u z
u que
u itate
y ch
² ½
Â ª
Ã Ł
Å «
å Ĭ
æ ±
æ Ŀ
ê ²½
Ġe cc
Ġe vit
Ġe rect
er are
Ġa en
Ġa eris
Ġa ve
in ta
Ġp ect
at ior
am em
Ġc i
Ġn ato
Ġn actus
Ġd ato
Ġm itter
or ae
or ro
ic on
Ġv ariae
Ġf Åĵ
om ata
es uada
Ġh ad
od ia
ar z
ar di
id el
ul ar
ul aribus
ent s
ent issimi
ol n
Ġad ium
oc les
oc utus
Ġl y
Ġl ar
Ġl ink
Ġquod libet
ac or
ac ium
ab eris
Ġut ili
el ic
ius s
il y
Ġde fect
Ġde fectum
Ġsu Ã¦
al dus
Ġcon atur
Ġcon ect
Ġcon uers
Ġex ar
Ġex equ
ĠE lect
ĠA evo
ĠI f
ĠS ing
ĠC op
ĠC lar
ĠC ave
omn ia
est o
est er
est is
ter a
Ġfac et
Ġfac eres
Ġprae val
Ġprae iudic
itur i
ĠP res
ĠP ugn
ĠP ulch
ĠP ellentesque
Ġsed ecim
per em
ens ae
ĠN olo
Ġsc iamus
Ġeius mod
Ġpot ior
ĠM ea
ĠM ach
ĠM esop
ort h
Ġse quamur
Ġse quebatur
and e
Ġvel oc
Ġvid eram
Ġu et
Ġ2 50
Ġr ar
Ġr ig
Ġr itum
Ġsit is
av iae
av erimus
ĠL ux
ĠL up
Ġne w
ĠF ur
ĠF orum
ĠF und
Ġpar ere
Ġinc ont
Ġinc arnationis
Ġcu ilibet
Ġvol et
ĠT ac
ĠT itum
ĠT ullius
Ġpl enus
ess al
ĠG lor
ĠG racch
Ġint rinsecus
ĠB onus
ĠB uthrot
Ġcont enta
Ġcont endit
Ġcomm isc
ig il
ig eniti
Ġfu isti
Ġfu erim
Ġor atoris
Ġlib et
Ġres urg
Ġpat ern
Ġreg it
Ġreg ulae
Ġst ella
Ġst ellae
Ġcre ator
Ġar cus
Ġcor on
Ġcor rept
Ġfec erant
Ġven issent
Ġloc ut
Ġ19 21
ĠO th
ĠO reg
ĠO dio
ĠO hii
Ġdol us
Ġsp re
ĠIn v
Ġal ta
Ġus e
Ġoc ulum
Ġpost hac
ific e
Ġman ete
le vit
Ġdom os
Ġimp iorum
Ġo u
Ġgen ua
ĠAn ato
Ġsem ine
Ġpart us
Ġpraes entis
Ġvit iose
Ġcog itas
Ġcur o
Ġcur ia
Ġcur iam
Ġcur avit
ne a
Ġsuper avit
Ġsuper fl
Ġexp letum
Ġmal esuada
Ġiudic um
Ġciv ilibus
Ġamic am
Ġamic itiarum
Ġnomin ata
Ġnomin avit
ug g
Ġcogn atione
Ġconc essit
Ġconc urr
Ġconc eptus
Ġmol libus
Ġlit em
Ġscrib ae
Ġscrib ens
Ġact iv
eli a
eli or
ĠRoman am
Ġiust is
Ġviv is
Ġviv ens
ĠSi gn
Ġpraec essit
ĠAm b
Ġins pi
Ġins anos
Ġcol ebat
Ġpers crib
Ġlab oribus
Ġcred at
Ġcred ens
Ġcred untur
Ġcred iderit
Ġmor bi
Ġmor iatur
Ġfecit que
ti que
Ġopp ressus
iens em
Ġexc id
Ġprob as
Ġinven eris
Ġdomin is
Ġred und
Ġred itum
Ġprincip um
Ġcert i
Ġcert ius
Ġcert issimum
Ġsumm is
Ġsumm ae
unct um
unct ion
Ġj ure
ĠGraec arum
Ġduc tum
aret ra
Ġsanct e
Ġund ecim
Ġdilig amus
Ġext r
Ġext oll
Ġnecess ariae
Ġplur ium
Ġvic issim
Ġhon os
ĠJ eh
Ġign e
Ġign ota
Ġappell o
Ġpet itionem
Ġstud eo
uct ionem
Ġpertin ebat
Ġsen em
Ġph antas
Ġph aretra
Ġ12 7
In c
Ġtant us
Ġmens ur
Ġmens ura
ĠCon stit
ĠCon dit
Ġfact orum
Ġfaci emus
Ġaper uit
Ġaccus ator
if orm
Ġfal so
Ġliber alis
Ġvi arum
Ġ13 5
tem berg
Ð½ Ð°
Ġquant us
Ġquant ae
lis h
ev um
Ġdem ocrat
Ġth erm
Ġsing ulorum
Ġprod ig
Ġdon o
Ġpor tare
Ġ10 4
Ġtrib utum
Ġtrib uere
Ġunivers i
Ġunivers itatem
Ġunivers itatis
Ġfer r
Ġadvers arii
Ġtrad itus
Ġtrad iderunt
Ġvet errima
Ġpossess ionis
Ġmon et
lim us
Ġconsul atus
ĠReg is
Ġaudi ebat
Ġpulch er
Ġpulch rae
Ġlic uit
Ġhabe antur
Ġamp lect
ĠSp ec
Ġnol le
Ġnol ui
Ġch ord
Ġperm is
Ġperm ans
Ġcal li
Ġnegot iis
Ġprom ov
Ġdep ort
Ġdep rehendi
Ġsex tus
land itiis
Ġdelect antur
Ġincip eremus
Ġeff ecit
Ġmeli ore
Ġnob iles
ĠNov o
Ġcupid itates
ĠAs iam
ĠAli as
ĠSt eph
Ð°Ð ´
Ġscript orum
Ġdisput ationem
Ġdisput abunt
Ġpriv atio
Ġconv inc
Ġconv entu
Ġaur ea
ĠInt eger
Ã¡ n
Ġterr Ã¦
Ġ194 3
ĠHispan ica
Ġpuell arum
Ġmiss um
Ġoff erunt
Ġoff endit
Ġfoed ere
Ġinterrog at
Ġmerc atus
Ġmerc atores
Ġads id
Ġdivis ione
Ġdim ittere
Ġignor as
Ġeven ire
Ġdux i
Ġra di
Ġsor s
ith eatrum
Ġperf ecit
Ġadhib eri
Ġadhib eremus
Ġiniqu us
ĠIun ius
Ġcompar andis
ĠVid eo
Ġinvent ae
Ġcustod ias
Ġtem et
Ġ197 3
Ġmer id
Ġprophet am
Ġ196 2
Ġ196 9
Ġperpet uam
Ġaestim ationem
37 428
Ġlev ius
Ġstult itia
201 8
Ġconsec uta
Ġ0 4
ĠAg ar
Ġeleg i
ĠFac ere
Ġdubit are
Ġgenerat ione
ĠEn g
Ġ198 6
ht ml
Ġpraet ex
Ġsubs unt
Ġsubs cript
Ġexped ire
Ġexcept o
Ġdioeces es
ĠOr th
Ġclam avit
Ġ185 7
Ġ195 6
ĠSto icus
Ġabsol uta
Ġcad av
Ġappar ere
Ð¸Ð ·
Ġtract atur
Ġconclus ionis
Ġ186 7
ind ow
Ġcondit or
Ġglad ii
ĠSuper iori
Ġline ae
Ġuit ae
Ġcern imus
ĠMult um
Ġquaereb at
Ġreli quam
Ġub era
ĠBo oz
Ġquoc um
Ġ187 6
Ġgreg e
Ġexpet enda
Ġinfer ioribus
ĠPy th
Ġdetermin ata
Ġmom entum
Ġpropriet ate
Ġuolunt atem
Ġpati ar
Ġarb ores
Ġinterf ecit
Ġquer itur
Ġprog ram
Ġprog redi
ĠMarc ellus
ĠY ou
Ġcub iculo
Ġadmitt i
Ġdispos itio
Ġinius te
ĠRep ublic
Ġdidic it
Ġuis um
Ġvad is
Ġvad am
Ġib imus
Ġsanctific avi
Pr ice
Ġnupt iis
Ġintu eri
ĠQuin tum
ĠSyr ia
Ġintellex erunt
Ġcommunic are
ĠSen eca
Ġnud a
Ġimpos uit
Ġbenevol entia
Ġbenevol entiam
Ġinstrum enta
ĠApoll o
Ġverius que
ĠDom iti
ĠHeb rae
Ġambig uo
Ġcent rum
Ġfung antur
Ġluxur iae
Ġproi ectus
Ġdisciplin as
Ġconfid ite
Ġaufer re
ĠVirg inis
Ġampli fic
Ġmo ech
ĠBas an
Ġpraevaric ati
ĠTert ium
Ġpunct um
ĠReli qua
Ġdimis it
ĠMer idi
Ġcredid isti
Ġvect ig
Ġnepot es
Ġmyster ia
Ġmyster ium
Ġcense o
Ġieiun are
Ġincom modum
Ġflagit iosum
ĠHomin es
Ġcaptiv itatem
Ã¹ m
Ġnau frag
Ġspelunc a
cre ated
Ġaem ul
ĠAgrip pa
Ġpostr idie
Cet erum
ĠBrundis ium
Ġdrac o
ĠSper o
Ġrepreh endo
ĠBuc arest
Ġprosc rip
Ġtrac tare
Ġcircumcid eretur
ĠOport et
Ġblasph em
Ġhier arch
Ġdifflu entes
ĠOreg oniae
. ),
. âĢĶ
. âĢľ
9 2
: \/
A ve
A ugust
C re
D uis
D iscip
F ull
J o
L ucius
M ortui
O D
O b
S A
S ch
X III
b am
b lack
d oca
e ius
e undi
f ecta
g it
g ap
h omo
i endo
k en
m as
n d
n em
n iam
p ibus
p rim
p pi
v erat
± ê²½
Ã ī
Ä į
Ð Ĵ
Ø ¯
å ·
å ¼
è Ģ
é Ģ
ë Ŀ¼
í ĭ
Ġ %
Ġ ãĥ
Ħ ±ê²½
ĸ ´ì
Ġe in
Ġe at
Ġe ici
Ġe ach
er x
er on
er andi
Ġs atur
it ores
it ecto
in isc
in ensis
is um
Ġc uc
Ġc inem
Ġc eper
Ġn up
Ġn Åį
Ġd emus
Ġd atae
Ġd abitur
Ġd ownload
Ġd udum
or b
or ii
Ġin pon
Ġin itia
Ġin pos
Ġv es
Ġv ina
Ġv isc
Ġv entus
Ġt utum
Ġt endit
Ġt ela
ut orum
Ġi a
Ġi ram
Ġf d
Ġf erv
en iae
im orum
Ġh ere
Ġh est
Ġh ast
Ġh isce
od a
id arum
id th
os us
os ae
Ġpr iorum
ol phus
Ġad u
Ġre pon
Ġl ob
Ġl ectum
Ġut ilius
as per
il o
op oli
Ġde in
Ġex al
Ġex sequ
Ġex stant
Ġex act
Ġquam libet
ĠE c
ĠE veniet
ĠA M
ĠA st
ĠA gn
ĠS ul
ĠS ie
ĠS ardin
ĠS allust
Ġdi ur
ĠD on
ĠD ioeces
ĠD uae
Ġqui ete
Ġdic ata
itat ae
Qu int
Qu ando
Ġfac il
Ġfac ient
Ġprae dixit
Ġb ec
rat ionis
ist arum
ra p
atur am
ĠP s
ĠP uto
ĠP asch
Ġsed entem
Ġg raece
ĠQu onam
Ġhab ueris
Ġpos itam
ĠN ot
ĠN eder
eg le
Ġsc ae
Ġsc aen
iv imus
iv itatis
Ġpot iti
Ġcom itetur
Ġse ipso
and orum
Ġvid eres
Ġvid issem
Ġu im
Ġr ix
Ġr ara
Ġsit ae
Ġer um
ĠL y
ĠL it
ĠL ider
ĠL yc
ult i
ĠR i
ĠR o
ĠR us
ĠR ev
ĠF em
ĠF inis
ĠF lam
ĠF uf
Ġpro ximus
Ġat roc
Ġpar at
ĠT ir
ĠT ecum
Ġcons ultus
Ġtam etsi
ĠV et
ari atur
Ġun oqu
Ġun itatem
ing en
ing unt
ing illa
ĠG ie
ub a
ub us
Ġcomm em
Ġmod ica
ov ia
ine a
Ġpat ere
Ġpat iatur
Ġpat ientia
eri ore
Ġreg ulam
Ġst abilem
Ġanim orum
Ġanim alis
Ġcor di
ven iunt
Ġ19 00
Ġ19 13
Ġ19 17
Ġ19 24
Ġ19 05
ĠIn g
ĠIn dign
Ġal lic
Ġal tum
Ġus ur
Ġmult umque
Ġaud is
Ġaud et
Ġaud itus
Ġ3 00
Ġob itum
Ġmagn alia
iat ae
iat ione
Ġdeb uimus
Ġag er
Ġag eret
Ġag eretur
Ġsem inibus
Ġvoc o
Ġvoc ata
Ġput abatur
Ġput eum
ie i
Ġcog itavi
Ġtabul ari
Ġsuper stit
Ġsuper ioris
Ġsan us
Ġexp ress
Ġmal ae
Ġdisc edere
Ġiur avit
Ġnomin um
Ġded erat
Ġcomp lac
Ġdes ol
Ġsent entiarum
Ġconc edit
Ġconc eptum
Ġfort i
Ġfort issimus
Ġrec oncili
Ġocc isi
Ġocc ursum
Ġscrib at
ex tus
Ġact or
rem um
rem ae
ĠÐ ¢
Ġpublic arum
Ġpublic anus
ĠAm et
Ġpraeter iti
Ġmor bum
Ġnov issimis
Ġopt imis
Ġconsequ enter
Ġexc omm
Ġvis io
Ġcirc ulus
Ġcirc ulorum
Ġinven iantur
Ġdomin orum
Ġdomin icae
ĠLat er
ann em
Ġprincip atum
Ġvest em
Ġfr ingilla
Ġquaer eret
Ġeg ero
Ġeg ress
Ġsanct issime
ass o
ass is
Ġing entem
oli d
Ġintelleg endum
Ġsens uum
Ġmut abile
Ġaccip ias
Ġcognosc o
Ġcognosc itis
ĠMar iam
Ġappell as
Ġappell are
Ġpet at
Ġreliqu arum
Ġreliqu erit
Ġsup rema
act ionis
erent ium
In cipit
Ġpropr ias
Ġ15 8
Ġoport ebit
Ġexist ere
Ġfaci ebam
Ġmuli eb
ãģ ¨
ãģ ¯
Ġsignific ari
Ġimm an
ĠX VII
Ġliber alitate
Ġrect or
ĠMa h
ĠMa ias
Ġpon unt
Ġ13 2
ĠUn us
Ġoppid is
ĠPh ry
ĠAp uli
Ġadi ect
Ġquant am
Ġquant itatem
Ġexs ec
Ġquaest ionibus
Ġpor tavit
Ġ10 5
Ġfer endae
Ġadvers arius
Ġantiqu o
Ġtrad iturus
Ġarg ente
Ġmon umentum
Ġgrav issimum
Ġaudi ebam
Ġeadem que
Ġfamili arum
Ġtert iae
red ecim
.... ..
Ġfin itam
ĠNihil ominus
Ġden omin
Ġexistim antur
Ð¾Ð ¶
Ġrecip iens
Ġav um
Ġav erter
Ġpugn ant
ĠSc is
ereb ant
Ġsalut are
ĠCar ne
Ġvelim us
Ġcupid us
ĠCat onis
Ġport abunt
ĠEp irum
Ġinim icis
Ġconv oc
ĠInt ellig
Ġrev erentia
Ġ199 8
Ġhabit antes
ren d
ix i
Ġfem inis
Ex s
Quis que
Ġscrips isset
Ġcast ig
Ġvers atus
Ġass ent
Ġarc ae
Ġarc ana
Ġrel atum
ĠDec emb
Ġcustod iae
Ġconting ere
Ġ196 7
ĠDic unt
Ġscel erisque
Ġplen itudo
Ġaestim atio
Ġvac uum
Ġsalv am
Ġcondic i
Ġcondic ionis
ĠMed io
Ġpraesid is
Ġcrim inis
Ġadv ent
Ġpraem issae
Ġrelinqu et
Ġecclesiast icis
Ġpen et
Ġjust us
201 7
Ġcomed at
Ġcorrupt io
ok ing
Ġ198 1
Ġsingul as
Ġcontem ni
Ġdorm ierunt
Ġalt itudinem
Ġrelic tus
Ġsollic ita
Ġsollic itus
Ġsollic itudine
Ġabsol utum
hi op
Ġparticip at
Ġsuspic ionem
Ġort u
Ġsomn ia
ĠAthen iensium
Ġadiuv are
Ġexter min
Ġloqueb antur
ipp o
Ġillic itum
ĠCons ilii
Ġov ibus
Ġorn ata
ĠHel is
Ġproeli is
Ġoccult e
Ġiuven ibus
Ġline am
Ġperfic itur
Ġconvert itur
Ġartific es
Mar c
Mar k
Ïĥ Î±
Ġpisc ium
Ġdissim ul
Ġfing ere
Ġinfer ioris
Ġsuav ius
Ġdetermin atum
Ġele em
Ġuolunt as
Ġeloqu entia
ĠTro iani
ĠTemp ore
ĠTemp oribus
ĠSol um
Ġâ Ī
Ġconsist at
Ġconfus e
Ġhodiern ae
Ġ190 4
Ġrespic iunt
Ġaer arii
Ġfrig us
Ġvirg inem
Ġsenect utis
Ġtransl atum
burg i
Ġinh um
Ġclaus um
Ġspon si
Ġreman ere
ĠTurc ia
Ġadmirat i
Ġadmirat io
ĠAene as
Ġgrammat ica
Ġpaupert atis
ĠSac erd
Ġamitt i
Ġamitt itur
Ġmaled ic
Ġmaled ict
Ġso lius
Ġinsid iis
Ġinsid ias
ä» ĸ
Ġaudac iae
Ġnoct ur
Ġé Ŀ
Ġadulter ium
Ġpiet as
Ġinimic itias
Ġadmir abilia
Ġru inam
Ġrid et
Ġindivid u
Ġperse ver
Ġcorrum p
Ġcorrum pi
Dol orem
Ġirac undia
Ġrepugn at
Ġornam enta
Ġdiab oli
ĠHom erum
Ġmart yr
Ġcurr unt
Ġcurr ere
Ġcaeter is
Ġcalc iam
Ġadim pl
Ġcoel o
Ġridic ulum
ĠExerc itationem
Ġexsp ecta
Ġbenedict ionem
Ġdisi uncta
ĠPhilosoph i
ĠInterrog ato
Ġfunct us
ĠBa al
Ġantec ed
ĠSuec iae
ĠTim ot
Ġterritor io
ĠMD CC
Ġveris imile
Ġtheolog us
Ġiug um
Ġsyn agog
== ==
Ġtor rent
Ġaduers us
Ġignomin iam
public a
´ì ĸ´ì
Ġsubic ias
ĠHierem ias
Ġtutel am
ĠOl den
Ġspelunc am
pend isse
ĠCro atiae
ĠDam asc
Ġfluct ibus
Ġtyrann orum
Ġincircum cis
ĠUx or
Ġinlum in
ĠAper iam
Ġtar de
Ġhel p
ĠCen om
Ġinscrib itur
Ġdescisc endi
quant ity
Ġtir ocinium
ĠWestph aliae
Ġcaerule um
ĠMesop otam
ĠOrth odox
:\/ \/
ëĿ¼ íĭ
Ġlob ortis
ĠLider ici
ĠGie zi
Ġexcomm unic
´ìĸ´ì Ħ±ê²½
ëĿ¼íĭ ´ìĸ´ìĦ±ê²½
, ...
0 7
7 86
9 4
: {
C red
C AP
D el
D uc
E M
E ph
H eb
H uius
H ighly
I P
I gitur
I ach
N ot
N oli
P rod
S int
S equ
S erv
S aepe
U R
X C
b ant
d et
d ated
f i
g um
g one
h u
i unc
k o
k s
m ur
o am
p ret
r c
r Ã©
r onem
u es
y g
{ {
} ,
Â ½
Ä ħ
Å Ł
Ð Ĳ
à ¦
â ľ
å º
æ Ķ
Ġ 00
Ġ Î¿
Ġ Ùħ
Ĭ ãĤ
qu ando
qu iren
er avit
Ġs k
Ġs Ã¦c
Ġs eries
in quam
in di
Ġqu eri
Ġqu anquam
Ġqu Ãłm
Ġp il
on nes
Ġc e
Ġc ell
Ġn oris
Ġn ationis
Ġn urus
Ġm orum
or ius
Ġin per
Ġin aud
Ġin posuit
Ġv on
Ġv inct
Ġt alium
Ġet hn
ut atio
Ġi an
re vi
Ġf ar
Ġf ero
Ġf isco
Ġf olium
Ġf irst
li quit
Ġh erc
ar gu
an ice
ec imus
ul ce
Ġpr i
Ġpr iores
ib o
ib ilium
ol arum
ol aus
un o
Ġad itum
Ġad quis
Ġad iac
oc c
Ġre aliter
Ġl Ã¦
ab il
ab uli
Ġut ilem
Ġes cis
il les
Ġquam dam
ĠE ae
ĠA N
ĠA e
ĠA h
ĠA z
ĠI de
ĠI ug
ĠS up
ĠC ab
Ġme Ã¦
ĠD et
ĠD ia
ĠD ies
ĠD onec
Ġqui que
Ġqui etem
Ġdic erentur
Qu os
ip sa
ip pi
Ġper inde
Ġper rexit
Ġaut onom
Ġb a
ra li
ra xit
ili que
ĠP ut
ĠP elop
Ġsed itione
Ġg ig
ĠQu anquam
ens u
Ġhab eremus
ĠN ept
ĠN empe
Ġsc iatis
Ġeius et
uc undum
Ġpot uisti
ĠM em
ĠM ir
ĠM ens
ĠM ort
ĠM odi
ĠM ortuus
ĠM umm
Ġcom e
Ġcom itiis
Ġver umque
Ġver sa
Ġposs ide
Ġr ab
Ġr itus
ĠL X
ĠL oqu
ĠH es
ĠH ib
ĠH as
Ġam ans
Ġam averunt
ĠR h
ĠR og
ĠF lav
Ġpar it
Ġpar vi
Ġpar och
Ġte que
Ġinc erta
ĠT a
ĠT op
ĠT ry
Ġcons uet
Ġim itatur
Ġnec em
ĠV im
ĠV ere
ĠV ix
ĠV arro
Ġpotest ates
Ġma d
Ġun ionem
Ġun ica
Ġprop em
Ġprop eramus
ĠB arb
Ġcont ine
Ġcomm iss
Ġinter esset
Ġor natus
ep imus
Ġdix erat
Ġpat efac
Ġbon itate
lig endi
oqu idem
Ġreg inae
Ġst abili
Ġcre dam
Ġmin imus
Ġar rog
Ġleg entis
Ġleg averit
Ġven ena
issim arum
ap p
ap sa
Ġloqu endum
Ġloqu entium
Ġ19 11
Ġ19 16
Ġ19 50
Ġ19 27
Ġ19 36
Ġ19 39
Ġ19 37
ĠO rat
ĠO bi
ĠO cta
Ġsp ecta
Ġsp ei
Ġus uras
Ġincol a
Ġser ius
Ġsub sequ
Ġsub iac
Ġaud iet
Ġaud iens
Ġ3 12
Ġob str
Ġman eant
le o
esc rip
Ġimp ell
Ġimp rud
Ġimp une
Ġvolupt ati
ĠU cra
Ġgen itus
ĠAn imi
Ġsem ina
ati que
Ġpraes unt
Ġvoc atus
ch o
ch er
Ġput aret
Ġsuper iorum
Ġsuper sunt
Ġrem inisc
Ġiudic ant
Ġiudic ari
Ġdisc endum
Ġdisc ret
Ġdec imum
Ġdec essit
Ġded ec
Ġded imus
Ġded iti
Ġas sequi
Ġcomp rom
Ġdes pex
Ġcogn omin
Ġcogn itionis
Ġserv iunt
Ġrec ol
Ġrec eptus
Ġrec edere
Ġscrib eret
II II
ĠCh at
ios ius
Ġviv as
Ġinf erius
Ġcl are
Ġsequ eretur
Ġsequ entibus
Ġsequ imur
Ġlingu as
Ġcar a
ĠAm ph
Ġins ulas
Ġins ularum
Ġten ebat
Ġpers ua
Ġpers pex
Ġmis eris
Ġmat eries
Ġcred atur
Ġcred itum
Ġpraeter vol
Ġdef ecerunt
Ġnov imus
Ġopt atius
Ġdoc ent
Ġdoc eat
Ġbene fac
Ġpraefect um
Ġexc ess
anc ta
Ġval eret
Ġprob avit
Ð° ÐµÑĤ
ann icae
Ġprincip aliter
Ġform is
Ġform atum
Ġsal e
ĠAr m
10 4
Ġquaer amus
Ġaet ati
Ġtum ult
ill os
Ġimper at
Ġimper atores
Ġimper atorem
Ġius sus
Ġdilig is
Ġdilig atur
Ġdilig ens
ĠQuae st
Ġing enti
Ġoffic i
equ is
Ġintelleg as
Ġintelleg entia
ĠPr od
Ġvic e
Ġvic inum
Ġsens isse
Ġmut atio
Ġmut abilis
Ġcogit ant
Ġaccip imus
Ġign ibus
Ġind ag
Ġreliqu as
Ġreliqu isse
Ġstud uit
Ð¸ Ñĩ
Ġw o
Ġw ho
Ġlaud are
Ġlaud abile
act am
rehend erit
Ġhabent ibus
Ġph otograph
Ġlong i
Ġ12 3
ĠAd ipisci
Ġstat ui
Ġconstit utus
In v
Ġem isse
Ġexist unt
ĠCon feram
Ġpraedic are
oll itia
ĠBr uti
Ġaper to
Ġaccus ationem
Ġcontr ariis
Ġsubi re
Ġfal li
Ġimm un
Ġimm ob
Ġliber avit
Ġsoc rus
urg i
ĠMa iores
ĠMa uris
Ġbe en
ĠAl c
Ġ13 7
ĠPat ri
ĠPh ys
ĠPh ase
Ġ14 6
Ġmet uo
Ġmet aphys
ua libus
ang e
Ġnoc tis
Ġcontin ent
Ġfl ect
." [
Ġpraecip uae
Ġquaest ionum
ĠIuli ae
Ġmir abilis
Ġev ad
Ġev angel
ĠReg ulum
Ġlic ebat
Ġmiser ius
Ġamp lex
Ġinstit isset
Ġref erat
Ġprof lig
ĠChrist oph
ĠNihil ne
Ġdiss olv
Ġcal ore
Ġcal ce
Ġlect o
ulg ata
Ġprom ot
Ġden eg
Ġden untia
Ġcust os
ãĥ Ĳ
Ġexistim at
Ġexistim em
Ġexistim as
Ð¾Ð ±
ĠChristi anus
Ġpugn atum
ĠSc ot
Ġreper ta
Ġreper tum
anu el
Ġaccid entibus
Ġlibert um
Ġpae d
Ġquot annis
ĠCat egoria
ĠIudae am
Ġport ionem
Ġk e
Ġequ es
Ġinim icos
Ġpraed itum
Ġpraed iis
Ġperic ulis
ĠMag ist
Ġaur em
Ġterr ibilis
Ġ199 5
Ġaff erunt
Ġlud i
ifest um
Ġiac ent
Ġfem ore
Ġtestim onii
Ġmiss is
Ġconiunct ione
Ġinterrog et
Ġmerc enn
ĠPa uc
Ġass entior
Ġullam cor
Ġadf erunt
Ġadf lig
Ġvideb o
Ġfig ur
Ġquar tam
Ġrefer enda
ĠÂ§ .
Ġrel atio
Ġcircum d
Ġpass ionem
Ġcunct i
ĠVid ete
Ġcustod ire
Î± Î¹
Ġ197 1
Ġconting ens
ĠNull um
Ġgener aliter
Ġcapt um
Ġcapt ivi
ĠVen it
ĠMed us
Ġconced ere
Ġconced itur
ĠÎ µ
ĠQua erat
Ġha uri
Ġpraem io
Ġdistinct ionem
Ġrelinqu unt
ĠCor rupti
Ġpostul are
Ġecclesiast icam
Ġjust itiae
Ġtac ita
Ġangel is
201 0
201 3
à´ ¤
ĠAg amem
Ġfest a
Ġdubit et
ok ies
Ġconsol etur
Ġflum ina
Ġcredit e
Ġspect ant
Ġoperat iones
Ġ185 2
Ġconvers a
Ġ195 4
Ġrelic to
Ġtabern am
Ġsollic it
Ġori go
ĠSto icis
Ġbrev es
Ġdefend ebant
ĠSim ul
Ġcommend atione
Ġinterfic i
Ġrecord or
Ġrecord atione
ĠCons erv
ĠPis onem
Ð¸Ð ²
Ġov ium
Ġconp ut
Ġsacerdot ibus
ĠCol umb
Ġconfic itur
Ġconfic iunt
Ġsepar atim
Ġnub e
Ã¨ re
Ã¨ res
Ġvictor iae
Ġexig it
Ġdur ationem
Ġaliquot iens
ĠRuss icae
Ġartific em
ĠVolupt ate
ĠVolupt ates
Ġcoep isset
Ġinterpret ationem
ĠMet aphys
Ġ187 1
Ġadulesc entem
Ġabi ectum
Ġinfer iori
Ġitin eris
Ġuer bi
Ġuer itatis
Ġpropriet atem
ĠProp terea
rot und
Ã® c
Ġfe fell
ĠSu cc
Ġprot est
ĠEb urae
Ġ180 7
Ġador are
Ġperc ut
ĠMarc o
ĠMarc ello
Ġsat ius
Ġdii udic
ĠSem alt
ĠOm egle
Ð¾Ð» ÑĮ
Ġsort is
Ġpess imum
Ġec iam
Ġpap ae
Ġingredi untur
ĠSum mum
ĠDuc atum
Ġcontempl atione
Ġnupt ias
Ġexpugn avit
Ġconsent it
Ġcler ici
Ġinh ab
ĠVer itatis
Ġmatrim onio
man agement
Ġreduc untur
Ġmagistrat uum
Ġpronunt iatum
Ġintro ierunt
Ġfelic iter
ĠTusc iae
ĠVide amus
Ġadministrat ionem
ĠSent encia
Ġ188 5
ĠAbrah ae
ĠPraes entium
Ġpaupert ate
Ġsacram enta
Ġdescrip tum
ĠAnd re
Ġvetust ate
ĠCae lio
Ġimmort alis
Ä« s
Ġumb ra
ĠPhara onem
ĠBen ed
Ġfamiliar iter
ĠPraec ip
Ġcam era
Ġinop iam
Ġantepon ere
Ġconson ant
Ġconson antiae
ĠEbor acum
Lat in
Ġbl og
ĠBeat ae
Ġsurg e
ĠFal li
ET H
Ġinterc ess
Ġdedic atione
Ġcamp o
Ġintern ation
Ġvenerat ione
Ġdiab olus
ĠNaz are
Ġprem unt
ĠElis ab
Ġperv entum
ĠTub ero
Ġher edit
Ġcredid imus
Ġderel inqu
Ġris ibile
Ġnepot ibus
Ġextran eo
Ġspecia li
ĠClaud ius
ĠAntioch um
ĠFinn iae
ĠSat ana
EN T
Ġpond eris
Ġdisi unct
ĠAur ei
Ġsatiet ate
Ġpaulum que
ĀĀĀĀ ĀĀĀĀ
aev ola
ĠHannover anum
æĪ ĳ
Ġexpul sus
Ġplag a
ÐµÐº Ñģ
Ġdup lum
Mat t
ĠScript ura
ĠExc ept
ĠCorp oris
Ġfate or
ĠHistor ia
Ġdecret is
Ġmasc ul
ĠPtol om
ĠDolab ella
Om ne
Es se
ĠIb idem
ĠPag is
Ġsever itatem
Ġsacr ileg
Comp ressed
Plac uit
Vest ibulum
Ġrequi em
ĠArchid ioecesis
Ġcathedr alis
Ġsepult urae
Ġmetropolit ana
à«§ à«
ĠDemet rius
Ġdereliqu erunt
lov ac
ĠLang ob
Ġdeprav atae
ĠFat ebuntur
ĠMarit imae
Ġulc isc
ĠCli vi
Ġfutur orum
Ġcopios iorem
ĠReb ecc
ĠVicip aed
diffic ilis
ĠHierosoly mis
Ġses eque
Ġsuperv ac
ĠThem ist
pol icy
Ġchili omet
ĠSardin iae
Ġfacil isi
ĠHelis eus
Ġpraetervol avit
Ġullamcor per
! âĢĿ
( )
. ).
A D
A liqu
B onum
C ui
C uius
C umque
D uo
E os
F ili
F ort
G al
G eorg
M e
M on
M ovie
O per
P a
P ropter
R erum
S E
S in
S el
V oc
V al
a it
b ach
b arc
f ul
f ruc
i ana
i ebatur
k i
l s
n oc
o o
q ve
r h
r act
r inus
r usc
s q
s w
s is
s rc
t al
u unt
v ul
v ere
v entus
w are
w ay
w ork
w idth
z ab
Ä Ń
Å Ľ
Ø ´
å ¾
æ Ĭ
æ ł
Ġ ÑĦ
Ġ Ø§ÙĦ
Ļ ½
Ġe f
Ġe qui
er ic
er itur
er atur
Ġa usc
Ġs ar
Ġs ib
Ġs oni
it arum
it issimus
is on
Ġp av
Ġp ene
Ġp ares
Ġp icta
Ġp anes
am ili
am enti
on ici
on ensis
Ġc os
Ġc ibus
Ġn und
Ġm ih
Ġm urum
Ġm entibus
or f
Ġin fic
Ġin eunte
ic ti
ur op
Ġv o
Ġv ota
Ġt ign
Ġt redecim
ut or
ut ia
Ġi bit
Ġi umentum
re am
Ġf lex
li k
im entis
Ġh ec
Ġh yd
id iam
id isti
id uum
ec ed
ec isset
Ġpr ioribus
ib le
ol as
Ġad am
Ġad not
ed um
Ġre que
Ġl et
Ġl ata
Ġl aes
Ġl unam
ac to
ab um
el ae
ion al
Ġes c
ant ulum
al am
al ae
Ġcon se
Ġcon ex
Ġcon leg
Ġex tin
Ġex eunt
ĠA ve
Ġan ath
ĠS od
ĠS erb
ĠS olus
ĠS anta
ĠS AL
ĠC os
ĠC il
ĠC yr
ĠC ertum
Ġdi re
Ġdi pl
ĠD uis
ĠD ioc
Qu ot
Ġper ter
Ġper iit
Ġb all
rat o
ist ere
ist inct
ra ret
ĠP in
ĠP ere
ĠP oen
ĠP ecc
Ġg o
Ġg erunt
Ġen unt
Ġco epta
Ġco egit
Ġco emet
ir on
Ġhab endum
ĠN ab
ĠN atur
uit er
iv al
Ġquid nam
Ġpot erimus
eb ris
ĠM y
ĠM ore
ĠM ense
ĠM CC
iss ionem
Ġetiam nunc
Ġposs ederunt
Ġvid uam
Ġu ell
Ġsit i
Ġid os
Ġid eas
Ġer amus
av erant
ĠL et
ĠL ent
ĠL una
ĠL ips
ĠH ol
ĠR ud
ĠF a
ĠF ran
ĠF lac
ĠF elix
Ġat ram
Ġpar ant
Ġinc ur
Ġinc idit
Ġaliqu orum
Ġcu perem
erit i
ĠT res
ĠT abula
Ġcons ulum
Ġcons pectum
Ġpl u
Ġqua li
Ġqua eret
ĠV and
ĠV erb
ĠV idi
ĠV atic
ari es
ess ent
Ġpotest atibus
Ġma jus
Ġsol os
Ġsol itudinem
ing itur
ĠG ran
ĠG rammat
ĠG org
ĠB ac
ub uit
Ġcomm on
Ġcomm otus
âĢ ĺ
ig es
Ġfu issem
Ġor ac
Ġor atoribus
Ġlib r
inc oln
Ġpat eat
eri orum
Ġst ant
Ġanim ali
Ġcre atae
Ġar rip
Ġnost rane
Ġfec und
Ġven irem
ap e
ator ia
Ġloqu are
Ġ19 01
Ġ19 26
Ġ19 35
ĠO t
ĠO econom
ĠO vid
Ġal so
Ġser uum
Ġaud iant
Ġaud iri
Ġ3 16
Ġpost lim
Ġ- --
Ġob stant
Ġman eret
ffic it
Ġimp iet
entia nt
Ġcommun ium
Ġquem libet
Ġgen uerunt
Ġag ebat
Ġrat a
Ġvit is
Ġvit anda
Ġvoc aretur
Ġvoc abatur
Ġtr icesimo
Ġcur as
Ġcur iae
Ġsan abat
Ġcap itur
Ġcap illi
Ġmal itias
Ġiudic i
Ġiudic at
ĠNon dum
Ġdisc it
Ġnomin atim
og al
Ġ18 05
Ġas pectus
Ġmortu am
Ġcomp rehens
Ġdes pic
Ġdes iit
Ġsent is
Ġserv anda
Ġserv ivi
Ġserv iamus
Ġrec og
Ġocc idere
Ġocc iderunt
Ġscrib untur
Ġscrib entur
Ġdel ere
ĠÐ Ĳ
ĠÐ Ĵ
ĠÐ ŀ
Ġnot issima
Ġcar d
Ġsign orum
Ġins idi
Ġten eros
Ġcol oniae
Ġplac ita
Ġpers pici
Ġmat eriis
Ġlab efac
Ġcred atis
Ġpraeter itorum
Ġsolum modo
Ġsae v
Ġmor am
Ġmor bus
Ġnov arum
Ġopp ressit
Ġpraefect i
up dated
Ġval uit
Ġred argu
Ġvest ibus
Ġvest imentum
Ġform arum
Ġform avit
Ġform aliter
Ġquaer erem
Ġduc at
Ġduc unt
Ġmaxime que
Ġimper itos
Ġgra di
Ġintelleg ant
Ġintelleg ebat
Ġfam is
Ġmut uum
ĠJ ackson
Ġcognosc enda
Ġign oto
Ġtra dam
ĠMar cum
Ġappell atione
Ġpet ul
Ġpatr oc
Ġconi ect
Ġpertin ens
Ġlong ae
Ġ12 5
Ġ12 8
Ġstat uae
Ġconstit uto
Ġconstit utio
ÑĤ Ð¾
Ġtant is
Ġ15 5
Ġ15 7
Ġsubstant iarum
Ġem it
Ġfact ione
Ġsac ro
": {"
ath am
Ġpecc avit
Ġpecc atores
Ġlat itudo
Ġimm erito
Ġsoc ii
Ġdub itat
Ġdub itationem
urg ensis
Ġrect ae
ĠCiv itatis
Ġthe ologiae
ĠAb el
ĠPh oen
Ġtim et
Ġ14 2
Ġ14 5
Ġquant itas
ĠCo gn
ebam ur
Ġexs ilium
ider im
th a
Ġluc tum
Ġluc rum
Ġconven ienter
Ġperfect ione
Ġquaest um
Ġ10 8
Ġscient es
ĠIuli um
Ġfer am
Ġadvers a
Ġadvers arios
andi u
Ġmir andum
Ġvet er
Ġvet ulis
ĠTh erm
ĠTh essal
Ġgrav itatem
Ġauctor itatis
Ġmiser ia
Ġcel erius
Ġinstit utio
Ġinstit utione
Ġinstit utionis
Ġnol ebam
Ġeas dem
Ġprof ertur
Ġbib at
Ġparv us
Ġgaud ent
Ġpraest andum
Ġlae tare
Ġcal lid
Ġepist ulis
Ġlect or
ma ius
Ġejus dem
Ġessentia liter
Ġdict ata
Ġsex tum
ãĥ ĬãĤ
Ġdiffic ilis
ĠChristi ani
Ġrecip iet
ĠIll yr
Ġpugn ae
Ġincip iam
Ġeff und
Ġreper iatur
ĠCar ant
Ġpropri i
Ġhonest o
Ġcong r
Ġuid ere
Ġuid eo
ĠNov ae
Ġpae n
Ġfur ore
Ġport am
Ġben iv
Ġnunt io
Ġnunt iis
ĠSt atim
Ġscript urarum
Ġpriv atum
Ġsuos que
Ġdefin itiones
ãĤ ¦
Ġperic ula
ĠMag nam
Ġeffect rix
ĠPer ferendis
Ġq v
Ġaff er
abis que
Ġfem inam
Ġfoed erat
Ġambul amus
Ġambul avit
Ġambul averunt
Ġdim idium
olog us
Ġeven iunt
Ġcompos itio
Ġass id
Ġadf ert
Ġfide iuss
Ġadhib ere
Ġperven erit
Ġrefer am
Ġrefer as
Ġmanum ittere
Ġarc ess
Ġcompar atione
Ġpal atium
Ġuol uit
Ġuol uerit
ĠVid emus
Ġment imur
Ġlaet ari
Ġsalv ificem
Ġexper iri
Ġpraesid iis
ĠEpic urum
Ġalb is
Ġostend at
Ġostend unt
Ġpraem ia
Ġbest ias
Ġfrequ ens
Ġmus icam
Ġstult orum
ver ter
Ġsempiter ne
Ġsempiter na
Ġeleg isti
Ġdesider abis
ĠEpiscop um
":" ","
Ġtoll it
Ġtoll ere
Ġindig ens
Ġprud ens
ĠLut etiam
Ġcant u
Ġinterp ell
ĠCal end
Ġoccup at
Ġsolv endo
Ġpossib ilitatem
Ġ195 2
Ġfirm um
udi andae
Ġcael os
Ġrepet i
ĠSam uel
Ġrevert etur
Ġsuspic ari
Ġsil vae
ĠAthen ienses
Ġdemonst raverunt
ĠRe f
ĠRe lig
Ġexter nis
Ġloqueb ar
ipp ing
Ġpraetor is
Ġpraetor es
Ġrecord ati
Ġcess are
Ġconp lac
Ġsumpt o
Ġhabeb unt
Ġsepar antur
Ar t
Ġadminist r
ĠAlp ium
Ġproeli a
Ġexig uum
Ġpercip ere
Ġiuven em
Ġpaenit entiae
Ġconvert i
Ġcoep isse
Ġtempor alia
Ġsustin et
Ġcern ere
Ġhae sit
Ġadeo que
Ïĥ ÏĦ
Ġquaereb atur
Ġinterpret atio
ĠMet ello
ain er
Ġoblig atio
Ġabi ec
Ġaccess erunt
Ġhodi erno
Ġfaciet is
Ġder iv
Ġconsili orum
Ġeduc atus
Ġpraeb uit
Ġpleb isc
Ġconstant iam
Ġvex illum
Ġedic ti
Ġpropon ere
Ã¶ n
Ã¶ r
Ġaddit ionem
Ġamant issimus
Ġadmitt itur
Ġinius tum
Ġdidic imus
Ġinn ot
Ġpraepar ata
Ġdifficult ates
Ġpess ima
Ġinm ort
estig ationes
Ġioc ans
ĠMaxim o
ÉĻ n
ĠApostol icae
á½ ¸
Ġtene antur
Ġincid idunt
Ġcresc unt
Ġmancip io
Ġcruc if
Ġsuffrag ium
Iacob us
Ġproced itur
ĠIdem ne
Ġgign it
Ġpun iri
Ġpaupert as
Ġcondemn ata
Ġscand ala
Ġcontend unt
Ġinsid iae
pa Ã±
ĠNesc iunt
Ġattrib uitur
Ġdisplic et
Ġdisplic ere
Ġavar itiae
Ġascend erunt
ĠEnn ium
ĠÄ ĳ
Ġclass is
den y
tax able
Ġperman ere
Ġcalam itatem
Ġrevel abitur
Ġiunct i
ĠLae li
Ġinimic itiarum
Ġnarr ant
Ġrede at
ĠAfric anus
ĠServ ius
Ġfung i
Ġexaud ivit
Ġdecern ere
Ġcorrig iam
Ġcoh ered
ĠTorqu atus
ĠTorqu atum
Ġresid amus
Ġrescrip sit
Ġol eo
Ġerip uit
Null am
Ġheb dom
Ġantepos uit
sk u
Ġirac undiae
Ġidone us
Ġdecess erit
ĠHelvet icus
ĠSus pendisse
Ġstup rum
Ġvestig ium
Ġmonast erio
queb antur
ĠIup iter
Ġwe ek
ĠEvangeli o
Ġvesc endum
Ġconl oc
Ġornam entis
Ð°ÑĤ ÑĮ
Il lum
Ġinan itas
Ġtempest iva
Ġfix a
Ġdimis erit
Ġabomin abiles
Ġceter orum
Ġconiun gitur
Ġrett ulit
ĠAdm inist
ĠDionys ius
Ġconturb ati
Ġamis erunt
Im per
we ight
Ġimple atur
Ġtrin itatem
ĠGallic a
Ġpoenit entiam
ĠBabyl onis
fl uere
åľ °
ĠHannover ae
ĠPeripatet icis
çĶ ¨
ĠCy re
Ġdebit orem
Ġiurisdict ionem
Sim iliter
Ġren asc
ĠCred o
sh ipping
Ġinsequ enti
ĠPoss imus
Ġelabor andum
Ġiri ure
Ġexclud untur
Ġparlam entum
Ġpersuad ere
Ġfoll ando
Ġfen est
Ġrip am
Ġsepulc rum
ĠCle opat
Ġproverb ia
Ġexclam avit
Ġbac ulus
ĠNas ica
Ġvolat ile
Ġstr uct
Ġelegant ius
ĠRepell at
Ġclarific a
ĠBoh emiae
Ġpaul ulum
ĠPecun ia
ĠPolit ic
Ġdog mata
ĠBarc in
Ġcarc erem
]} ,"
ĠBrund isi
ĠVindob onae
Interrog atus
Grat ias
ĠOrient alis
åĩ º
Ġcorn ua
requ ires
Ġeclips is
Ġaen ig
ĠAnato liae
Ġcinem at
Ġunoqu oque
Ġeleem osy
786 23
Ġpropem odum
ĠOcta vi
Ġpersua de
Ġwo uld
Ġpaed agog
barc ode
) ]
. -
. \
/ \/
9 1
C am
E ius
G a
H i
I os
I sa
I mp
L ev
N omen
O S
S en
T e
T o
T UM
U l
V os
b on
b or
c isc
d er
d el
e e
f e
f o
f um
f unction
h s
i endi
i ebus
k y
l ÉĻ
l Ã¨s
m y
m ar
m ine
m ovie
r ub
r ov
s im
s io
t y
t ag
v entum
y le
« ĺ
Å ¿
Ï İ
à ¥
ä ¾
ç ī
è ½
Ġ ï
Ġ oss
Ġe ic
um a
um entorum
Ġa erem
Ġa vert
Ġa iebat
Ġs alis
Ġs inum
Ġs ome
Ġp y
Ġp ius
Ġp ull
Ġp ep
Ġp ie
Ġp ectus
Ġp ure
at ing
at tuor
am es
Ġn eb
Ġn ow
Ġd ulce
Ġm entes
Ġm andi
Ġin ire
Ġin nit
Ġin nov
ic ing
Ġv isi
Ġv icum
Ġt ulerunt
Ġt Ã©n
Ġi ii
Ġf aen
en u
om as
im p
Ġh ib
od is
et arum
ec eris
ul ata
ul isset
Ġnon a
ia cum
ib iliter
Ġad sit
Ġad epta
ed ia
Ġre pt
Ġl in
Ġl as
Ġl anc
Ġl asc
Ġut amur
el em
el mus
as iae
ere at
op olis
Ġde am
Ġde vers
al b
Ġcon are
Ġcon quiesc
Ġex isti
Ġex itu
ĠE G
ĠE nt
ĠA ra
ĠA var
ĠI ord
io us
io que
ĠS ae
ĠS emp
ĠS urg
ĠC SU
Ġdi uit
Ġdic ente
Ġdic entibus
end arum
Qu apropter
Ġper isse
Ġper iti
Ġper aeque
Ġfac er
Ġprae gn
Ġprae esse
rat u
rat ion
ĠP el
ĠP aria
ĠP aris
ĠP ast
Ġsed it
Ġsed et
per ant
Ġg u
Ġg re
Ġg ust
Ġg eri
Ġg erman
no vit
ĠQu oc
ĠQu anto
Ġtu eretur
ĠN icae
uit um
Ġsc ab
Ġsc isc
Ġsc ies
iv er
eb ra
ĠM c
ĠM i
ĠM od
ĠM and
ĠM ale
ĠM ulier
Ġcom ponitur
Ġap te
ort abis
Ġver itus
pt io
and iae
Ġab eunt
Ġvid istis
Ġu ix
Ġr o
Ġr upt
Ġop ific
Ġsit ienti
Ġid ent
Ġer raverunt
ĠL im
ĠL atio
ĠH il
ĠH ow
ĠH aed
Ġca u
ult o
ĠDe fin
ĠR am
ĠR ut
ĠR ab
Ġpag is
lic h
lic k
ĠF ugiat
ĠF ieri
Ġat h
Ġpar ab
Ġpar tum
Ġinc it
Ġvol v
Ġvol ens
Ġvol uc
ĠT ria
ĠT aur
ĠT rist
Ġpl ate
Ġpl ay
Ġnec dum
Ġtam diu
ĠV it
ĠV ita
ĠV ade
ĠV iction
ĠEa que
ari arum
Ġma lim
Ġsol eat
Ġsol itus
Ġun e
Ġun g
ing ui
Ġacc ers
ĠG us
ĠG ede
ĠB ith
Ġcomm issum
ine am
Ġinter m
Ġinter ius
Ġor is
Ġlib ellum
Ġpat ior
Ġreg ere
Ġst ren
Ġst antem
Ġcre di
Ġcre atorem
Ġmin oribus
Ġomnia que
Ġnost rarum
Ġven ia
Ġven istis
Ġloc utio
Ġloqu erer
Ġ19 28
ĠO z
ĠIn ventore
Ġser en
Ġsub lev
Ġaud ias
Ġaud ies
Ġ3 25
Ġcaus atur
ific atio
le ase
esc eret
eo graph
ad ab
ĠU l
ĠU lt
Ġcuius vis
Ġnatur alia
Ġcommun io
Ġdeb ito
Ġdeb uerunt
Ġdeb eas
Ġdeb eamus
Ġag ant
ĠAn ima
Ġvit andum
Ġvoc are
rae s
Ġpec ud
Ġtr ic
Ġcur rens
Ġrem un
Ġsan c
Ġsan um
ux isset
ern us
"\ /\/
Ġmal ane
Ġiudic abo
Ġiudic iorum
Ġdiv i
Ġdiv idere
Ġdiv ites
Ġdisc erem
Ġnomin are
ali i
ali quid
Ġ18 25
Ġ18 39
Ġdec ept
Ġdec imam
itt e
Ġeorum que
Ġcogn atus
Ġsent imus
Ġserv ant
Ġeos dem
Ġfort ius
Ġfort iores
Ġrec ep
Ġocc urre
Ġact urus
Ġconf idere
ĠÐ Ł
Ġpublic as
Ġviv a
Ġviv um
Ġcl adem
Ġcar ius
Ġins u
Ġins ulis
Ġplac ebat
Ġmis ertus
Ġmis eriis
Ġpraeter iit
Ġdef endit
Ġprinc ÃŃ
Ġmor abatur
Ġnov issimus
Ġep h
Ġep ul
Ġsap is
Ġsap iunt
Ġopp ressum
Ġexc idit
Ġvis e
Ġneg lex
Ġinven isse
Ġvest e
Ġvest iti
Ġform ulam
Ġsal uti
ĠAr s
Ġj ub
Ġj ung
Ġquaer enti
ĠIs ai
ĠIs arae
Ġeg erint
Ġimper t
Ġsanct issima
Ġund ecimo
ass ent
Ġdilig itur
Ġdilig endum
Ġext endit
Ġnecess itates
Ġabs entem
Ġabs orb
Ġplur imos
Ġintelleg at
erb ium
ĠPr ius
Ġmut ant
ord ecim
Ðµ Ð¾
Ġmed ici
Ġord inum
Ġpet itur
Ġind ivis
Ġreliqu ias
Ġstud ere
ĠĠĠĠĠĠĠĠ ĠĠĠĠĠ
Ġsup ell
Ġw hen
Ġull ae
Ġlaud o
Ġlaud ant
Ġsen ior
Ġsen atores
pect oque
Ġlong ior
Ġlong issime
Ġlong itudine
Ġ12 4
Ġconstit uti
ÑĤ ÑĢ
Ġod erunt
Ġprovinc ias
Ġproc essit
Ġintellig unt
Ġ15 4
Ġmil itia
Ġexist at
Ġexist entia
ĠCon stat
ath an
Ġpraedic ata
Ġpraedic atione
Ġpecc ati
Ġpo ur
Ġcontr acta
ãģ ķ
Ġspec ulis
if erum
Ġsignific andum
Ġdub itas
Ġcup idi
ĠAl g
Ġ13 6
ĠUn ionem
ĠPat et
ĠK g
Ġtim entibus
Ġtim eas
Ġ14 3
Ġaedific at
Ġaedific averunt
ĠAp ostoli
Ġmet ior
Ġmet iri
Ġmov ere
Ġmov erunt
Ġmov eor
Ġexs ul
th is
Ġnoc eat
Ġcontin ens
Ġfl et
Ġth eat
Ġdolor i
Ġperfect i
Ġ10 6
ĠIuli ani
Ġfer ae
Ġfor amen
Ð» Ñĥ
Ġtrad unt
Ġbeat os
Ġbeat itudo
Ġvet ere
Ġvet erem
ĠquÃ¦ r
Ġmon umentis
ard o
Ġed uxit
Ġed uxi
Ġmiser iae
Ġmot ibus
Ġmot abilem
Ġinstit uto
Ġinstit utionem
Ġrespond endum
Ġrespond ente
Ġprof it
Ġgaud ebit
ĠGal lus
Ġang ulo
Ġhuman arum
Ġconsuetud inis
Ġconsuetud ines
Ġcan os
ãĥ ł
Ġdil ecto
Ġdiu ina
Ġdiffic ili
Ġrecip iuntur
ĠPost remo
Ġhost iam
Ġhost ias
Ġmagist ra
Ġdelect atio
ĠSc imus
Ġincip iat
Ġeff l
Ġeff ecta
Ġeff emin
Ġreper iri
Ġalien am
Ġcupid o
Ġquot quot
Ġfur t
ĠIudae ae
Ġmitt it
Ġmitt as
Ġmitt etur
ĠEp iro
ĠAli oquin
Ġingen uas
Ġnunt iata
Ð°Ð ³
Ġscript orem
Ġscript uris
Ġdisput atio
ãĤ ¤ãĥ
Ġteneb rÃ¦
Ġculp ae
ĠPer ic
Ġperd idic
ĠNec esse
Ġhabit andum
Ġhabit abit
ren dum
ix us
Ex c
Ġped e
Ġped ilud
Ġinterrog atione
Ġads entior
Ġscrips erat
Ġdam no
Ġignor antiam
Ġnasc atur
Ġdux erunt
Ġhered ibus
Ġadf uit
Ġvideb itis
Ġfabul is
Ġfig uris
ĠIl lic
Ġadhib uit
Ġli ke
Ñĥ Ð´
Ġtut orem
Ġ24 6
Ġrefer atur
Ġrefer antur
lac e
Ġcens um
Î¿ Î¹
Ġhort or
Ġcompar ationem
Ġcircum fluere
oh l
Ġment itus
Ġcustod itur
Ġ197 6
Ġ197 7
Ġret ex
Ġconsum entur
Ġconsum ptum
Ġprophet at
Ġprophet arum
Ġ196 3
Ġ196 4
ĠDic ta
Ġaestim atione
Ġsusc itet
ĠMed orum
Ġexper ience
Ġconced unt
Ġconced endum
Ġalb a
Ġvul vam
Ġbest ia
ĠCor s
Ġceleb errim
Ġpen uria
ĠLuc ilius
Ġjust um
Ġmus icis
Ġtac ens
Ġpere at
ĠBritann i
Ġdepos itus
Ġbened ictus
à´ ķ
ĠFac ilis
Ġdesider as
ĠEpiscop orum
Î½ Î±
Ġgenerat ionibus
Ġ198 0
Ġ198 3
Ġ198 4
Ġ198 7
Ġ198 8
Ġpros it
Ġsingul ariter
Ġhabitat oribus
Ġconsol atione
Ġmale fic
Ġcib orum
ï¿½ .
ĠMin nes
Ġ185 4
Ġ185 5
ala am
ĠLa ke
Ġdefend unt
Ġabsol v
Ġabsol utam
Ġrevert i
Ġhor rib
Ġproficisc eretur
ĠPol em
Ġdemonst rare
Ġedit i
ĠTur ici
Ġsangu inis
Ġmunicip iis
Ġcomprehend ere
Ġturb am
Ġimped imentum
Ġdig ito
Ġoccas us
Ġoccas io
Ġtit ius
Ġcoep isti
Ġveni ebant
ĠÐ¿ Ð¾
ĠIst i
ĠBo eth
ĠVel ut
Ġpeculi i
Ġabi ecti
Ġanimad vers
Ġsuav issima
Ġhosp es
ĠTer entia
Ġexcell ens
Ġarchit ect
Ġpraeb ere
Ġacceper am
Ġadven it
ĠTemp ora
Ġvex ill
ĠInc idunt
ĠInc arnationis
ĠAcadem ia
Ġrom anum
ĠCicer one
ĠAlexand rum
Ġpropon itur
Ġfruct uos
ĠXX I
Ġdispos uit
Ġdispos itionem
ĠKal endas
ĠItal icae
Ġconfus us
Ġnef arium
Ġnef ario
ĠOb s
Ġuis a
Ġpess imus
Ġgrad ibus
Al b
Ġconsent aneum
Ġpermitt o
Ġobliv ionem
Ġtransl ata
Prim a
Ġmancip ia
Ġmancip ari
Con sequ
Ġexst are
Ġexst inct
Ġempt or
Ġpud et
ĠDel ectus
ĠTheod iscus
Cur abitur
Ġpict ae
Ġdulc ed
Ġfelic itas
Ġdeclin are
Ġcaec us
Ġ188 7
Ġ188 9
ĠMont is
Ġcav ete
Ġimpos ita
Ġeffug eret
Ġquint am
Ġamitt it
Ġration ale
Ġdefunct i
Ġdescrip ta
Ġvetust as
ĠPlat one
Ġbenign a
Ġcomput at
Ġbaptiz atus
Ġmonst rat
Ġconviv io
Ġamo ena
Ġfru atur
Ġnit itur
Ġcommitt itur
Ġantepon endi
Î· ÏĤ
Ġindivid ua
Ġmerced e
Ġperegrin os
Ġdisper si
ĠÐ¾ ÑĤ
Ġurg et
ĠIap onia
Ġol eum
á¿ ¶
á¿ ĸ
Ġsupp lem
of t
Ġsemin atum
Ġampli ores
Ġcaelest e
Ġcaelest is
Ġingred imini
Ġmathemat icus
con f
Äĵ s
Ġvine am
Ġvine as
Ġinfam e
Ġinclud it
Ġvent re
Ġsev erus
ĠRec usandae
Î¼ Î±
ĠMon ach
ĠMor bi
Ġpariet em
Ġwh ich
Ġapert ius
Ġfil o
Ġgess i
Ġpraesc ientia
Ġconiun x
Ġinterfect i
Ġexercit ui
Ġpend et
Ġpraeceper am
Ġpromitt it
Ġequit ibus
Ġreddit e
Ġirasc i
Ġnou imus
ĠDionys ii
Ġcoel um
Ġridic ula
Ġexh ort
Ġsecret arius
Ġagric olae
Ġacquir it
Ġsatiet ates
Ġmeretric em
Ġcomedit e
ĠBabyl onem
åľ ¨
Ġadiunct is
Ġincommut abilis
æĸ ¹
ĠPeripatet icorum
ĠCorne lius
Ġgrand ia
ĠLacedaemon ii
bl ue
Ġiuvent ute
Ġhist r
Ġrest aur
ĠAet hiop
Ġsculpt ile
Ġmarit ima
Ġoppon untur
Ġdeced at
ĠRob ertus
Ġobv iam
Ġpub ertatis
ÅĻ ÃŃ
ĠSull a
Ġfoeder alis
ĠAgrip p
Ġnor unt
ĠCot ta
Ġcaerim onias
Ġvolum ine
Ġnosc untur
Ġfinit imis
ĠTuscul ano
En im
Ġpudic a
ĠTam quam
ĠBeth le
Ġeffig iem
å± ±
Ġcoinqu inati
ĠHad ri
Ġsacc ulo
Ġevid enter
ĠToll itur
Ġmoen ia
Ġomnim odo
Ġrepos ita
Ġdifferent iis
ĠComment ator
Ġoctog inta
Pet rus
Ġliqu et
ĠIuven is
Ġsollem n
Ġstil lic
ĠÐļÐ¾Ð» Ð¾Ð½
ĠCent ri
Ġdele vit
Ġdiurn arius
Ġextrah enda
Ġiniust itia
ĠPraecl are
Ġpror og
Prov inc
acor oman
Ġpraeiudic ium
ĠIndign a
ĠéĿ Ĵ
ĠTimot heum
ĠCenom annicae
pret atio
âľ Ķ
ĠMumm io
ĠPhase llus
ĠRebecc ae
Ġinfic iunt
Ġobstant e
ĠBarcin onensi
ĠViction arium
ĠprincÃŃ pio
. âĢĻ
. </
0 8
: "
A it
A lex
C a
C upid
E quidem
H omo
H eu
I D
I L
L ong
L itter
M A
N ota
N atura
N olite
P R
P raec
R ec
R eli
S ervi
T amen
V er
V ide
a quam
a ug
c ed
c io
c ulum
d itur
d ens
e ars
f al
g th
h r
i an
j k
j o
l ot
l ingu
m il
n eg
n omen
n dum
p us
p en
p ater
t emp
u cc
v isset
y ris
y ll
z en
z im
¢ ãĥ
Â ¨
ä ¿
ç »
è ®
è ¿
é ĺ
Ġ ich
um ento
er ens
er ari
er ap
er vis
Ġa evum
Ġs w
it ch
it ui
us e
us o
us ippus
Ġqu eat
Ġqu ominus
Ġqu avis
is h
Ġp s
Ġp urp
at s
Ġc rem
Ġc essit
Ġc edere
Ġc illum
Ġn ug
Ġn ation
Ġn az
Ġn ationalis
ae olog
st e
Ġd r
Ġd ens
Ġd andam
em i
em nit
Ġm usc
Ġm uro
Ġin aequ
ic are
ur l
ur ibus
Ġv e
Ġv iat
Ġv enter
Ġv otum
Ġi rati
re b
es im
im ento
Ġh et
Ġh oris
et as
ar icus
id ii
id eles
os ius
ul erat
ul su
ia bit
ol orum
Ġad vert
Ġad invent
Ġad prop
Ġl is
ac l
ac us
ac ter
ab a
il s
Ġde st
Ġde stitit
al it
Ġex it
Ġex ec
Ġex iit
ĠE un
ĠA C
ĠA equ
ĠI mo
ĠI ca
ĠI ove
Ġan glic
ĠS or
ĠS ag
ĠS ep
ĠS ua
ĠS inarum
ĠS ET
ĠS ancta
ĠC f
ĠC od
Ġdi r
Ġdi rip
ĠD isp
Ġper quam
Ġaut hor
ter is
Ġfac ientem
Ġfac ial
Ġfac inorum
Ġb et
Ġb ar
rat ae
ist am
ist ica
ra y
ra sti
ĠP eri
Ġsed ibus
per am
Ġco et
quam ini
ens imo
Ġhab uisti
Ġhab iturus
Ġtu Ã¦
ĠN em
ĠN iv
ĠN atura
eg i
eb itis
ĠM am
ĠM yc
Ġcom ites
Ġquo i
Ġver iora
ita verit
Ġu ident
Ġu elim
Ġ2 16
Ġ2 24
Ġ2 27
Ġr am
Ġr ug
Ġr itu
Ġr idere
Ġop em
Ġop tum
Ġid i
Ġer ig
av en
av isti
ĠL ys
ĠH um
ĠH ist
ĠH ell
ĠH ie
ĠH erc
ĠH eu
Ġne e
Ġca se
Ġca peret
Ġam avi
Ġam ori
Ġam abat
Ġam issis
ult is
ult at
ĠR os
ĠR ad
ĠR ich
emp ublic
ĠF ri
ĠF lum
ĠF ecit
ĠF ides
Ġinc ert
Ġinc ensum
Ġinc ertus
isc umque
ĠT o
ĠT ot
ĠT ob
ĠT ig
ĠT abul
ĠT arent
ĠT andem
Ġcons ulta
Ġcons pici
Ġcons cript
Ġcons ensio
ĠV e
ĠV inc
ari ensis
Ġpotest ne
Ġsol it
Ġsol vi
Ġtemp li
ust ro
ĠG l
ĠG erm
Ġint im
Ġint ue
Ġint endere
Ġprop itius
ĠB arn
ĠB landitiis
ĠB alaam
Ġcont est
Ġcont amin
Ġcomm endo
Ġmod ios
Ġlib entissime
Ġres um
Ġres olv
Ġsec uris
ep end
Ġpat erna
fect i
oqu i
ro und
Ġst im
Ġst abit
Ġst ante
Ġcre ationem
Ġleg ari
Ġleg atos
Ġfec ero
Ġven ero
ator iae
Ġloqu entes
Ġloqu entis
Ġter gum
Ġ19 10
Ġ19 38
ĠO k
Ġdol endi
Ġsp ond
ĠIn ven
ĠIn vid
Ġus itat
Ġus uc
Ġus ers
Ġus itate
Ġser ui
Ġsub ven
Ġsub difficilis
Ġaud ito
Ġaud issem
Ġ3 18
Ġpost eros
Ġmort alis
Ġ- ;
Ġman ens
Ġman ebat
Ġman ebit
esc h
ĠDomin icae
ĠRom ulus
Ġnatur as
Ġnatur alium
res se
Ġquem dam
Ġdeb erem
Ġdeb ebit
Ġdeb eam
ĠSed ec
Ġag emus
dic itur
dic tio
Ġvoc ationis
Ġput ans
Ġurb anorum
Ġist as
Ġante ibat
Ġtr isti
Ġsuper bi
Ġsuper bus
Ġsuper iori
ern i
Ġexp ans
Ġiudic etur
ĠNon as
Ġdiv us
Ġiur g
Ġiur iscons
Ġrep ar
Ġapp arent
Ġnomin at
Ġ18 46
Ġdec isiones
Ġpop osc
sum enda
itt o
Ġcogn itis
ĠFranc ice
ĠFranc isci
ont is
ont em
Ġserv itus
Ġserv averunt
Ġconc ilio
Ġfort itudinem
Ġmol es
eli o
Ġconf idit
Ġconf lat
ĠÐ ľ
Ġinv enti
ios ior
Ġviv atur
Ġinf antem
Ġinf ernum
Ġnot i
Ġnot itiae
Ġsequ antur
Ġsequ entes
ĠAm p
Ġins ul
Ġins ect
Ġins pici
Ġcol itur
Ġcol onus
Ġplac uerit
Ġmis isset
Ġmor bis
Ġnov erat
Ġdoc eret
Ġdoc umentum
Ġprov ide
Ġexc ut
Ġexc edit
Ġprob e
Ġprob es
Ð° Ñģ
Ġcae sus
Ġcae des
Ġinven ias
Ġrespon so
Ġcert iores
Ġvest is
unct i
ĠAr tax
Ġadh ort
ini anus
Ġduc untur
ill as
ill atim
ill ennio
ĠDei ot
Ġeg erunt
Ġeg estatem
Ġimper i
Ġmund ano
Ġdilig i
Ġdilig eret
Ġdilig endo
Ġext im
Ġnecess itudo
Ġing rat
Ġtest ator
iti orum
Ġintelleg es
eper at
Ġfam uli
Ġvic o
Ġvic ina
Ġvic inus
Ġvic tu
ĠJ uli
Ġcognosc atur
Ġcognosc untur
Ġcognosc eretur
Ġfut urae
Ġign i
Ġaed ilis
Ġappell atum
Ġind oc
Ġind uxit
Ġcet e
Ġull us
Ġidem que
Ġiis que
ÑĤ Ð°
In s
Ġmun itum
Ġoport uerit
Ġexist entiam
Ġpul sus
uv ius
uv ium
Ġ17 3
Ġaper tus
Ġpecc andi
Ġpecc averit
Ġlat in
Ġlat roc
ãģ į
Ġtrans c
Ġsignific amus
ĠX XX
Ġliber aliter
Ġliber alitas
Ġsoc ia
Ġsoc ialis
Ġdub ia
Ġdub itatur
Ġcup iunt
Ġcup iebat
Ġcup iebam
Ġrect ores
Ġpon at
Ġaequ aliter
Ġtim endum
Ġtim entes
Ġtim iditas
Ġ14 1
Ġ14 4
Ġ14 8
Ġaedific iis
ĠGerman orum
ĠGerman icum
Ġregn at
Ġepiscop ali
Ã© e
Ġmet ite
Ġmov ebitur
ĠSic iliam
Ġdist at
Ġfl uit
Ġfl ores
Ġfl uere
Ġfl uxit
Ġth ere
Ġth eatrum
Ġprod ita
Ġperfect ae
Ġadd at
Ġadd itur
Ġ16 1
Ġscient e
Ġscient iis
Ġeffic iens
ĠIuli am
Ġunivers alis
Ġunivers itate
Ġfor et
Ġantiqu ius
Ġtrad at
Ġtrad iderit
Ġbeat o
Ġbeat ific
ĠW eb
Ġcond iderunt
Ġmon s
Ġmon umenta
Ġconsul arem
Ġconsul atu
Ġmulto que
ĠReg ina
ĠEr ant
Ġed endos
Ġmiser iam
Ġsecund i
Ġarbit ratus
ĠÃ ĺ
Ġrespond erit
Ġeas que
Ġprof itetur
Ġperm iss
Ġbib endo
Ġcogitat a
Ġgaud eant
Ġpraest atur
Ġlae tor
Ġdiss ert
Ġclar itate
Ġtur ris
Ġmanu f
Ġcan ere
Ġmi ratur
Ġprom isso
Ġsex o
Ġsex u
Ġcust om
ĠAegypt iis
ãĥ ©
ãĥ ŀ
Ġexistim ari
Ġexistim atio
Ġdiffic iles
ĠPrae dic
ĠIll is
ros s
Ġincip iens
eph us
Ġsper amus
Ġsper abam
ĠCar itas
Ġalien i
Ġalien os
Ġy ears
Ġindic ium
Ġaccid at
Ġuid emus
Ġnob ilior
tu ordecim
Ġsuscip i
Ġk ey
Ġk now
Ġingen itus
ĠSt at
ĠSt atus
Ð°Ð ¶
Ġscript am
Ġpriv ati
Ġpriv atim
Ġpraed onibus
Ġarbitr abar
Ġdefin itur
Ġrog as
Ġperic lit
ĠMag no
Ġ194 1
Ġlud imur
Ġhabit abat
Ġhabit antibus
Ġhabit abant
Ġfem in
Ġfem inas
Ġgest ae
Ġson itus
Ġtestim onio
Ġaug ere
ĠSept emb
Ġscrips eras
Ġdim idia
Ġdim idiam
Ġexspect at
Ġexspect em
Ġexspect ant
Ġeven erit
Ġvers u
Ġhered i
ĠAc ta
ĠÂ» .
Ġrelig iones
Ġrelig iosa
ĠProv ident
Ġsust ulit
Ġmanifest etur
Ġquar tus
Ġli v
Ġordin es
Ġordin atae
Ġiniqu itates
Ġhort ari
Ġpal ud
Ġsimplic i
fac ta
Ġcunct as
Ġintra vit
Ġassum psit
Ġvinc ere
Ġvinc ula
Ġtem er
Ġmer idie
ÃŃ m
Ġlaet etur
Ġaestim are
Ġiniur ias
Ġfel icem
Ġcapt ae
Ġsalv us
Ġcondic ionibus
Ġexper ti
ĠÎ ł
Ġ30 5
Ġostend e
Ġrestit uit
Ġrelinqu atur
Ġecclesiast icum
ĠLuc ili
Ġpert ineant
Ġstult um
Ġstult itiae
201 1
Ġno us
Ġno uerit
ĠFac iam
ĠFac ile
ĠMo abit
Ġdubit ant
Ġdubit ari
Ġdubit andum
Ġquad rag
ÐµÐ ·
Ġelect ione
Ġsingul arem
Ġconsol atur
Ġconsol atio
ÑģÑĤ ÑĢ
Ġot i
Ġdorm it
Ġmali gn
ĠArist idem
ĠArist ox
Ġcib is
Ġdatur um
Ġoccup atum
Ġoccup ata
Ġvend ant
Ġconsider atur
Ġ185 6
Ġapostol orum
Ġ195 5
Ġfirm ior
âĢĶ ,
Ġtabern acula
Ġvenire nt
Ġdev ot
Ġobl itum
Ġbrev ius
ĠSam ariae
ĠSam nit
Ġobi urg
Ġpron omen
Ġadduc eret
Ġcult u
Ġhor rid
Ġappar uerit
ĠPro elium
Ġprohib ere
Ġobserv are
Ġobserv andum
ä¸ Ĭ
Ġpraetor io
Ġimpet r
Ġrecord ationem
Ġperspic is
Ġov er
Ġaeg re
ĠCol oniae
ĠPers piciatis
Ġorn at
Ġorn atum
Ġz o
Ġsoli d
Ġhabeb o
ĠVal lis
Ġcondit am
Ġcondit io
ĠSec unda
Ġconserv anda
Ġcot t
Ġjudic ia
Ġglad i
Ġimped iat
Ġiuven um
Ġmoll it
Ġdig est
Ġuoc em
ĠGen u
ĠGen er
Ġmerit is
ĠLeg em
ĠIst a
Prae sent
Ġpisc is
Ġdissim il
Ġoccid at
Ġgreg um
Ġabund are
ĠVir tut
Ġ{ {
Ġinfer ior
Ġlap ides
Ġappet it
Ġpraeced unt
Ġoppos ita
arch a
Ġexhib ere
Ġarb orem
Ġ189 1
ĠTro ia
Ġstip end
Ġadven a
Ġconstant iae
Ġard entem
Ġparentes que
Ġrom ae
ĠHab es
ĠBib lia
ĠBib liothec
XXX III
XXX IV
Ġqual itatem
Ġqual itatibus
Ġvindic anda
ĠXX III
Ġaddit o
Ġaddit is
Ġconsist ere
Ġsuccess orem
Ġcommemor at
Ġcompet ere
ĠÐ² Ð¸Ð´
Ġingredi atur
Ġservit ute
Ġpraestant ia
Ġpraestant ior
Ġresist at
Ð°Ð½ Ð¸
ĠApostol ici
Ġpermitt it
Ġtene amus
ĠSeptentr ionis
ĠVer res
Ġdomest icis
Ġcustodi erint
Ġempt i
aur os
ĠDel eniti
Ġspon sa
Ġaus i
Ġinstr u
Ġinstr ucta
ĠSax onia
ĠAustr ia
ĠPhil o
Ð¾Ð² Ñĭ
Ġcolloqu i
ĠBal bus
ĠCras si
Ġnumer antur
ĠSac ram
Ġpercus si
Ġcontend imus
Ġimport ari
Ġeffug it
Ġinstrum ento
Ġconcord iam
Ġmaj orem
Ġdefunct o
Ġevangeli o
Ġplant ate
Ġconiug em
Ġ179 6
Ġtribu ens
yc l
ĠOcc aecati
Ġdoctor es
Ġbaptiz ati
Ġdistingu untur
Sc iendum
Ġrevoc atus
Ġlen ius
ĠHeb ra
ĠBen iam
ĠAnglic ae
IC O
Ġinop ia
Ġradic es
Ġradic itus
Ġplan etae
Ġsubl atum
Ġdivin ius
Ġresponde am
Ġfals am
Ġcand el
Ġrob ur
ĠÐ´ Ð»Ñı
Ġdisper sae
Ġquidd itatem
Ġcelebr andum
Ġprofer re
ĠBeat i
Ġliberat a
Ġphys icae
Ġphys icus
á¿ Ĩ
Ġheb es
Ġcontumeli am
Ġparoec ia
Ġsemin ate
Ġpup illo
Ð½Ñĭ Ñħ
Ð½Ñĭ Ð¹
Ġcontempt us
Ġidone um
Ġfraud em
Ġmathemat icae
Ġincomm odo
Ġsubd itus
Ġdiscern it
ĠConstant inus
Ġç Ļ½
ĠSil o
Ġcoeper int
Ġual ent
Ġmedic inae
ĠPyrenae o
Ġprofess ione
Car olus
Ġinut ilis
ĠMis erum
Ġpariet es
ĠUr g
Ġapert issimis
Ã± os
Ġtel eph
Ġfacillim um
Ġris u
Ġspecia lem
Ġtribul ationem
Ġtribul atione
ĠCatil inam
Ġpraetere unt
ĠClod io
Ġosc ul
Ġterre na
Ġadim p
Ð°Ð» ÑĮ
Ġdialect i
Ġbenedict ione
ĠPont ifex
ĠVerg ilium
ĠInterrog atus
Øª Ùĩ
Ġlep ra
Ġperduc ere
ĠOrdin arius
Ġrhet or
ĠIoach az
ĠTen etur
ä½ ¿
Ġastr onom
Ġtend unt
Ġconuen it
Ġexempl aria
Ġdifficillim a
ĠVt rum
Ġtrip lic
Ġremed ium
Ġadiut orium
ĠSatur n
Ġundev iginti
Ġmach in
Ġtun icam
Ġliter as
ĠPtol em
ĠNeg at
Ġvivific at
Ġfabric ata
Ġdot em
Ġprompt u
ĠSociet atis
ĠSoviet icae
ĠSull ae
ĠPlin ius
Ġsei ung
Ġscandaliz at
Ġcaerim oniae
ĠExp ressa
ĠIoann em
Ġevan uit
Ġbaptis mum
Ġsid era
ĠCupid itate
Ġsubm inist
Ġeffig ies
Ġadfer re
Ġamph itheatrum
Ġimpot entia
Ġquing entesimo
Ġtrec enta
Ġcoinqu in
ĠRepell endus
ash ington
ĠSpe usippus
ĠCr asso
Ġbal ne
Ġcreb ro
Ġnumm os
ĠNapole onis
ĠCardin alis
Ġgran um
Ġseips is
Ġsimp lum
Ġdiutur na
Ġretr orsum
ĠAT T
ĠAsper natur
ä¼ ļ
Ġfoc us
ĠCarthag inem
åŃ Ĳ
Ġmam mae
ĠCIC ERO
nesc imus
Ġcentur io
Ġnich il
Ġmenda x
Ġpraefic itur
Ġtabernac uli
Ġeuangeli o
Ġton it
Ġcoempt ionem
ĠRup ilio
Molest iae
Ã£ o
Ġexquir ere
Ġincrem entum
Ġimmorta libus
Ġarbitra retur
ĠElect or
Ġcorrept ionem
Ġtherm ae
37428 67
ĠRepublic anae
ĠMeridi ano
Prod uct
Ġethn icus
Ġherc le
ĠlÃ¦ t
Ġtumult u
sq b
Ġanath ema
Ġdipl oma
istinct io
Ġcinemat ograph
ĠBith yn
ĠMinnes otae
Ġadinvent iones
ĠIca unae
empublic am
ĠÐ²Ð¸Ð´ ÐµÐ¾
ĠçĻ½ ç´Ļéĭ¼
' t
, --
- ,
0 4
1 10
9 6
A B
C O
C al
C iv
E X
F ree
H arum
I b
I ud
J ust
L ud
L ab
L uc
L aud
L XX
L uneburg
M od
M aecenas
O pp
P C
R ex
S ap
T am
U L
V is
W e
X VIII
X IX
X VII
a ui
b as
c p
c ap
d ium
d eret
e atis
e amur
f a
f el
f amili
g i
i enus
j i
j s
k ed
l d
m atis
m ulta
n en
n isi
p o
p ecta
r ino
r inam
s s
t ion
t arum
u ero
u issent
v oc
v erbum
w ood
y st
Î ²
Ð Ķ
Ø ³
Ù ģ
æ ²
æ ´
æ ī
ç ½
ç Ľ
è §
é ģ
Ġ odi
Ġ other
qu omodo
er iae
Ġa vis
Ġs esc
Ġs he
Ġs oph
it antur
it ionum
us in
am atus
Ġc ic
Ġc un
Ġd it
Ġd in
Ġd atis
Ġm uc
Ġm ares
Ġm elle
Ġm iretur
Ġm aev
Ġm itteret
or n
or tare
or tavit
Ġin r
Ġin se
Ġin und
Ġin anis
Ġin min
Ġt ess
Ġt oni
Ġt echn
ut ura
Ġi it
Ġi rae
Ġi uncta
Ġi ratum
Ġi bat
re f
Ġf ib
Ġf eb
Ġf ient
Ġf ati
es us
im b
im il
im ine
Ġh in
Ġh iis
Ġh Ã¦
Ġh ymn
od am
et o
et am
os is
os am
ul esc
ul sus
ent issimus
Ġnon agesimo
Ġpr iora
ib unt
ol dus
un itatis
Ġad ip
Ġad erit
Ġad pos
Ġad fectus
Ġad iciam
oc o
Ġre ven
Ġre ad
Ġre ipublicae
Ġl os
ac et
ab ri
ab amur
ab ilitatem
Ġut iles
Ġut ebatur
el eg
Ġquae sit
Ġquae cunque
il ae
op olit
Ġcum ul
ant ulus
Ġde per
Ġsu ite
al th
ibus que
Ġcon u
Ġex ag
ĠE P
ĠE T
ĠE V
ĠI P
ĠI c
ĠI gn
ĠI uxta
ĠI III
ĠI ron
io b
Ġan y
Ġan al
Ġan ulum
Ġan che
ĠS T
ĠS un
ĠS ig
ĠS oli
ĠS cr
ag er
ĠC av
ĠC ert
ĠC rim
ĠC ura
ĠC anis
ĠC athed
ĠD res
Ġqui etis
Ġdic ebantur
Ġdic ebas
itat iones
ip si
Ġper dam
Ġb ack
Ġb iduo
ist unt
ist as
ra w
atur e
ob oam
ĠP ans
ĠP ass
ĠP rog
omin um
Ġg av
Ġg erit
Ġg erebat
Ġg rex
no st
Ġco ept
Ġco etus
ir or
ens ionem
ĠN at
ĠN unt
ĠN uper
uit a
uc id
uc tor
aec unque
und ensi
ĠM ol
ĠM as
ĠM undi
ĠM ollitia
Ġcom b
Ġcom oed
are ns
Ġ( =
Ġver eri
pt e
Ġposs ed
Ġposs ideas
Ġab str
Ġab rog
Ġvid ebat
Ġvid erent
Ġu ul
Ġu inum
Ġu erius
Ġ2 12
Ġ2 21
Ġ2 35
Ġ2 31
Ġr arius
Ġid ipsum
Ġid olum
Ġer ro
av ia
av isset
av erim
ĠL og
ĠL uneburg
ell os
ionem que
ĠH y
ĠH elim
Ġam es
Ġam ar
Ġam ator
ĠR P
ĠR estatis
ĠF il
Ġpro j
Ġat rium
Ġpar is
Ġpar ta
Ġpar atae
Ġinc arn
Ġcu bit
isc a
isc is
Ġvol t
ĠT ic
ĠT alis
ĠT ua
ĠT attoos
Ġcons crib
atus que
ĠV itam
ĠV iscons
ess u
Ġsol ae
Ġsol ut
Ġun iuntur
Ġun iform
Ġtemp lis
ing at
Ġacc ident
Ġint ima
Ġint erea
Ġprop it
Ġprop ag
ĠB l
ĠB os
ĠB ro
ĠB elli
ĠB ona
Ġcont ag
Ġcont entio
Ġcomm e
Ġmod os
ov ic
Ġsum o
ig antes
ine o
ull a
Ġinter iore
Ġinter mitt
Ġinter empt
Ġor ationibus
Ġor ationi
erat a
erat ionis
Ġres pect
Ġdix istis
Ġanim ante
Ġcre atis
Ġar ida
Ġleg et
Ġleg untur
Ġfec erint
Ġfec eram
Ġneque at
Ġven ust
Ġven atione
ap sum
Ġloc utum
Ġ19 3
ĠO lim
Ġsp ati
Ġal ea
Ġus ibus
Ġus ura
Ġser ena
Ġsub est
Ġaud isti
Ġaud itis
Ġaud ientibus
Ġaud ientis
Ġpost modum
Ġob c
Ġprim itus
esc ae
Ġimp endere
Ġimp letum
ad d
ad os
ad as
Ġann ex
Ġann onae
ĠU llam
Ġsim ult
Ġnatur is
res cit
Ġdeb il
pon ius
Ġgen et
Ġag es
Ġag rest
Ġpraes up
Ġvit ro
Ġput ari
Ġpec us
Ġtr em
Ġcog unt
Ġcog itavit
Ġcur andum
Ġcur rus
pe ximus
Ġexp let
Ġmal am
Ġiudic aretur
Ġei ectum
Ġamic issimum
Ġdisc at
Ġdisc ut
Ġiur are
Ġiur avi
Ġeccles iÃ¦
erc a
Ġrep rehens
ĠâĢ ł
Ġ18 1
Ġ18 24
Ġ18 88
Ġdec l
Ġdec or
Ġas se
Ġas pectum
Ġas criptum
Ã¦ orum
Ġcomp rehendi
Ġdes erv
ingu et
Ġtot aliter
ĠQuid nam
Ġcogn ati
Ġcogn atos
ĠFranc iam
Ġsent iret
Ġserv io
Ġserv ate
Ġserv iat
Ġfort itudine
Ġfort itudinis
Ġmol e
Ġgrat i
Ġscrib unt
Ġscrib atur
Ġscrib antur
Ġact ae
ĠÐ µ
ĠÐ »
ĠÐ Ķ
ĠÐ Ŀ
Ġinv itis
Ġinv olv
Ġinv olvit
Ġviv ant
Ġviv amus
Ġinf und
Ġfid ius
Ġnot as
Ġcar us
Ġcar ior
Ġcar issimi
Ġsign atum
ĠAm on
Ġins an
Ġins erv
Ġins inu
ĠCom modi
Ġcol oribus
Ġplac uerunt
Ġlab rum
Ġcred ebat
Ġcred entibus
Ġpraeter ire
Ġdef endam
ĠNam que
Ġmor b
Ġnov os
Ġnov issima
Ġdoc eo
Ġopp ressa
iens ibus
Ġvis is
Ġvis ione
Ġval le
Ġneg o
Ġneg avit
Ġinven iatur
Ġdomin am
Ġred ux
Ġred iret
Ġprincip ii
Ġsumm as
Ġfr uitur
unct ae
Ġj o
enti endum
Ġquaer as
Ġpecun iarum
Ġduc ebat
Ġvolunt aria
Ġvolunt ates
ea se
Ġeg ere
Ġeg isse
Ġimper avit
Ġsanct u
Ġius si
Ġdilig ebat
Ġext rinsec
Ġnecess itudinis
iscop us
Ġtest atoris
equ aquam
Ġplur imam
Ġplur imas
Ġintelleg untur
Ġvic ino
Ġmut at
Ġmut atum
Ġmut abilem
Ġit idem
ĠJ er
Ġaccip io
Ġaccip iet
Ġaccip iendum
Ġhum i
Ġcognosc endum
Ġcognosc endi
Ġcognosc ente
Ġmed icus
Ġign otus
ĠMar ch
Ġpet imus
Ġind ub
ĠĠĠĠĠĠĠĠ ĠĠĠĠĠĠĠ
Ð¸ Ðº
Ġw r
Ġw ere
Ġpertin entia
Ġpertin ebant
Ġsen ecta
Ġ12 05
Ġstat uas
Ġdiscip ulo
13 4
Ġintellig ens
Ġintellig untur
iant em
Ġ15 2
Ġem erg
Ġexist it
ĠCon i
rah it
11 5
Ġpul si
ĠUt ae
Ġ17 5
15 3
Ġaper i
Ġpecc averunt
Ġaccus at
ãģ £
Ġtrans itum
Ġtrans cur
Ġadm is
Ġimm od
ĠX L
Ġsoc io
Ġdub itatione
Ġcup imus
ĠMa i
ĠMa x
ĠMa y
Ġpon untur
Ġpon eret
Ġaequ ius
Ġaequ itatem
Ġaequ alem
ĠK ohl
ĠPh al
Ġtim ui
uerit is
ĠGerman ica
Ġadi u
Ġadi uro
Ġdedit que
Ġepiscop orum
Ã© r
Ġdiff amatus
Ġult imis
Ġcontin ue
Ġfl ux
Ġth ese
Ġth roni
tr act
Ġprod uxi
Ġpraecip itur
Ġpraecip imus
Ġdon an
Ġmalum us
Ġadd uxerunt
Ġ16 4
Ġscient ibus
Ġeffic iat
Ġunivers os
Ġunivers orum
Ġfer iae
Ġfer ro
Ġfer ret
Ġantiqu itate
Ð» Ð¸
Ġtrad untur
Ġmir ari
Ġcond itus
ĠquÃ¦ cumque
Ġpossess iones
Ġdum modo
ung ar
ard s
Ġgrav issima
ĠEr as
Ġaudi atis
Ġaudi endum
Ġpulch ri
Ġaetern itatem
Ġaetern itatis
Ġarbit rum
Ġinstit ui
Ġcoll ect
Ġprof ecta
Ġfin ito
Ġperm ix
XX VIII
XX IX
Ġlae ti
Non ne
ĠGal lis
26 5
Ġlect iones
Ġlect ulis
Ġcan em
Ġprom ittere
Ġdict am
ãĥ ĥ
ãĥ ĸ
Ġdil at
Ð¾Ð ·
ĠChristi anis
par t
Ġrecip itur
Ġ& &
Ġav eo
Ġsimil lim
Ġpugn averunt
Ġdelect ationem
ĠSc it
ereb am
ĠCar th
Ġalien us
Ġindic asti
eram ur
Ġnob ilitate
Ġnob ilitas
ĠNov emb
Ġfur to
Ġmitt imus
ĠEp ir
ich o
ich t
Ġdisput atione
Ġinim ica
Ġcr us
Ġcr ass
Ġrog avi
Ġteneb ros
Ġconv ent
ĠMag is
Ġpropos itionem
Ġ194 4
Ġaff erat
Ġaff lig
Ġnar raverunt
ix a
Ex erc
Ġped est
Ġpuell as
ĠLib ert
Ġinterrog averunt
Ġsin it
Ġads ent
Ġscrips imus
Ġdivis us
Ġdivis ionis
Ġdim issus
Ġcast itatis
Ġdivers as
Ġrelin quit
Ġnasc etur
Ġdux erat
Ġaux ilia
Ġass ec
Ġrelig io
Ġrelig iosum
Ġvideb unt
Ġfig uram
Ġperven iat
Ġscriptor is
Ġarch id
Ġtut e
Ġordin ata
Ġpret ii
Ġmanum itt
Ġcens et
Ġcens ores
Ġarc um
Ġhort is
Ġhort aris
Ġrel at
Ġpal p
Ġuol upt
Ġcircum ven
fac tum
Ġasper um
Ġpass ione
Ġpass ionibus
Ġpass ionum
ĠIp sam
Ġquat tuordecim
Ġdis ponitur
enn ae
Ġsy mb
Î± ÏĤ
Î± Ïģ
Ġagn i
Ġagn itionem
Ġparent is
Ġ197 9
ĠDic imus
Ġargum enti
Ġplen ius
Ġgener ali
ĠVen eris
Ġsusc eptum
Ġsusc epi
Ġpauper um
At t
ĠIoseph i
Ġnim ia
ĠÎ º
Ġ25 3
Ġalb edo
Ġlev es
Ġlev ia
Ġpraem iis
Ġdistinct um
Ġtestam enta
Ġceleb rata
Ġceleb ratur
Ġfrequ entius
ĠLuc ae
Ġtac et
Ġstult e
Ġcetera que
201 4
ĠBritann iarum
Ġdia c
Ġdepos uit
Ġsempiter nis
à´ ¿
Ġasc endi
ĠEn och
ÐµÐ ±
Ġelect ron
Ġhabitat io
Ġdorm iunt
Ġdorm ierit
Ġflum inibus
ĠLut etia
Ġexcept io
Ġexcept ione
Ġsolv erit
Ġ185 1
Ġ185 9
Ġconvers o
Ġapostol o
Ġ195 1
Ġ195 3
Ġsollic itudinem
Ġobl ata
Ġbrev ior
Ġbrev itate
Ġiucund us
ĠSam u
Ġobi ecta
Ġobi ecto
Ġadduc tus
Ġsomn us
Ġcult ui
Ġcult urae
ĠPro in
Ġprohib entur
Ġlegit imum
Ġobserv ari
Ġobserv antia
ä¸ Ń
Ġexter os
Ġexter na
ĠIt ane
Ġedit ionem
ipp um
Ġindign us
Ġindign atio
Ġindign atione
Ġhabeb imus
ĠVal ete
Ġcondit ae
Ġsepar ari
Ġjudic io
Ġuen iat
Ġnoli m
Ġdo es
ĠVolupt atum
Ġtempor alis
Ġsustin uit
Ġagnosc it
Ġdelic to
ĠMult ae
ĠMult oque
Ġinterpret antur
Ġub ert
Ġcarn aliter
ĠMan asse
ĠMet rod
Ġoccid erit
Ġoccid entem
Ġoccid ente
Ġdamn avit
Ġabund ant
Ġexpet endam
Ġaccess erit
Ġimprob orum
Ġrequir untur
ravit que
ĠÑģ Ð¼
Ġlap ideas
Ġsuav itate
ĠIust ini
Ġappet ere
Ġappet itus
Ġinuen ire
Ġoppos itionem
Ġare am
Ġelem entis
Ġelem entorum
ĠEuropae a
200 7
Ġdilect ionis
ebo ok
Ġacceper int
Ġpraecept or
Ġcathol icum
Ġrom ano
sec undum
ĠBib liorum
Ġimpl ere
Ġimpl ebuntur
ĠSol uta
ĠArch itecto
ĠKal endis
ĠItal ica
Ġinius ta
Ġvulg ari
Ġconsist unt
Ġ190 7
Ġmagnific a
Ġdifficult atem
Ġinm orta
Ġcondem natus
Ġrespic ere
Ġarm enta
Al pibus
Ġaer arium
Ġduplic i
Ġtradit io
Franc iscus
Pr incip
Ġfun eris
Ġrevers a
Ġpraestant ius
Ġexpugn ata
Ġexpugn averunt
Ġcit ra
Ġpropinqu a
Ġobtin ere
Ġobtin uit
Ġcler icum
á½ Ĳ
Ġpasc am
Ġincid am
ĠSeptentr ionalis
Ġnonnull ae
Ġempt ori
Ġpud oris
Ġpas ch
Ġintro ivit
Ġdesin unt
Ġreced endum
Ġdulc is
ĠSax oniam
ĠOp us
Ġdifferentia s
ĠPhil ist
Ġadministrat ione
Ġadministrat ionis
Ġconst are
Ġconst ans
ĠSen atus
Ġexcus ationem
Ġexcus atione
Ġproduc ta
ĠCras sum
Ġinform ation
àµ ģ
Ġscand alo
Ġscand alum
Ġimpos itum
Ġmans erunt
Ġnarrat ionem
ĠRespon sio
Ġration ali
ĠBoruss ia
ĠPap ae
Ġdoct orum
ĠCae lum
Ġmedioc riter
ĠApp aret
Ġfrum enta
Ġinvoc atum
rehens us
ĠPhara onis
Ġadulter io
Ġcat egoria
Ġpulchr itudinem
Ġperman sit
ĠLae t
Ġsplend ida
Ġcontemn ere
Ġdesid eret
Ġtrah it
Ġradic em
Ġradic ibus
Î· Î½
ĠCam b
Ġresponde at
Ġsinist ra
ĠÅ ĺ
ĠPort ug
Ġvenen um
Ġopprim i
Ġpersec uti
Ġpersec utionem
Temp ore
ym ph
Ġapt ius
ĠRhen um
Ġresid ui
ĠConsequ untur
Ġdevor averunt
Ill a
Ġphys icis
Ġcorrum pere
Ġexpos uit
ĠUnivers itas
ĠVirg iniae
Ġtard ius
Ġauxili atus
Ġinterc ed
Ġcomplex u
ĠArd escae
Ġingred ere
Ġmathemat ica
Ġinnumer abiles
Ġsubd ita
ĠConstant in
Ġual de
Ġmedic inam
Ġperegr inus
Ph one
Ġsel ected
ĠTert io
Ġintern ationalis
ĠOffic iis
Ġfall ere
Ġinu enta
uch ar
Ġconsue verunt
Ġthesa urum
Ġpunct o
ulatus que
ĠAqu ila
Ġcommov eri
Respon dit
ĠElis eus
Ġaccommod atum
Ġfix um
Ġcaeter a
Ġfil um
Ġadept i
ĠVenet ia
Dic itur
Lingu ae
Ġextran eum
ĠFlor idae
ĠClod ius
Ġequit es
Ġperp auc
ĠPos sumus
Ġredempt ionem
Ġcommerc ium
Ġcommerc ii
Ġseg reg
Ġmeretric is
Ġtrin itas
Ġglorific atus
Ġdispens ationem
ĠOrdin arii
Ġresurrect ionem
prae s
Ġlup o
ĠCass ius
Ġincend io
Or igin
ĠPop ulus
ĠHeli ae
Ġfidel iter
ĠXen ocrates
ĠcÃ¦ lum
Ġsucced unt
Ġgrand e
Ġadp rehend
Ġadp rob
Ġcoha erere
ĠNic olaus
Ġplag am
Ġdifficillim e
çĶ Ł
Ġhist oriarum
Ġincommod a
Ġremov eri
Ġrecognosc ere
ĠÃĨgypt i
Ġdeput antur
Ġcerv icem
Ġmig ravit
Ġinvas erunt
Ġcalum niae
ĠHierem iam
ĠCorp us
Ġsacrific et
Ġprist inum
ĠCas si
ĠPu ella
Ġdeclina vit
ĠArc es
Ġundev icesimo
ĠGer undensi
Ġobnox iae
Ġnuncup atur
Ġpatron atus
ĠExemp lum
Ġtransg ress
Ġdiuers a
Ġpel libus
Ġdefl uet
Ġmorta libus
ĠCla usae
ĠIndic ant
Ġdissent iunt
Ġfoeder ali
Ġdiap ason
ĠIb id
Ġ$( "
Ġsid erum
Ġsepulch ri
Ġdeven erunt
ĠLu cce
Ġstomach o
Ġsilv as
ĠMichae l
Ġinhabit antes
ĠHad rum
Ġexprob rare
Ġmiserat iones
Ġtranst ulit
ĠToll enda
Ġconfort atus
Ġpaul atim
Ġje j
ĠColleg ium
Vir temberg
Ġfrang ere
Ġsuppos itum
oniz atus
Ġbarbar orum
Sol uta
ĠLem ovic
Ġdiluc ide
Ġcereb rum
ĠNim ium
Ġoliv ae
Ġdenot atur
ĠBad eniae
ĠUlix es
Ġchem icus
Ġbibliothec am
ĠBrunsv icum
wh ite
Ġseri e
Ġquand oquidem
Ġdelet ionum
åĨ ħ
Ġannuntia bit
Ġingem uit
æ° ´
ĠCath ar
ĠLugd uni
ĠÚ ¯
Quaes o
ĠHannib al
Ġprodux erant
ĠParlam entum
Ġconprehend erunt
Ġrescrips erunt
Be atus
Ġconect untur
Ġspre verunt
ĠJeh ova
Ġinpon ebat
ĠMah omet
ĠCarne ade
}, {"
ĠEae dem
ĠPelop onnes
equis itus
Ġhauri endam
rotund imentum
Oper a
Ġextin ct
Ġperter r
Ġbeniv ol
Ġplebisc ito
ĠCyre na
Ios ephus
Ġath let
ĠGede on
Ġeffemin ari
ĠPolem onis
ĠBoeth ius
ĠInvid iosum
Ġtristi que
Ġhorrid iores
ĠBeniam in
ĠATT ICO
ĠViscons iniae
" ?
' +
) [
. âĨĳ
0 3
1 01
5 00
9 3
? ;
A ene
B ut
C r
C DU
D O
D i
D ominus
D enique
E L
E d
E i
E adem
F or
F ilius
G u
G re
G raec
H ae
H en
H anc
I ON
J d
L c
L ae
M t
P at
P os
P orro
S u
S us
S aec
S ing
S ocrates
T y
T ub
U num
V erbum
\ \
a is
b ing
c at
c fr
d ie
d isp
f ol
f red
g l
h ae
h ar
i ar
i ans
i erint
j en
l v
l ast
m atibus
m undus
n at
p ae
p es
p heus
r ol
r imus
r icum
s p
s que
s imus
t unc
u ens
u erimus
u issem
w er
w ell
y rum
z z
z ant
³ åİ¿
Â ¶
Â ¿
Â Ķ
Æ °
È Ļ
Ð ľ
Ð ŀ
á Ģ
å ¯
å ¿
å Ŀ
å Ł
æ ³
æ µ
æ İ
æ Ń
ç µ
ç Ń
è ´
é ĩ
é ĸ
é Ľ
Ġ ulli
Ġ ullius
Ġ Ø±
Ġ Ñį
ġ ġ
Ġe vert
qu ibus
er ans
er endo
Ġa ene
Ġa ula
Ġs op
Ġs ina
Ġs auc
us i
in atio
in ationem
in quit
in oniae
is icing
Ġp ura
Ġp ane
Ġp irat
am ine
on orum
Ġn ih
Ġd ura
Ġd andum
Ġd Ã©
Ġd ay
Ġd abimus
Ġd itavi
Ġm oris
Ġm uta
Ġm utus
Ġm uri
or di
Ġin b
Ġin it
Ġin lic
Ġin ex
Ġin erm
Ġin ane
Ġin ani
ic c
ic ibus
ic ulae
ur iae
Ġv n
Ġv in
Ġv ot
Ġv anum
Ġv iii
Ġt ig
Ġt aliter
Ġt onus
ut ius
Ġi erit
Ġi Phone
re vit
Ġf uc
Ġf ile
Ġf erebat
li e
li i
li u
Ġest ne
Ġh ol
Ġh eret
ar as
ar ta
ar icare
an ii
id at
id iis
id icus
os oviae
ec umque
Ġpr iorem
Ġpr iu
ol f
ol ita
un ia
un ensis
Ġad c
Ġad em
Ġad nex
ed es
Ġre xit
ud e
ac ius
ac ensis
ab i
el s
el y
el am
ot s
Ġde pic
Ġcon ati
Ġcon fectus
Ġcon uert
Ġex ul
Ġex iret
Ġex asper
ĠE gn
ĠE ug
ĠE ST
ĠE ligendi
ĠA B
ĠI S
ĠI ub
ĠS r
ĠS tr
ĠS urre
ĠS eth
ĠS lav
ag i
ĠC ub
ĠC antium
ĠC CC
ĠC yp
ĠD ux
ĠD ani
ĠD edic
Ġqui pp
Ġdic eremus
est ate
Qu asi
Ġper vertere
Ġper peram
Ġfac etiae
Ġb rum
ect am
ili anus
ili ensis
ĠP D
ĠP erm
ĠP arent
Ġsed eat
Ġsed eant
Ġg ot
Ġg ermin
Ġg usta
Ġen it
Ġen erg
Ġco hib
Ġco acti
Ġco okies
ĠQu alis
ĠQu icumque
ir is
ens imum
Ġhab eretur
Ġhab ebatur
Ġhab itudinem
Ġhab ebantur
Ġtu b
ĠN ut
ĠN ation
uit que
Ġsc am
Ġsc iatur
iv orum
ĠM ari
ĠM undum
ĠM ann
Ġcom ite
Ġcom ponere
Ġap pon
Ġquo usque
ort e
Ġver ter
Ġver sum
pt us
ina li
Ġposs edit
Ġab d
Ġab j
Ġab esse
Ġab esset
Ġvel ox
Ġvid issent
ita verunt
Ġu ert
Ġu eri
Ġu entum
Ġu iri
Ġ2 14
Ġ2 22
Ġ2 26
Ġ2 37
Ġr ite
Ġr uf
Ġid us
Ġid eae
Ġer ratum
av ae
av as
ĠL es
ĠL ot
ĠL ist
ĠL az
ell es
ĠH ols
Ġam icae
Ġam ores
Ġam abilia
Ġam ittere
ult am
ĠDe f
ĠR ot
ĠR and
ĠR ap
Ġpag inarum
ĠF am
ĠF ris
ĠF ugit
Ġpro veniunt
Ġpar ibus
Ġinc ept
Ġvol ent
ĠT i
ĠT w
Ġcons im
Ġcons ob
Ġcons ign
Ġcons angu
Ġpl at
Ġpl ease
Ġnec ne
ĠV end
ĠV ulg
ĠV err
ari z
Ġma ke
ust od
ĠG ir
ĠG ens
ĠG rec
Ġint ol
Ġint uitu
Ġprop ugn
ĠB ay
Ġcomm ota
Ġmod ice
âĢ ŀ
ig ur
ig oth
Ġfu erimus
Ġor ae
erat um
Ġres pectum
Ġsec utae
Ġdix issem
Ġpat eretur
Ġpat iantur
int on
Ġreg iam
Ġreg inam
ro ugh
Ġst ag
Ġst ate
Ġst antes
Ġanim Ã¦
de us
Ġcre antur
Ġmin ui
Ġmin uta
Ġmin utis
ate ur
Ġar as
Ġar ce
Ġcor ne
Ġcor onam
Ġnost re
Ġleg as
Ġleg atur
Ġleg endum
Ġleg amus
Ġleg ationem
Ġven und
issim eque
abul o
Ġerat que
Ġloqu emur
Ġ19 15
Ġal c
Ġal as
Ġal ti
Ġnum eris
Ġnum mus
Ġaud ent
Ġaud irem
Ġ3 01
Ġ3 19
Ġ3 26
Ġ3 40
Ġmort es
Ġcaus idicus
Ġob tem
Ġob ru
Ġob sign
Ġman ent
Ġimp udic
ad s
ad am
Ġann ot
ĠU no
ĠU ne
ĠU tique
Ġdeb erent
Ġag ain
aud eo
Ġac errim
Ġrat ioc
Ġpart i
Ġpraes ide
Ġvoc ans
Ġput anda
Ġput aram
Ġtr op
Ġtr ag
Ġtr acta
Ġtr ucid
Ġcog i
Ġcog at
Ġcog itate
Ġcur s
Ġcur abo
Ġcur iosorum
Ġhabet o
ne y
Ġsuper f
Ġsuper ab
Ġsuper iores
Ġsuper emin
Ġsan itas
Ġsan itatem
Ġcap io
Ġcap ill
ux erit
Ġexp ecta
Ġexp ensi
Ġexp ensum
Ġexp ectare
Ġmal ev
Ġmal let
Ġiudic atur
Ġiudic atus
Ġamic issimi
Ġdisc unt
Ġdisc itur
Ġiur idic
Ġnomin ant
ali en
Ġ18 2
Ġ18 16
Ġ18 21
Ġ18 40
Ġded isset
Ġsua que
Ġsua pte
Ġcomp ens
Ġdes ili
Ġtot i
Ġtot iens
ĠFranc icis
Ġserv a
Ġserv atur
Ġconc in
Ġlit ora
Ġscrib es
Ġconf lig
ĠÐ ĵ
ĠÐ ĺ
Ġinv it
Ġinv itum
Ġinv idere
ios issime
Ġiust am
Ġmaior que
Ġel se
Ġel ectum
Ġviv ebat
Ġinf antia
Ġnot io
Ġnot ionem
Ġnot ione
Ġcl a
Ġcl avis
he im
Ġpraec ise
Ġquos libet
ĠAt h
Ġcar issime
ĠAm icus
Ġins picere
Ġten eo
Ġten ui
Ġten uerunt
Ġcol ores
Ġplac ebit
Ġcred is
Ġcred amus
Ġcred erem
Ġpraeter g
Ġpraeter mis
Ġdef ensio
Ġdef erre
Ġerit que
Ġvide amini
Ġopt im
Ġdoc eri
Ġdoc endum
Ġdoc uerit
Ġconsequ entibus
Ġfi eres
Ġprob aret
Ġcirc uitum
Ġcae d
Ġinven iet
Ġinven iret
Ġinven ietis
Ġrespon sa
Ġred ig
Ġred de
Ġred dam
Ġred uxit
Ġcert ae
Ġcert issime
Ġfug i
Ġcontra xit
Ġj uv
Ġj uris
Ġj uven
Ġux orum
Ġux oribus
10 7
Ġquaer endo
pic e
pic ius
ill y
Ġimper are
Ġimper atum
Ġmund itiam
ulis que
Ġext at
Ġnecess arius
Ġgra u
Ġtest e
Ġtest atus
oli m
Ġabs entibus
Ġdign am
Ġfam osi
Ġrei ectus
Ġexerc uit
ĠPr ag
ĠPr orsus
Ġvic is
Ġvic iss
Ġsens ibilia
Ġmut etur
Ġmut antur
Ġmut ua
ĠEccles ias
ĠJ ust
ĠJ erem
ord ia
Ġcognosc amus
Ġmed iam
Ġign otum
ĠMar s
ĠMar doc
Ġpet is
Ġind ur
Ġcet ero
Ġsup remum
Ġverum tamen
An d
act ionem
act iones
Ġpertin eret
Ġph ase
Ġlong itudinem
Ġ12 18
Ġbell is
Ġbell orum
Ġod or
Ġdiscip ula
ĠEx s
ĠEx pectoque
Ġtant as
Ġtant undem
Ġpropr ius
Ġintellig at
Ġintellig ibilis
Ġmens ium
iant ibus
Ġ15 3
Ġ15 6
Ġem in
Ġem is
Ġem erit
Ġem erat
Ġem ail
Ġmil f
Ġmil itiam
Ġfact iones
11 1
ath ena
Ġ17 7
Ġpraedic ere
Ġpraedic andum
Ġpraedic ans
Ġpraedic tis
Ġpraedic tae
Ġfaci endo
oll a
Ġaccus et
Ġaccus atorem
Ġcontr itum
Ġcontr actus
Ġlat ent
Ġspec ific
Ġimm ane
Ġoper or
ĠUn ione
ĠUn igeniti
Ñģ Ð¿
ĠK ol
ĠPh aris
ĠQuis quis
Ġtim ent
Ġtim idus
Ġaedific abis
Ġadi ectum
Ġregn ante
ĠCo gnosc
lis ip
Ã© runt
Ġmov eret
Ġexs ilio
ĠSic y
Ġult imus
Ġnoc eret
Ġluc os
Ġconven iri
Ġsing illatim
Ġperfect am
Ġpraecip ere
Ġdon ate
Ġpor tav
Ġadd idit
Ġ16 8
Ġeffic ac
Ġeffic iatur
Ġtrib ui
Ġtrib uitur
Ġfer as
Ġfor san
Ġcond on
Ġcond iscip
ĠTh ec
ĠTh eb
ĠTh ese
Ġpossess or
ĠEr ror
Ġaudi erat
Ġpostea quam
la x
Ġauctor is
Ġed oc
Ġpulch ram
Ġpulch rius
Ġscire s
Ġscire nt
Ġmiser ior
Ġmiser ias
Ġmot a
Ġobs ol
Ġarbit ram
Ġarbit retur
Ġinstit uere
ĠÃ ¡
ĠÃ İ
Ġnol it
Ġnol uerunt
Ġrespond etur
Ġrespond ebo
Ġref erunt
Ġref ers
Ġref ug
Ġredd eret
Ġch ir
Ġch ose
ĠPl ura
ĠPl erumque
Ġbib entes
Ġcogitat ionis
Ġpraest ol
Ġpraest ari
Ġpraest aret
25 0
Ġdiss on
Ġalic ujus
ĠGal los
Ġclar issima
Ġhuman issimi
Ġcan itur
ĠZ ach
ĠZ Ã¡
Ġveniam us
Ġdep lor
Ġden i
ãĥ Ī
Ġbre uiter
Ġsept im
Ġdiu inae
Ð¾Ð ¿
ĠChristi anos
Ġrecip iant
ĠCur io
Ġav ailable
Ġhost iae
Ġsimil itudines
Ġiuris dictio
Ġdelect amur
ĠSc aevola
Ġincip iebat
ereb antur
Ġreper iantur
Ġpauc ae
ĠCar olo
Ġindic e
Ġaccid erat
Ġaccid isset
Ġuid eat
ĠNov ember
Ġport ione
Ġmitt e
Ġk ik
Ġsucc urrit
ĠAs li
Ġingen iis
Ġscript ae
Ġdisput at
Ġinim ico
Ġpraed itus
ãĤ ģ
ãĤ Ĭ
ãĤ Į
Ġteneb antur
Ġaur eam
ĠInt ell
ĠAut hor
Ġperd id
Ġperd uxit
Ġaff erre
Ġiac tus
Ġ20 4
Ġ20 5
Ġ20 7
Ġoff eruntur
Ġini ung
ĠSept ember
Ġambul as
Ġconiunct us
ĠLib ri
Ġignor abant
Ġexspect atio
Ġvers ari
Ġdux isse
Ġcompos itis
Ġvideb amus
usc ulum
Ġmanifest i
Ġmanifest atum
ĠVol o
ĠVol unt
Ġadhib et
Ġadhib entur
Ġadhib endam
Ġhabuit que
Ñĥ Ñİ
Ġordin ibus
lac ement
Î¿ Ïħ
Ġrel ationes
Ġrel ativa
Ġdixerunt que
Ġcompar atio
Ġsimplic itate
ĠPar ts
Ġintra verunt
Ġdis ert
ure um
Ġ197 0
Ġturp issimum
Ġconsum ps
Ġconting ebant
Ġmilit arem
Ġnat am
Ġvix erunt
Ġaestim andum
Ġvac abit
Ġsalv abor
Ġexper ientia
Ġgl ut
Ġpraesid ii
Ġconced am
ĠÎ ³
ĠÎ ļ
Ġlev iter
Ġostend atur
Ġostend imus
Ġostend eret
ĠCl u
Ġrelinqu eret
Ġjust ific
Ġstult i
Ġno ua
ĠBritann iam
Ġir rog
Ġcomed isti
Ġbenefic iis
Ġbened ix
Ut rum
à´ ¨
ĠFac tum
Ġgenerat ionis
Ġamb orum
Ġ198 5
Ġpros picere
Ġsuffic iunt
Ġsuffic iens
Ġsuffic ientiam
Ġot ii
Ġot iosum
Ġtoll erem
Ġprud enter
ĠArist o
ĠLut h
Ġalt ior
ĠAng elus
ĠImper io
Ġdioeces ano
Ġcredit is
Ġcredit or
ĠMin erv
ĠOr do
Ġmori eris
Ġoperat a
Ġoperat ionis
Ġoccup averunt
Ġclam ant
Ġclam are
Ġconsider ari
Ġconsider emus
Ġextrem is
Ġconcess is
Ġfirm iter
Ġobl ita
Ġobl iti
ÏĦ Îµ
Ġrevert atur
Ġdeduc entur
Ġconstr uct
Ġparticip ationem
Ġsuspic atus
Ġsuspic iones
Ġort h
Ġadduc i
omm e
Ġhor re
ĠPol emo
ĠPol oniae
Ġprohib eret
circ a
ä¸ »
ä¸ Ģ
Ġexter n
Ġexter no
Ġ36 5
ĠAcc edit
Ġtribun um
Ġconsc ius
Ġorn ate
Ġduod enique
Ġz odia
Ġconfic ere
Ġconfic ior
Ġhabeb itur
Ġaccept am
Ġ186 1
Ġ186 9
Ġmemin eris
Ġcondit ionem
Ġcondit ione
Ġsepar ata
Ġmont is
Ġmemb rorum
Ġpraepos itus
Ġvocatur que
Ġoccult o
Ġretin et
Ġretin etur
Ġdig it
Ġdig iti
Ġoccas um
Ġinqu iet
Ġconvert ere
Ġuoc ibus
ĠVolupt atibus
ĠFeb r
Ġcern it
Ġdelic iae
Ïĥ ÏĥÎ±
Ġcolleg ii
ĠBo et
Ġcarn es
Ã³ m
Ġdissim ulare
Ġ187 3
Ġoblig ari
Ġdamn ationem
Ġgreg is
Ġgreg ibus
Ġexpet it
Ġadulesc ent
Ġadulesc entiam
Ġinfer entem
ĠSy me
Ġappet itum
Ġoccurr eret
Ġhuc usque
Ġelem ent
Ġeduc ationem
Ġeduc ationis
Ġå ¤
Ġå ¹
Ġexhib endum
ĠPic tav
Ġcongreg avit
Ġcongreg abo
Ġexcell ent
ĠSu fficit
ĠTro i
ĠTro iae
Ġpleb em
Ġprot inus
Ġpraecept o
Ġcathol icam
Ġfab er
Ġadven ae
Ġconstant ia
ĠTemp lum
ĠAlb ertus
Ġdefic ere
ĠCont emnit
Ġinp une
rav erit
ĠBib ulo
Ġcub ili
Ġcub itum
Ġpoet am
ĠXX II
Ġquadr ing
Ġquadr up
Ġmend icus
Ġinsign ia
Ġerud itus
Ġerud iti
ĠRep udiandae
ĠRep lacement
ĠAmeric ana
Ãª n
Ãª runt
Ġ190 3
Ġ190 6
Ġ190 8
Ġ190 9
Ġinfirm um
ï¼ Ī
ï¼ ī
Ġsort em
Ġpraeclar us
Ġdifficult as
Ġpess imo
Ġarm ati
Ġarm iger
ĠJes um
Ġec quid
Ġingredi eris
Ġtradit is
Ġtradit ionem
Ġsanctific ata
ĠMaxim i
Ġrevers usque
Ġpropinqu us
ĠLab orum
ĠLab ore
Ġresist o
Ġexprim it
Ġobliv io
Ġtransl ationem
Ġpasc unt
ĠSyr us
Ġexst ingu
Ġdomest icum
Ġreced ant
ĠÐ¸ Ð·
Ġintellex it
Ġfelic itate
ĠAustr iac
Ġcompl etur
Ġgign itur
Ġcommut are
lav iae
yri e
Ġpun iatur
Ġgrammat icae
Ġgrammat icus
Ġnumer ari
Ġcav endum
ĠSac ra
ĠSac ri
Ġger endum
Ð¾ÑĤ ÑĢ
ĠAem iliae
Ġconcord ia
Ġprocur atorem
Ġsacram ento
Ġnarrat ur
xerunt que
Ġlo oking
Ġorig inis
Ġdescrip tio
Ġplant ae
Ġaudac ia
Ġdesiderat i
Ġdoct issimi
Ġsusp ir
Ġcrudel itatem
dom us
Ġmedioc ris
Ġoppugn andum
Ġsubsist it
Ġumb il
Ġfrum enti
rehens ibilia
ĠHeb domad
Ġfamiliar itate
Ġrevel abis
Ġpiet atis
Ġpraesum pt
Ġchristi ana
Ġchristi ani
Ġcontemn enda
Ġcomment ariis
Ġcommitt i
Ġdefens ionem
Ġdefens ione
Ð¾Ð¼ Ñĥ
ĠCel torum
Ġru ina
Ġnarr abo
Ġpign ori
Ġna utae
Ġuide antur
Ġconson antia
ĠVis igoth
Ġcorpora libus
Ġfals ae
ĠCant ab
ĠGuliel mo
ĠÐ´ ÐµÐ²
Ġtang i
Ġtang et
ĠPhili ppi
Ġcorrig ere
Ġperturb atio
ĠEbor aco
Temp us
Ġvar ias
ĠMus eum
Ġterm ini
Ġerip i
ĠVic inoniae
Ġinvestig atio
Ġsatisfac ere
Ġcolor atum
Ġcontumeli a
Ġcontumeli ae
ĠFal sum
Ġtransf re
Ġabscond ita
Ġcave atur
ĠSa int
Ġdesert ae
Ġinnumer abilibus
Ġvine ae
Ġexpon am
Ġperdit orum
Ġmonast erium
Ġpraevaric atus
Ġgraec i
Ġperegr ini
ĠEvangeli i
Ph il
Ġtransfer ri
Ġproduct Variants
Ġabb ati
Ġprol ong
Ġredit u
ĠInd ia
ĠInd iae
Ġimpon ere
Ġartic ulus
Ant e
Ġgess erunt
Ġabomin ationibus
Ġadiung it
Ġadiung atur
Ġeunt ibus
Ġexcog itavit
Ġrett ulerunt
ĠAntioch us
ĠPhilipp o
Sal v
Ġsta dia
Ġpraetere o
ĠFinn ia
Ġregim inis
Ġaegrot um
Ġosc ulum
irent ur
Ġdeprec ationem
æĹ ¶
Ġtet ig
Ġverec unde
Ġhaeret ici
Ġseg n
ĠAur eli
Ġsecret o
Ġacquir itur
Ġconj ug
ĠGab a
Ġresurrect ione
Ġcathed rali
ĠCass ium
Ġabst ulit
Ġincom modi
rist us
acc ess
Ġfidel em
Ġterritor ium
Volupt atem
Cont ainer
Ġdaemon ium
Ġacquis itum
Ġceler itatem
ĠCorne lio
Ġmit ig
Eccles iae
Ġconfite ar
Acc us
ĠChrys ippum
ww w
Ġteg enda
ĠCain an
Ġconiur atio
Ġmur mur
Ġpotu issent
Ġmediae v
Ġincorrupt ibile
Ġpress uram
Ġcith ar
Ġtal k
Ġincho avit
Ġmodest e
Ġconfec isse
"\"\"\"\"\"\"\"\"\"\"\"\"\"\"\"\"\"\"\"\"\"\"\"\"\"\"\"\"\"\"\"\"\"\"\"\"\"\"\"\"\"\"\"\"\"\"\"\"\"\"\"\"\"\"\"\"\"\"\"\"\"\"\"\ "\"\"\"\"\"\"\"\"\"\"\"\"\"\"\"\"\"\"\"\"\"\"\"\"\"\"\"\"\"\"\"\"\"\"\"\"\"\"\"\"\"\"\"\"\"\"\"\"\"\"\"\"\"\"\"\"\"\"\"\"\"\"\"\
Ġeuen ire
Ġaf ter
Ġpraedest inati
Ġsabb ati
Ip se
Ġpra erog
ĠRosc ium
ĠFin landia
ĠpoÃ« ta
ĠPostum i
Ġconfect ae
ĠSm yr
Ġcommin isc
Ġreplet i
Ġreplet us
Ġproverb ium
Ġconduc ere
å¹ ´
ĠEg one
ĠPub li
Ð¾Ð³ Ð¾
Ist e
iel d
Ġsess io
Ġpervers ius
Ġcancell arius
Iuli us
Ġclem entiae
ãģ¾ ãģĻ
Ġimbec ill
Ġpersev erent
Ġcolumb arum
Ġpraeterm issum
Ġavunc ulus
Ġsyllogis mus
ĠReliqu um
Vel it
Ġnoll em
Ġhar mon
ĠHisp ani
Ġreverter etur
ĠAccus antium
ĠTheodisc ae
ĠAcha ia
Ġgymnas io
Ġgymnas ium
Ġnuc es
ĠRuf us
Ġremans erunt
Ġpug no
ĠImp edit
Ġax is
Ġreb ell
ĠMediol ani
ĠFerdin andus
Ġtyp ograph
ÑĨÐ¸ Ð¸
Ġfreg it
Ġexord ium
ĠDign issimos
ĠTul liae
respon dit
UC H
åĽ ½
Ġrequis itus
ĠGalilae am
Ġexequ iae
Ġincont entae
Ġsuperfl uum
Ġmerid ionali
Ġeici endum
Ġnup sit
Ġves pere
Ġcomplac ui
ĠLater ensis
ĠPhry g
ĠâĪ Ļ
ĠMesopotam iam
CAP UT
Ġreminisc or
ĠProd est
Ġausc ulta
Ġnund inae
ĠCyr us
ĠLips iae
Ġatram ento
Ġlabefac tare
ĠCalend ario
ĠCleopat ra
à¥ ĭ
Ġinnit itur
ĠAra uris
ĠSemp ron
ĠSurg e
Ġperdidic eriti
Ġretex ueris
Ġdulced inem
Ġadprop inqu
Ġiuriscons ultus
ĠAristox eni
Ġdigest orum
eleg anter
Ġtenebros um
ĠSamu hel
Ġ$(" #
Jd g
Ġsina pis
Ġnih ili
Ġquipp iam
! '
! Â»
( "
0 6
> </
A g
B r
B en
B as
B ene
B Ã©
B ulg
C oll
C ast
C orp
C irca
D es
E O
E l
E m
F A
F rat
F ont
G uliel
H on
L V
L ire
L icet
M o
M al
O n
O s
P G
P u
P ol
P oss
R I
R otae
S em
S cip
S ept
S emper
T extus
W h
] ;
a w
a ux
a urum
b iter
c l
d ec
d ownload
f ield
i aria
k on
l ep
m s
n h
n u
n ote
o e
o em
r andum
s burg
t iles
t rans
u endam
u hn
v as
v isse
v ÄĽ
x erat
| |
° Ø´
È Ľ
Ë Ĳ
Ð ĺ
Ð Ŀ
Ø °Ø´
Ù ĥ
à ª
à ¬
æ Ħ
æ Į
æ ķ
ç ľ
è ¦
è ¯
è ĭ
é Ĥ
é Ŀ
ĉ ĉ
Ġ ..
Ġ iturum
Ġ Ñħ
Ġ ÏĦÎ¿
ļ nor
Ġe ar
Ġe amus
Ġe atenus
Ġe quest
qu ick
um e
um bit
Ġa vi
Ġa ulae
Ġs erunt
it anice
us eb
in itas
Ġqu est
Ġqu erim
is o
is io
Ġp ingu
Ġp urum
Ġp ensum
am ph
Ġc s
Ġc ena
Ġn u
Ġn et
Ġn anc
Ġn avi
Ġn ationum
ae a
ae di
st on
st anc
st ema
Ġd ent
Ġd oli
Ġm ae
Ġm im
Ġin hib
Ġin fectum
Ġin access
Ġin eleganter
ic iunt
ic ulus
ur ing
Ġv ap
Ġv ii
Ġv ento
Ġv illae
Ġv oto
Ġt op
Ġt ris
Ġet h
ut ioni
Ġi ret
Ġi rent
re tor
Ġf ist
Ġf ust
Ġf ata
Ġf ram
Ġf rem
Ġf icus
Ġf ores
Ġf anum
Ġf eruntur
Ġf icul
en h
en ius
en ne
es um
Ġh aus
et er
ar im
ar int
ar dum
an ov
an icae
an ea
id ibus
id ens
id itatem
id elis
ec e
ec erim
ul aria
ent iorem
Ġpr and
Ġpr act
Ġpr ioris
ia d
ia h
ib a
ib ia
ol em
ol les
un n
un it
Ġad qu
Ġad de
ed em
ed ita
oc hi
Ġre stant
Ġl u
Ġl an
Ġl ana
Ġquod si
Ġut ere
Ġut ens
Ġut ram
Ġut ebantur
Ġut emur
ion a
Ġquae nam
ere unt
il aus
op ad
ant iqu
Ġsu ffectus
al li
Ġex ult
Ġex quis
Ġex sequi
ĠI is
ĠI ur
ĠI ob
io v
Ġan hel
ĠS ant
ĠS erm
ĠS uam
ĠS ubi
ag en
ĠC ret
ĠC ann
ĠC olis
ĠC ON
Ġdi oc
Ġme g
ĠD A
ĠD at
ĠD edit
ĠD ivis
Ġqui es
Ġqui eta
Ġdic enti
est e
end unt
Ġali m
Ġali menta
Qu ibus
Qu orum
Qu aecumque
Ġper re
Ġprae erat
Ġprae nunt
itur ae
Ġb c
Ġb ro
Ġb racch
ist e
ist s
ob ile
ĠP i
ĠP ra
ĠP ob
ĠP erc
Ġsed ebunt
Ġg a
Ġg n
Ġg ood
Ġg eograph
Ġco unt
Ġco limus
ĠQu ote
ir am
Ġhab eres
Ġhab iturum
Ġhab uerint
Ġtu li
eg ner
Ġsc ivit
iv ere
Ġpot um
Ġpot entior
gn y
und urus
ĠM ent
ĠM ov
ĠM ox
ĠM old
ĠM CCCC
ĠM elior
Ġcom itibus
Ġ( "
Ġetiam ne
Ġse e
Ġse io
pt i
Ġab err
Ġab usus
Ġab eced
Ġvid erer
Ġu an
Ġ2 10
Ġ2 13
Ġ2 19
Ġ2 15
Ġ2 20
Ġ2 25
Ġ2 30
Ġr os
Ġr ight
Ġr asa
Ġop tare
Ġop ifex
Ġer cisc
ĠL i
ĠL ith
ĠL oca
ĠL andarum
ĠL eden
ĠL incoln
ell at
ell as
ĠH ec
ĠH uc
Ġam ov
Ġam bi
ĠDe v
ĠR od
ĠR ip
Ġpag o
Ġpag um
ĠF ul
ĠF est
ĠF av
ĠF actionis
Ġpro ident
Ġpro lix
Ġat ria
Ġpar ric
Ġte p
Ġte ipsum
Ġinc ons
Ġinc ensa
Ġaliqu ip
Ġvol entes
Ġvol ebant
Ġvol uerint
ĠT eg
Ġcons ect
Ġcons ulis
Ġcons uerunt
Ġcons olid
Ġim itatio
ĠV es
ĠV as
ĠV ig
ĠV obis
ĠV erc
ĠV asc
ĠV inum
ĠV ulc
ĠV ER
ĠV eritas
Ġma ii
Ġsol iti
Ġsol utio
Ġun icus
Ġun ivoce
ust rum
ĠG ro
ĠG oth
ĠG enus
Ġint ulit
Ġint uitus
Ġprop ior
Ġprop ero
Ġprop erant
Ġprop itium
ĠB i
ĠB ut
ĠB ra
ĠB rev
ĠB aet
ĠB ÅĻ
Ġcont ulerunt
Ġcomm issis
âĢ ¹
âĢ į
Ġfili arum
Ġor amus
Ġor di
Ġor atorum
Ġlib ellis
Ġres pici
Ġsec urus
Ġsic que
Ġpat ebit
fect o
int h
ro e
Ġst ric
Ġst olis
Ġanim antia
ran ea
Ġcre at
Ġcre ari
Ġmin imis
ate or
ient iarum
Ġleg erunt
Ġleg entibus
Ġfec eras
Ġven alem
Ġven iendum
Ġant i
Ġloc os
ator ium
ire ct
Ġ19 2
Ġ19 31
ĠO lisip
Ġsp iss
Ġsp ars
Ġsp atii
ĠIn noc
Ġus itata
Ġnum en
Ġser m
Ġsub ici
Ġsub acta
Ġsub stanc
Ġaud iatur
Ġ3 50
Ġ3 88
Ġob d
Ġprim itiae
esc at
Ġimp ium
Ġimp ugn
Ġimp ressa
Ġimp raes
Ġquibus libet
ad or
Ġdu e
Ġnatur arum
Ġdeb uerit
Ġdeb ebam
Ġdeb ebatur
Ġdeb itor
Ġdeb ebitur
ĠSed i
Ġgen u
Ġgen eri
Ġgen itum
Ġgen ui
Ġgen imine
Ġag e
Ġag erem
Ġag entis
Ġag ebatur
Ġag ros
ĠAn n
Ġac uta
Ġvoc i
Ġvoc avi
Ġvoc abitur
Ġvoc abuli
Ġput abis
Ġurb anis
Ġpec orum
Ġtr am
Ġtr iduum
Ġcog antur
Ġrerum que
Ġcur is
Ġcur em
Ġcur ios
Ġsuper at
Ġsuper iora
Ġrem is
Ġrem ove
Ġcap iuntur
Ġhis p
Ġexp ecto
Ġexp ressa
Ġexp ressum
Ġiudic andum
Ġciv itat
Ġciv ilem
Ġamic ti
Ġdiv ortium
Ġiur atum
Ġiur andum
Ġiur amentum
Ġrep res
Ġrep rehendi
Ġrep entina
ali m
ĠÂ Ĺ
Ġ18 19
ug no
Ġdec ursus
Ġas pexit
Ġdes erat
Ġcogn ito
ĠFranc is
ĠFranc icam
Ġsent iamus
Ġserv itio
Ġserv avi
Ġserv ivit
Ġconc epta
Ġconc urrent
Ġeos que
Ġrec on
Ġgrat us
Ġscrib a
Ġact orum
Ġact uum
Ġusque quo
Ġdel ub
Ġdel atum
Ġdel ici
Ġdel inqu
Ġdel ectare
iet as
ĠCh in
ĠCh iliae
ĠÐ ĳ
ĠÐ ł
Ġpublic anis
Ġinv isit
Ġinv ictus
Ġinv ectio
Ġviv e
Ġviv am
Ġviv es
Ġviv entes
Ġinf antibus
Ġfid enter
Ġsequ ere
Ġins er
Ġins pect
Ġins aniam
Ġten endum
Ġten emus
Ġten ue
Ġten eretur
Ġcol oris
Ġcol oni
Ġplac eo
Ġmis isse
Ġcred eret
Ġcred enda
Ġdef uisse
Ġep ic
Ġep hem
Ġsap it
Ġdoc to
Ġdoc uerunt
Ġconsequ entia
sit que
Ġprov isa
Ġexc er
Ġexc epit
Ġexc epta
Ġexc itare
Ġvis urus
Ġval ebit
Ġmolest iam
Ġneg l
Ġprob etur
Ġprob itatem
Ġprob abilis
Ġpa us
Ġcae dem
Ġinven iretur
ĠLat inarum
Ġprincip e
Ġvest rorum
Ġform ale
Ġfr actum
Ġfactum que
Ġnesc iat
Ġquaer endi
Ġquaer entes
vers us
ue f
Ġduc i
Ġduc is
Ġduc et
Ġduc tor
Ġeg eat
Ġeg red
Ġeg issent
Ġeg omet
Ġsanct issimo
Ġund ec
12 9
Ġext ant
Ġnecess itudinem
Ġtest atur
iti Ã¦
Ġabs entis
Ġintelleg amus
Ġsatis d
Ġexerc itio
Ġexerc itium
Ġvic ta
Ġvic imus
Ġvic ini
Ġmut atus
Ġit s
ĠEccles iis
ĠEccles iarum
ĠJ anu
Ġhum um
Ġhum ilis
Ġhum ilitate
Ġcognosc e
Ġcognosc unt
Ġcognosc ite
Ġtra i
Ġord ini
ĠMar d
ĠMar ius
Ġaed ilibus
Ġappell abatur
Ġpet itis
Ġpet iit
Ġind utiae
Ġreliqu isset
Ġstud ent
Et si
Et enim
Ð¸ ÑĢ
Ġw ww
An imi
Ġsen escit
Ġlong itudo
str ing
Ġconstit it
Ġtui que
Ġglor iatur
13 2
13 3
13 5
ĠEx plic
ĠEx onae
Ġtant arum
Ġtant opere
Ġintellig entiam
Ġintellig entiis
Ġmens us
iant es
Ġ15 1
Ġem ori
rah ere
enta libus
Ġpul vis
Ġ17 1
Ġ17 4
Ġ17 05
Ġpraedic tum
Ġpraedic atio
Ġpraedic ationem
Ġpecc ator
Ġmuli erc
Ġaccus atoribus
Ġcontr act
Ġlat ae
Ġlat ius
Ġlat inum
ãģ ı
Ġspec ul
Ġspec ulat
Ġspec iebus
Ġtrans ig
Ġtrans mis
Ġsignific ent
Ġadm ittere
Ġsoc ial
Ġrect o
ĠCum undurus
ĠMa ior
Ġpon s
Ġaequ itatis
ĠPat av
ĠPat res
ĠK olos
ĠK osoviae
ĠK vÄĽ
ĠAb bat
ĠAb ba
lo yd
Ġtim orem
Ġtim ide
Ġtim eatur
Ġsimul atione
Ġaedific abitis
ĠGerman ice
ĠOmn em
ĠOmn ibus
ĠOmn ino
Ġquant itatis
Ġepiscop is
ĠIo atham
crip tus
crip to
ev erunt
Ġdiff erat
Ġdiff usa
ĠSic uli
Ġdist incta
ider ant
Ġult imam
Ġcontin ere
Ġconven iret
Ġth an
Ġsing ulus
Ġperfect o
Ġquaest ores
Ġpor rig
Ġadd et
Ġ16 7
one y
Ġeffic iam
Ġunivers am
Ġpac ifice
Ġfer rum
Ġfer amus
Ġfer enda
Ġadvers aria
Ġadvers ario
Ġantiqu issima
Ġtrad o
Ġtrad id
Ġbeat itudinem
Ġmir ific
Ġmir abuntur
Ġmir abili
Ġmir acula
Ġmir abiliter
ĠTh ars
ach i
ach us
Ġmon ere
Ġmon uit
ĠReg io
Ġgrav itas
Ġmand are
Ġmand ati
Ġed itum
Ġed untur
Ġed uxerunt
Ġlic ent
Ġaetern ae
Ġsecund is
Ġarbit rii
Ġinstit ut
Ġart iculum
ĠÃ ®
ĠÃ ļnor
Ġreprehend at
Ġrespond emus
Ġspir itibus
Ġredd unt
Ġredd atur
Ġredd ita
Ġprof eruntur
ĠPl ut
Ġfin itas
Ġgaud eat
Ġpraest a
uetud ine
Ġprofect ae
Ġcal end
Ġlabor ant
Ġclar itatis
Ġclar issimum
Ġclar issimi
Ġlect ione
eh em
ĠZ elph
Ġprom ulg
Ġprom issa
Ġdep rehensus
Ġdict atura
Ġerr oris
Ġcop iose
Ġatt igit
ĠAegypt ios
ãĥ ĩ
Ġsept aginta
aus e
Ġexistim atione
Ġexistim avi
Ġdei ectum
Ġav us
ros oft
Ġhost ili
Ġsimil itudine
ered itas
Ġmagist ros
ĠSc iebat
ĠSc yth
Ġsalut at
Ġeff ecerit
Ġon era
Ġreper ies
Ġreper tae
Ġsper ant
ĠCar m
Ġy mag
Ġindic ant
Quid am
Ġhonest atem
Ġproxim os
Ġcong ress
Ġcong ressus
Ġaccid erunt
Ġaccid eret
Ġmeli oris
Ġcupid itatis
Ġcupid itatibus
ĠCat ulo
Ġport u
Ġport is
Ġport ae
Ġmitt itur
ĠAs sumenda
Ġscript uram
Ġdisput o
Ġdisput ationis
Ġpriv ato
Ġarbitr arer
Ġdefin ire
Ġpropos uit
Ġpropos itionis
Ġpropos itiones
Ã¡ c
Ġterr ibilia
ĠPer g
Ġaff ecta
ĠSpir itui
Ġmar m
Ġimag inis
Ad d
Ex t
Ġnav e
Ġnav icula
Ġaug et
Ġaug mentum
Ġoff ert
Ġsuas it
Ġconiunct is
Ġconiunct ionis
ĠLib ro
Ġinterrog atus
Ġinterrog abant
Ġads c
Ġdivis um
Ġdim idio
Ġcast ellum
Ġexspect andum
non ne
Ġhered e
Ġcompos iti
âĢ¦ )
Ġass ert
Ġass imil
ĠNum idiae
Ġrelig iosi
Ġperf ugium
ĠVol c
Ġadhib enda
ĠIacob o
Ġperven iant
Ġsubstantia le
Ġorient e
Ġarch aeolog
elli um
Ñĥ ÑĪ
Ġtut ius
Ġsch is
Ġordin arius
Ġla ici
Ġ24 5
Ġaffect iones
Ġpossid es
Ġpossid ebat
Ġpret ia
Ġpret ios
Ġcens us
Ġcens uit
Ġcens entur
Ġarc em
Ġrel ata
Ġcompar atum
fac tus
Ġasper a
Ġpass word
ĠIp si
ĠPar oec
Ġcunct os
ĠVid es
ĠThe olog
Ġinvent u
Ġcustod imus
Ġquaes iv
Ġ26 0
Ġ26 8
Ġvinc unt
Ġturp itudinis
Ġmer eri
Ġcreatur as
ÃŃ jen
Ġprophet iae
Ġconting unt
Ġlaet itiae
Ġargum entis
Ġ28 4
Ġaudire nt
Ġgener al
null um
Ġvac uitatem
amp s
Ġcapt i
ĠVen etiae
Ġsalv ator
Ġsalv avit
ĠUrb e
ĠUrb em
ĠIoseph um
Ġgl oss
Ġpraesid ia
Ġpraesid ens
Ġconced as
Ġconced imus
Ġcrim inibus
ĠÎ ´
Ġvul nus
Ġ30 4
Ġ30 6
Ġ30 7
ãĢ ī
ĠCl odi
ĠCl ass
Ġrestit uta
Ġrestit utus
Ġecclesiast icarum
Ġecclesiast icas
ĠLuc ret
Ġjust itia
Ġtac ite
Ġpert im
Ġangel os
201 6
Ġpere undum
Ġconsec rata
Ġsacerd ote
eatur es
Ġir ration
ĠDol orum
Ġcomed eres
Ġcorrupt ionem
Ġsempiter nae
à´ ²
à´ ³
Ġacced ent
Ġeleg antia
Ġfest i
ĠEpiscop is
Ġgenerat im
Ġquad rata
Ġconsol atus
Ġindig enae
Ġcib aria
Ġspect aculum
Ġoperat i
Ġclam ore
Ġconsider anda
Ġsolv eret
Ġpolit icae
Ġpolit ica
Ġconvers um
Ġfacies que
Ġapostol um
Ġpossib ilis
Ġconcess eris
Ġrelic ti
Ġori undus
ĠSto icos
Ġobl ationem
Ġobl ationes
Ġrepet it
Ġiucund itas
Ġillae que
ĠSim onis
Ġimperator iae
Ġrevert ere
Ġobi ecti
our s
Ġsil va
Ġcult orem
Ġhor rea
Ġiuv entus
Ġprohib etur
Ġtotius que
Ġdemonst ratum
ĠRe ipublicae
Ġlegit imus
ä¸ į
Quam vis
ĠLe vit
Ġedit io
Ġ36 3
Ġmunicip io
Ġrecord atus
Ġrecord ari
Ġov is
Ġconp ens
ĠAcc ip
Ġtribun o
ĠPers as
Ġsumpt ibus
Ġtract atu
Ġconclus ione
Ġur atur
Ġz u
ĠVal erius
Ġaccept urus
Ġcondit ionibus
Ar ist
Ar rotundimentum
ĠAlp es
Ġexig uo
Ġpercip it
Ġimped ire
ĠInfer iorem
ĠNo Ã«
Ġdecre vimus
pl ures
Ġinqu iren
Ġartific ium
Ġagnosc itur
Ġcern i
Ġmerit i
Ġmerit us
Ġveni endo
ĠIst am
ĠIst uc
Ġquaereb ant
Ġcolleg io
Ġinterpret atur
Ġinterpret etur
ĠQuint e
Ġdiscess um
Post ea
Ġquoc unque
Ġdissim iles
ĠMet rop
Ġ187 5
Ġoccid isti
86 6
Ġdeclar ata
Ġabund at
Ġaccess io
Ġimprob i
Ġimprob um
Ġimprob os
Ġfing as
Ġventur am
Ġventur ae
ĠIust us
ĠIust itiae
Ġtrist itiae
Ġoccurr ere
Ġpraeced enti
Ġdetermin atur
Ġdetermin are
Ġhosp ites
Ġinuen it
Ġdivid endo
Ġuolunt atis
arch us
Ġ189 0
Ġexcell entiam
Ġdilect ione
Ġpollic entur
Ġcathol icus
Ġadven iens
Ġquer atur
Ġador avit
Ġador abunt
ĠMarc ell
ĠMarc elli
ĠAlb um
Ġdefic iunt
ĠFort una
ĠAlexand riam
Ġpropon it
Iac op
Ġvindic andum
Ġlign eum
ĠOctob er
Ġâ ĸ
Ġinsign i
Ġinsign es
Ġvulg us
Ġerud itum
Ġconfus i
Ġnegleg entia
Ġconcupisc entia
Ġhodiern us
Ġnef aria
Ġoeconom ia
Ġoeconom icae
Ġpraecl ari
ĠLatin orum
Ġdidic erim
ĠEv el
Ġpraepar atio
Ġcommemor ationem
Ġpraeclar ius
Ġinm ut
Ġconfit emur
Al iter
Ġfrig idum
Ġtradit ione
Ġvad o
Ġuerb orum
Ġnut u
Ġnig er
ĠSum mus
ĠSum mae
Ġincred ibili
Ġservit utes
ĠIoh annis
ĠLab ienus
Ġcler icis
Ġcler icos
ĠApostol orum
Ġtene am
Ġnequit iae
Ġinduc itur
Ã´ n
Ġpasc uae
Ġrap uerunt
Ġsuffrag iis
Con c
Ġexst incta
Ġmatrim onii
Ġschol ast
Ø§ Ø
Ġvan itatis
Ġreduc i
Ġeae dem
ĠMal o
ĠMal um
Ġspon sum
Ġcollig i
ĠTheod orus
Ġdulc ius
ĠOp pi
Ġaccipi endo
Ġfelic itatem
Ġcontent ionem
Ġcontent iones
Ġcommunic ant
ĠÐº Ð¾Ð¼
Ð¾Ð² Ð°Ð½
Ġadministrat io
ĠHen rico
Ġconiung ere
Ġconiung untur
Ġcaec itas
ĠAene ae
esper asc
Ġgrammat icam
ĠLingu am
Ġger endi
Ġillumin are
ĠBe atum
Ġprocur atore
Ġnarrat io
Ġmultiplic atur
Ġnonn isi
Ġinsid iantem
Ġignosc e
Ġignosc o
Ġtemper antia
ä» ¥
Ġplant atum
Ġ179 7
Ġthes auros
ĠPlat oni
Ġcrudel itas
ĠCae lium
Ġdemonstr andum
Ġumb ram
Ġfrum ento
ĠAntioc ho
Inter pretatio
ĠDom us
ĠAnglic us
Ġcalam itatis
Ġcalam itatum
Ġiunct ae
ĠLae lio
Ġsplend orem
Ġcod ice
Ġcomment arios
Ġdefens ionis
Ġtrah ere
Ġpulcherrim um
Ġferm e
Ġru inas
Ġplan ius
Ġfornic atae
Ġantepon at
Ġrede unt
sel f
Ġrid ens
Ġuxoris que
Ġindivid uum
Ġindivid uis
Ġconsiderat ionem
Ġintent ione
Ġcanon icam
Ġsect am
Ġsect abantur
Ġexaud ias
Ġconfess ione
ĠConc ilii
Ġcelebr abitur
Ġeb ur
Ġeb riet
ĠIap oniae
Ġterm inum
Ġdevor avit
á¿ ¦
Ġheb rae
Ġcompon endo
Ġsupp edit
ĠUnivers a
ĠMil onis
ĠMil ites
Ġpup illum
Ġconfer endum
Ġglori atus
ĠHier oboam
Ġtyran nus
Ġimit ari
Ġdecess isse
Ġnorm a
Ġinnumer abilis
ĠSus cipit
Ġpersequ itur
Ġpersequ eris
Ġgraec a
Ġcoeper at
Ġual et
Ġtermin atur
Ġornam entum
Ġcorpor alis
Ġcorpor alia
ez en
Ġced rinam
ĠNaz istae
Ġindustr iae
Ġpunct is
Ġinan ima
Ġaspic ere
ĠTub ulo
ĠArg ob
Ġuirtut is
Ġuirtut em
ous e
Ġtel um
Ġiung untur
Ġsuad ere
ĠSap ientia
Th is
åĪ ĩ
Ġvect es
ĠCa iet
Ġrust icorum
Ġconscrip ta
Ġplor at
Ġinterfect is
Ġconclud itur
Ġexcog itasse
ĠClaud ii
Sal ve
ĠFlor entiae
Ġcarm inibus
ĠPlanc i
Ġmyster io
Ġmedit ari
Ġoffend itur
ĠExerc i
Ġtul isse
ĠTri arium
Ġremitt unt
ĠPhilosoph us
Ġobsc urum
Ġsuppon it
Ġresurrect ionis
Ġrhet orum
ĠLam ech
Ġincend ium
eff erson
variant s
Ġchar itas
Ġchar acter
Ġseptentr ionali
Ġhiem s
Ġelev ati
Ġflagit iose
Ġincommut abilem
Volupt ate
Cont ra
æĪ ĸ
æĸ ĩ
Ġbo ok
ĠMD CCCC
ĠPeripatet ici
Ġvendit ione
Ġconsoc iata
Ġlibid ini
Ġstir pis
Ġdere liquit
Ġtor que
ĠTib erius
Ġdup lo
Ġtrip lex
Ġremed ia
Ġ140 4
Ġadiut or
Ġmix tio
Ġiurisdict ionis
Ġbrach ia
uter onom
Ġherb is
Ġsublim itas
ĠSalom onis
Ġpus illum
ott ing
Ġdeclina verunt
Ġconiur ationem
Ġmasc ulum
ĠTol le
ĠDolab ellam
Ġbenedixit que
ĠLoc utus
Ġgratul or
Ġcontrist atur
Ġdiffin itionem
Mult i
Ġeuen iunt
Ġliturg ici
ĠMath at
Ġsei uncta
Ġobj ectum
Ġobsequ ium
Ġdecip it
Ip sum
Ïī Î½
ĠIon adab
Ġgent iles
ĠRosc ius
Ġsuade as
Ġdiscipl inis
Ġfidelium ve
htt p
Ġintegr itate
Ġgeomet ria
ĠSina i
Ġcoop erantur
Ġpostr emus
Ġclav es
Ġmedicam enta
Ġfluct u
Ġattul eris
ĠMichae lis
ĠMercur ium
à· Ĭ
Ġbu y
Ġcoaeter na
Ġmilli ones
Ġpericulos a
ĠCapit ol
ĠArchid ioeces
Ġpoc ulum
Ġnas um
Ġinert iae
Ġrost ra
ĠBrix iae
Ġstet it
Ġá½ ģ
Nesc io
Ġadquir itur
alog us
ĠBat av
word s
Ġnoll et
ĠDub en
Ġmax illis
Ġtrit icum
ĠAccus amus
len gth
ĠNim irum
Ġmai estatis
Ġinterval lo
Ġsemit onium
Ġkal endas
Ġascens ura
ĠLaod iciae
Ġtorm entum
Ġexha ur
Ġabys so
ĠTrin itate
Ġconsurg ens
Ġspha era
ĠArchiepiscop us
ĠBrunsv ici
åĮ º
ĠSeg or
Ġabdic avit
Ġrecurr ant
Ġlacess itus
Ð°Ð¹ ÑĤ
Ġfideicomm issum
ĠParisi orum
???????? ????????
Ġprouinc iae
Ġvov erit
Ġauth ent
ĠLo ide
Ġfestiv iorem
ĠAug usta
ĠPisc atoris
ĠBy zant
ĠMalmog ia
1450839 56
ĠÄĮerven ec
ĠCed ar
ĠMic rosoft
ĠHo egner
ĠQuaes ita
Ġlatron es
Ġthron o
Homin es
ĠfÅĵ dus
ĠLux emb
Ġextr erno
Ġferr iv
Discip ulus
ĠSul picius
Marc vs
Ġcalciam entis
Ġsynagog a
ĠTry get
Ġmad uras
escrip tion
Inv estigationes
Ġke ep
Ġmercenn arii
ĠSucc essor
Ġpercut iam
ĠElisab eth
ĠThemist oc
Ġincur v
ĠVerb o
ãĤ¦ ãĥł
Ga ius
ĠQuoc irca
Ġoccurre bat
Ġeph ipp
Ġflet u
ĠéĿĴ ç´Ļéĭ¼
Litter ae
ĠEun ice
Ġconflat ilem
Ġindoc tum
á¿Ĩ ÏĤ
ĠUrg ent
Ġadimp leo
ĠElector alem
Luneburg ensem
famili as
ç½ ĳ
usin ess
Ġadip isicing
ĠLuneburg ensis
Ġamar itudine
ĠCarth agin
ĠÅĺ ÃŃjen
Ġselected Product
Ġpellibus que
ĠÚ¯ Ø°Ø´
Hen ricus
åŁ İ
Ġinlic itum
ĠSr pen
ĠList opad
Ġcapill oque
Ġarbitram ur
ĠZÃ¡ ÅĻÃŃ
ĠSyme on
Scip io
Ġercisc undae
ĠBÅĻ ezen
ĠKvÄĽ ten
ĠÚ¯Ø°Ø´ ØªÙĩ
! âĢĿ.
) {
+ +
, ..
/ .
3 50
; [
A V
A ll
B ello
C aes
C aus
C erte
D et
D ies
D uae
D acoroman
E G
E orum
E lement
F am
F inis
F ieri
F usce
G ame
I B
J os
L o
L ex
M us
M ortuus
N atur
N ote
P al
P ecun
P ellentesque
R ed
R est
S cr
S crip
T im
T ext
V et
V ill
V erba
] )
a j
a qu
a im
b ut
b unt
b amus
b ack
b oro
c m
c y
c am
c ess
c oni
d ata
d ay
e an
f en
f aliae
f ree
g is
h is
h anc
h odie
i ed
i ratus
k es
k et
k el
n ac
n emo
o is
o ff
p ub
p raec
r ere
r alis
s per
s erit
s crib
s aces
t re
t os
t ulit
t itor
u istis
v in
v erum
v erint
x issent
y se
y les
y lus
z on
z ed
z are
ª ãĥĸ
¸ ãĤ¦ãĥł
Å ĳ
Ì Ĩ
Ð ĳ
Ð ĵ
Ð ļ
Ñ Ĭ
Ó ©
á ¼
å §
å ī
å ĳ
æ º
è ª
è ¾
é ĥ
é Ĺ
Ġ ^
Ġ omin
Ġ Ñĩ
Ġ à¤
Ġ ÏĨ
Ġe ra
Ġe undum
Ġe lid
Ġe recta
qu in
qu et
um um
er en
er el
Ġa ri
Ġs qu
Ġs om
Ġs agin
Ġs arc
Ġs entiant
it ta
in ec
in ata
in ario
Ġqu or
Ġqu onam
Ġp od
Ġp lic
Ġp uro
Ġp ila
Ġp abulum
Ġp inxit
Ġp omme
at ivam
am um
am ar
Ġc b
Ġc y
Ġc er
Ġc ass
Ġc rast
Ġn atio
Ġn iti
Ġn ervi
Ġn edum
Ġd b
Ġd os
Ġd amus
Ġd entibus
Ġm m
Ġm Ã¡s
or os
or ld
Ġin ique
Ġin num
Ġin ania
ic les
ic ii
ic Ã¦
ur t
ur ea
Ġv a
Ġv om
Ġt utus
Ġt itium
ut orium
re ad
re stem
Ġf ol
Ġf ud
Ġf eris
Ġf oli
Ġf aut
en on
Ġest a
im onium
im br
Ġh ard
Ġh ow
Ġh tt
et z
et ric
ar itas
ar rae
an on
an il
an ima
an ensis
id era
ec om
ec isse
ul f
ul sit
ul sa
ent ionem
ent aria
Ġpr id
Ġpr ag
ib ilibus
ol et
Ġad gn
Ġad ult
Ġad dic
Ġad sumus
Ġad fectum
Ġad numer
Ġad inv
oc i
oc um
Ġre tor
Ġre vi
Ġre lev
Ġl am
Ġl itt
Ġl ente
se at
ab ilitatis
Ġut etur
Ġut erentur
el t
iam que
Ġes paÃ±
Ġquae ve
Ġquae vis
Ġsunt et
il um
il it
ot oc
op ag
Ġcon atum
Ġcon di
Ġex empt
Ġex amini
Ġex ierit
ĠE ffic
ĠE mp
ĠA u
ĠA us
ĠA le
ĠA eque
ĠA udi
ĠA elius
ĠA uctor
ĠI C
ĠI ucundum
Ġan cip
Ġan glice
ĠS ion
ĠS and
ĠS ert
ĠS irm
ĠS crip
ĠS te
ĠS ard
ĠS ive
ĠS ortes
ĠC O
ĠC P
ĠC u
ĠC inc
ĠC up
ĠC lem
omn ibus
Ġdi uis
Ġme ipso
ĠD io
ĠD ip
ĠD ate
ĠD istinctio
Ġqui eti
Ġdic ione
Ġdic atis
Ġdic etis
est ius
ih el
end itur
end ens
Qu em
Qu idem
Ġper a
Ġper cur
Ġper ivit
Ġper acta
Ġfac ilia
Ġfac ilem
Ġfac ete
Ġfac ilitate
Ġb ed
Ġb lack
atur abilia
ob e
ob ar
ect an
ect ion
ect ionem
ĠP S
ĠP re
ĠP unt
ĠP ann
ĠP oll
ĠP age
ĠP anam
ĠP lease
Ġsed ent
Ġsed itionem
per unt
omin g
Ġg et
Ġg eh
Ġg rec
Ġg lac
Ġen ar
Ġco al
Ġco acta
ĠQu inti
ĠQu aecumque
ir us
Ġhab erentur
Ġhab uimus
Ġpos itae
Ġpos uisset
ĠN i
ĠN in
ĠN ar
ĠN ord
ĠN ota
ĠN ationalis
ĠN epos
ĠN orth
Ġsc op
Ġsc ita
Ġsc orp
uc und
uc ti
Ġpot entem
Ġpot ueris
aec at
ĠM id
ĠM eg
ĠM uli
ĠM ons
ĠM emini
Ġcom item
Ġap es
Ġap tavit
ort io
Ġ( '
Ġse a
Ġse orsum
Ġab rip
Ġab ierunt
Ġab alien
Ġvel itis
Ġu h
Ġu inc
Ġu indic
Ġ2 17
Ġ2 23
Ġ2 29
Ġ2 36
go viae
Ġr h
Ġr arum
Ġr ivum
Ġop ertum
Ġid e
Ġid on
Ġer gone
ĠH oll
Ġne ptis
Ġam emus
Ġam entem
Ġam abo
Ġam issio
ĠDe lig
ĠR ic
ĠR en
ĠR he
emp ta
emp lum
ĠF re
ĠF ig
ĠF iat
ĠF ide
ĠF red
ĠF rib
ĠF oro
Ġat tr
Ġat rio
Ġpar iunt
Ġpar ies
Ġpar abiles
Ġinc urr
Ġinc erti
Ġinc urrit
Ġinc erto
Ġinc umbit
Ġaliqu atenus
Ġcu ivis
Ġvol emus
ĠT or
ĠT om
ĠT ad
ĠT itus
ĠT ok
ĠT otum
ĠT iro
Ġcons ortium
Ġnec avit
Ġqua ere
lib er
ior que
ess io
Ġsol eant
Ġsol utionem
Ġun s
Ġun icam
Ġtemp ori
ing er
ust us
ĠG ar
ĠG ris
ĠG entes
ĠG nae
Ġint emper
ĠB ow
ĠB remae
ĠB revi
ub ium
Ġcomm isit
Ġmod orum
âĢ ĭ
ov icus
ig e
ig rationem
Ġfili abus
Ġinter pos
Ġlib eretur
Ġlib rari
Ġres ol
Ġsec reta
ĠEt h
ĠEt rusc
inc itur
Ġpat ent
Ġpat eris
Ġreg iae
atum que
Ġst abile
de am
Ġmin uit
Ġmin uere
Ġar mon
Ġcor io
Ġleg atio
Ġfec istis
Ġven erint
Ġven erant
Ġven issem
Ġven isses
ers i
ap se
Ġloc utiones
Ġ19 1
ĠO ratio
Ġdol ens
Ġdol endum
ĠIn do
Ġincol atus
Ġnum mis
Ġsub it
Ġsub tem
Ġmult itudini
Ġaud itu
Ġaud issent
Ġaud eas
Ġaud eam
Ġ3 10
Ġ3 22
Ġ3 20
Ġ3 28
Ġ3 29
Ġ3 44
Ġ3 38
Ġ3 47
Ġpost eri
ific i
ific at
Ġob ire
Ġob ici
Ġob liqu
Ġman es
Ġman erent
le verunt
Ġimp ar
Ġimp un
Ġimp lor
Ġimp rop
Ġimp ulsu
ad dit
ad elph
ĠU N
Ġdu Ã¦
Ġsim onia
iat ionem
Ġdeb ebunt
ĠSed em
pon o
Ġag itat
Ġag endo
Ġag ente
Ġag rorum
aud i
ĠAn im
ĠAn imum
ĠAn ni
Ġnull atenus
Ġac r
Ġac riter
Ġpraes idi
Ġpraes cit
Ġvit i
Ġvit etur
Ġvoc etur
Ġvoc ales
ch us
ch is
ch en
Ġput ent
Ġput ares
Ġurb an
Ġtr ices
Ġcog untur
entur um
Ġcur ata
Ġcur ator
Ġcur ric
Ġcur asset
Ġsuper atus
Ġcap iti
Ġcap ax
ern ae
Ġexp resse
Ġmal os
Ġmal uit
Ġiudic ati
Ġiudic avit
Ġiudic abis
Ġei ectus
Ġciv ilia
Ġamic issime
Ġamic issimus
Ġdiv isi
Ġdiv item
Ġdisc am
Ġdisc edit
Ġdisc endo
Ġiur averunt
Ġrep rom
Ġrep ugno
Ġnomin ari
Ġnomin atum
Ġnomin amus
itud inibus
ĠÂ Ń
Ġ18 3
Ġ18 4
Ġ18 23
Ġ18 30
Ġ18 29
Ġ18 33
Ġ18 37
Ġ18 43
Ġ4 01
Ġ4 35
ug ae
Ġdec er
Ġded issem
Ġas otos
Ġsua deo
Ġcomp le
Ġdes um
Ġdes pon
Ġdes inis
Ġdes ino
Ġdes pici
Ġcogn ata
Ġcogn ationem
ĠFranc of
ĠFranc ogal
Ġsent iri
Ġserv at
Ġserv iebat
Ġserv ientem
Ġomnis que
Ġrec edit
Ġrec epta
Ġrec olo
Ġmol li
Ġlit is
Ġlit ium
Ġgrat ae
Ġscrib ebat
Ġscrib ebam
Ġsemper que
Ġconf ert
Ġconf idunt
Ġconf essus
Ġconf lixit
Ġdel ine
Ġdel ata
ĠCh a
ĠCh am
Ġinv itavit
Ġiust issimum
Ġiust itias
ret is
Ġinf eriore
ĠSi quidem
Ġnot ius
Ġnot issimum
Ġcl usum
Ġcar is
Ġcar issimus
Ġsign i
ĠAm bit
Ġins it
Ġins im
Ġins pic
Ġins pex
Ġins aturabilia
Ġten eret
Ġten ebatur
ĠCom mod
Ġcol untur
Ġcol oniam
Ġcol lum
Ġcol enda
Ġcol uisti
Ġplac uerat
Ġpers aepe
Ġpers olv
Ġmis ere
Ġmat ut
Ġlab itur
Ġlab ef
Ġcred eretur
Ġpraeter ii
Ġpraeter ierunt
Ġdef endo
Ġnov erca
Ġsap iebam
Ġsap ien
ura stis
Ġdoc ebis
Ġneg atur
Ġneg abat
Ġprob et
Ġprob amus
Ġprob abiliter
Ġpa ulus
Ġpa ulis
Ð° Ñı
Ġrespon deo
Ġred actus
Ġprincip i
Ġvest itum
Ġvest iuntur
Ġsumm itatem
Ġform e
Ġform ata
Ġfr uit
Ġfug iens
Ð¾ Ðµ
Ð¾ ÑģÑĤ
Ð¾ Ñĩ
ĠAr iob
Ġj un
Ġj ud
Ġj ucund
10 2
Ġnesc is
Ġquaer ant
Ġquaer emus
Ġquaer endus
Ġduc as
Ġduc eret
Ġduc amus
Ġduc entis
Ġduc ebant
Ġtum ultum
ill er
Ġeg imus
Ġimper fecta
Ġsanct itatis
Ġdilig entibus
Ġext ingu
Ġing ens
Ġing entes
ĠChr on
Ġsus pect
Ġabs entia
Ġabs enti
Ġdign issimum
Ġsatis ne
Ġ8 59
ĠPr ior
Ġvic erunt
Ġvic inis
Ġsens i
Ġmut um
Ġhon ori
Ġcogit abat
ĠJ am
Ġaccip eret
Ġmed iis
Ġign ob
Ġign arus
ĠMar ion
Ġappell ationem
Ġpet itum
Ġpet endi
Ġpet ite
Ġind oles
Ġreliqu iis
Ġstud ii
Ð¸ ÑģÑĤ
Ð¸ ÐºÐ¸
Ġsup ponere
Ġw indow
14 1
Ġlaud anda
Ġlaud abilis
Ġsen um
ĠAd de
str ibus
Ġstat uere
Ġproc ulus
13 0
ĠEx t
asc onice
Ġintellig ibiles
Ġmens urae
ĠFoed us
Ġecclesia lis
Ġem b
Ġem p
Ġmun erum
Ġmun itissimus
Ġmil itis
Ġmil itavit
ĠCon v
Ġfact u
Ġfact uri
Ġfact ionum
Ġsac ros
Ġsac co
num quid
Ġ17 8
Ġ17 25
Ġpraedic tam
ĠBr and
ĠBr itt
Ġpecc atoribus
ĠSan guis
Ġpo em
Ġpo etis
Ġaccus em
Ġaccus ari
Ġaccus atione
Ġaccus avitque
ãģ Ĩ
lin ae
Ġtrans mitt
Ġfal lor
Ġfal cid
Ġsignific ata
Ġimm itt
Ġliber are
Ġliber aret
Ġcup ivit
Ġoper as
Ġoper antur
Ġoper arius
Ġrect ius
Ġ13 70
Ġaequ as
Ġaequ ivoce
ĠUn iti
Ġoppid orum
lo go
Ġtim uit
Ġtim uerunt
Ġaedific io
Ġaedific aretur
Ġaedific astis
ĠGerman is
ĠGerman icam
Ġadi udic
Ġadi utus
ĠOmn i
Ġregn ant
ev ens
ev ille
Ġmet hod
Ġmov eamur
Ġult ionem
Ġluc i
Ġdet rac
Ġconven iens
lar ae
Ġprod erunt
Ġprod uxit
Ġperfect is
Ġperfect ius
Ġpraecip uus
Ġquaest us
Ġscient em
uri arum
ĠIuli anus
Ġunivers ae
Ġunivers ale
Ġfer ens
Ġtrad as
Ġtrad uc
Ġtrad eretur
ĠW al
ĠW ag
ĠW ith
ĠW ashington
Ġvet at
Ġcond ime
Ġarg ento
Ġarg uitur
ĠTh is
Ġconsul ari
Ġev oc
Ġev erter
ĠReg n
Ġgrav iorem
Ġgrav iora
Ġgrav ioribus
ĠEr n
ĠEr illus
la us
Ġmot i
Ġfamili is
Ġamp la
Ġphilosoph ari
ĠÃ ¢
ĠÃ ¨
Ġreprehend erim
Ġrespond eri
Ġspir ita
Ġredd es
Ġredd eretur
Ġch art
Ġcausam que
Ġprof ug
.... ...
.... .....
Ġperm isit
Ġbib ens
Ġgaud ebat
Ġpraest es
XX III
XX VI
Ġdiss erere
Ġdiss entias
Ġdiss ensione
Ġlabor at
Ġlabor as
Ġlabor amus
26 4
ĠId est
ĠId circo
Ġclar uit
Ġcan es
ĠZ ama
Ġprom pta
Ġessentia libus
Ġdict as
Ġatt endit
Ġatt endere
Ġatt amen
Ġsept imum
Ġexistim ationem
Ġexistim ans
Ġexistim abit
Ġdiffic ilia
ĠChristi ana
Ġrecip eret
Ġav ide
Ġmagist ris
Ġdelect atur
ĠSc ientiam
ĠSc ientiarum
Ġincip ient
Ġincip eret
Ġsalut avit
Ġreper tus
Ġpauc iores
Ġsper nit
Ġhonest as
Ġhonest atis
Ġhonest issime
Ġaccid isse
Ġnob ilius
Ġnob ilitatis
Ġquot a
Ġfur em
Ġopin ionis
ĠCat uli
Ġpotentia s
Ġport at
Ġport io
Ġport titor
ĠEp iph
Ġk h
Ġk oi
Ġsucc edit
Ġiudicium que
Ġingen ue
ivit que
ĠSt al
ĠSt atu
Ġdisput andi
Ġdisput ationes
hen es
Ġpriv at
Ġpriv asse
Ġdefin itum
ãĤ µ
Ġaur ium
Ġaccep issem
Ġperd ita
Ġperd iscere
Ġ194 0
Ġ194 2
Ġrev er
Ġq c
Ġaff ert
Ġaff initatis
Ġusus fruc
Ġmar g
Ġlud io
Ġhabit am
Ġhabit ans
Ġiac ebat
Ġgest iret
Ex p
Ġ20 2
Ġ20 3
Ġ20 6
Ġ20 9
Ġmiss am
Ġmiss ionem
Ġoff endi
Ġoff erre
Ġinterrog averit
Ġextra ordin
Ġintellect ui
Ġveh iculum
ĠAugust ini
Ġdivis ionibus
Ġdivers itas
Ġignor ant
Ġexspect as
ĠPa uper
Ġeven iat
Ġvers ae
Ġvers ion
ĠAc ut
ĠAc et
ith eat
Ġrelig ioni
Ġrelig ionum
Ġsociet atibus
Ġfig urae
Ġadhib ita
Ġlum inibus
Ġperven imus
inqu itur
Ġordin at
Ġ24 4
Ġiniqu os
Ġiniqu ius
ĠIun onem
pi anus
Î¿ Î»
Ġhort atus
Ġcompar ata
Ġuol o
Ġsimplic es
Ġsimplic ia
Ġsimplic ibus
fac ti
ĠPar t
ĠPar vi
ister et
Ġcunct orum
Ġdis ponere
Ġle onis
Ġle ones
ĠThe ologiae
Ġcustod ite
Ġsy stema
Ġquaes isse
Ġ26 4
Ġret ic
Ġret ine
Ġturp issime
Ġturp itudine
Ġmer uerunt
Ġprophet as
Ġprophet are
Ġconting at
Ġmilit are
Ġnat orum
Ġperpet uae
Ġ28 1
Ġ28 2
Ġ28 8
Ġaestim es
Ġaestim abat
Ġaestim anda
Ġgener are
Ġgener ans
Ġgener alem
Ġsalv are
Ġsusc it
Ġsusc episse
ĠMed iae
ĠIoseph o
Ġnim iam
ĠEpic ureum
Ñĭ Ð²
Ġadv esperasc
ĠQua eris
ĠQua ero
Ġ25 5
Ġ30 8
ãĢ Ī
Ġpraem ii
ĠEcclesia st
Ġpen ates
Ġhistor ica
Ġhistor icus
Ġpert ran
Ġstult ius
Ġconsec r
Ġconsec uti
Ġconsec ravit
Ġir rig
Ġcomed is
Ġcomed ere
Ġbenefic i
Ġpoen is
Ġsempiter nus
à´ Ł
Ġacced at
Ġacced am
Ġacced erem
Ġeleg ans
Ġeleg anter
ĠFac io
Ġ29 2
Ġ29 7
Ġasc endere
Ġdubit em
Ġelect or
Ġsingul aria
ĠPompe ii
mat icam
Ġdorm iens
Ġtoll at
Ġindig ent
Ġindig ena
ĠLut her
Ġalt ari
Ġalt aris
ĠAng eli
ĠAng elop
ĠAng elo
ĠGermaniae que
ĠMin ima
ĠMin erva
Ġspect et
ĠInter dum
ĠInter iores
Ġconsider ans
Ġconfirm avit
Ġextrem o
Ġconvers ionem
Ġpossib ilem
Ġ195 9
iz ania
Ġinst all
ĠAtt ica
ĠAtt icus
ĠAtt amen
ho uld
Î¹ Ïĥ
errim e
Ġdev ov
Ġdev elop
Ġiucund issimum
Ġque unt
Ġrevert ar
Ġrevert amur
Ġdeduc itur
Ġconstr uctum
Ġparticip ant
Ġsuspic or
Ġort i
Ġort ae
ĠMart ias
Ġhor ae
Ġcad ent
Ġcad eret
Ġcommend as
Ġappar atus
ĠAthen arum
Ġproficisc untur
Ġproport ione
Ġlegit imis
ä¸ º
Ġexter arum
ĠEs rom
ĠEs perant
ĠLe e
ĠLe one
Ġinterfic eres
Ġinterfic erent
Ġom issio
Ġimpet ravit
Ġcomprehend itur
Ġcomprehend erit
Ġcess et
Ġconp l
Ġconp lex
Ġsacerdot ium
ĠCol um
ĠPers ae
ĠPers em
Ġsoli da
ĠVal ent
Ġaccept ae
Ġmemin imus
Ġconserv are
Ġconserv ata
Ġconserv aretur
ĠPontific e
Ġjudic es
Ġglad iis
Ġpraepos iti
Ġpraepos Ã¬
Ġinteg er
Ġimped iri
Ġoccult issimarum
Ġdur atio
Ġdur atione
Ġuen erunt
Ġdig itos
Ġ37 0
Ġuoc e
Ġimagin ari
Ġgubern atio
abor iosam
Ġcoep imus
Ġcoep issent
ĠGen ava
Ġfacie i
ĠLeg es
ĠLeg io
ĠLeg ionis
Ġsuff us
ĠMult as
Ġcontemp sit
Ġinterpret atione
ĠMan asses
ĠMan ifestum
ĠComm une
Ġcapit uli
Ġdeclar ant
Ġdeclar atum
Ġdamn ari
Ġadulesc entiae
Ġadmon eo
Ġimprob us
Ġfing it
Ġrequir unt
ĠSequ enti
ĠÑģ Ð²
Ġanimad verter
Ġlap ide
Ġsuav iter
ĠIust um
Ġpraeced ant
Ġhosp item
Ġmom ento
Ġinuen itur
Ġoppos itio
ĠMich ol
Ġpati ebatur
Ġpres entibus
ĠTer ram
ĠVerum tamen
Ġappare bit
ĠApr il
ĠApr ili
ĠEuropae um
Ġauct orum
200 9
Ġacceper ant
Ġadven iret
Ġpopul are
Ġpopul aribus
Ġprog en
ĠAlb ae
Ġprec ed
Ġprec epit
ĠCont in
ĠHab eo
Ġinp ort
ĠBib ulus
Ġdixerit is
Ġqual iscumque
Ġvindic are
Ġpoet as
Ġlign ea
Ġsat ag
Ġaddit ae
Ġadmitt untur
Ġadmitt antur
ĠRep rehenderit
Ġconfus ioque
Ġnegleg ere
Ġnegleg entiae
ĠAmeric anis
Ġconcupisc entiae
Ġinfirm i
Ġinfirm itatem
ĠLatin itatem
ĠLatin itatis
Ġsuccess ione
ï¼ ģ
Ġdidic isse
Ġperhib ente
Ġuis quam
Ġmagnific entia
lu unt
ĠÐ² Ñĭ
Ġgrad atim
Ġaer op
ĠEl averis
Ġioc a
ĠDuc ato
Ġ48 0
Ġcontempl ari
Ġcontempl antibus
Ġfun us
ĠSex tus
Ġperg eret
Ġtex tum
ak ne
Ġadopt ionis
Ġexprim at
á½ ¹
Ġfav or
ĠSocrat is
Ġhabita vi
ĠTe ut
Ġinduc i
Ġpasc ebat
Ġcresc ere
Ġsubt rah
Ġvan itate
Ġvari e
Ġreduc erem
Ġpud ore
Ġpas si
ipot ens
Ġintro iens
Ġspon so
Ġcollig ere
Ġdescend ens
Ġdescend entem
Ġvuln erat
Ġvuln eribus
Ġinstr uct
Ġinstr uam
Ġinstr uctum
ĠDi od
ĠDi ff
ĠDi anae
Ġimb er
Ġpartic ulari
Ġaccipi emus
Ġadmirat ionem
Ġdestr uitur
ĠAustr iam
ĠÐº Ð°Ðº
ĠJud Ã¦
ĠThom am
ĠHen rici
ada it
Ġproduc it
Ġdimitt at
Ġdimitt et
Ġdimitt as
Ġmatur ius
Ġmatur itatis
ĠAene a
Ġnex u
Ġ188 4
yri i
ĠPraes ens
Ġcondemn ari
Ġpe ior
Ġger itur
Ġimport atis
Ġcolloc ata
Ġcolloc avit
Ġeffug iam
Ġquint us
ĠAem ilius
ĠRespon deo
Åį s
Ġfat eri
Ġnonn ihil
Ġnonn unquam
Ġlo quamini
ĠDum nor
Ġvixit que
Ġá¼ Ī
ä» ¬
ĠCirc um
[...]
