{"<s>":0,"<pad>":1,"</s>":2,"<unk>":3,"<mask>":4,"!":5,"\"":6,"#":7,"$":8,"%":9,"&":10,"'":11,"(":12,")":13,"*":14,"+":15,",":16,"-":17,".":18,"/":19,"0":20,"1":21,"2":22,"3":23,"4":24,"5":25,"6":26,"7":27,"8":28,"9":29,":":30,";":31,"<":32,"=":33,">":34,"?":35,"@":36,"A":37,"B":38,"C":39,"D":40,"E":41,"F":42,"G":43,"H":44,"I":45,"J":46,"K":47,"L":48,"M":49,"N":50,"O":51,"P":52,"Q":53,"R":54,"S":55,"T":56,"U":57,"V":58,"W":59,"X":60,"Y":61,"Z":62,"[":63,"\\":64,"]":65,"^":66,"_":67,"`":68,"a":69,"b":70,"c":71,"d":72,"e":73,"f":74,"g":75,"h":76,"i":77,"j":78,"k":79,"l":80,"m":81,"n":82,"o":83,"p":84,"q":85,"r":86,"s":87,"t":88,"u":89,"v":90,"w":91,"x":92,"y":93,"z":94,"{":95,"|":96,"}":97,"~":98,"¡":99,"¢":100,"£":101,"¤":102,"¥":103,"¦":104,"§":105,"¨":106,"©":107,"ª":108,"«":109,"¬":110,"®":111,"¯":112,"°":113,"±":114,"²":115,"³":116,"´":117,"µ":118,"¶":119,"·":120,"¸":121,"¹":122,"º":123,"»":124,"¼":125,"½":126,"¾":127,"¿":128,"À":129,"Á":130,"Â":131,"Ã":132,"Ä":133,"Å":134,"Æ":135,"Ç":136,"È":137,"É":138,"Ê":139,"Ë":140,"Ì":141,"Í":142,"Î":143,"Ï":144,"Ð":145,"Ñ":146,"Ò":147,"Ó":148,"Ô":149,"Õ":150,"Ö":151,"×":152,"Ø":153,"Ù":154,"Ú":155,"Û":156,"Ü":157,"Ý":158,"Þ":159,"ß":160,"à":161,"á":162,"â":163,"ã":164,"ä":165,"å":166,"æ":167,"ç":168,"è":169,"é":170,"ê":171,"ë":172,"ì":173,"í":174,"î":175,"ï":176,"ð":177,"ñ":178,"ò":179,"ó":180,"ô":181,"õ":182,"ö":183,"÷":184,"ø":185,"ù":186,"ú":187,"û":188,"ü":189,"ý":190,"þ":191,"ÿ":192,"Ā":193,"ā":194,"Ă":195,"ă":196,"Ą":197,"ą":198,"Ć":199,"ć":200,"Ĉ":201,"ĉ":202,"Ċ":203,"ċ":204,"Č":205,"č":206,"Ď":207,"ď":208,"Đ":209,"đ":210,"Ē":211,"ē":212,"Ĕ":213,"ĕ":214,"Ė":215,"ė":216,"Ę":217,"ę":218,"Ě":219,"ě":220,"Ĝ":221,"ĝ":222,"Ğ":223,"ğ":224,"Ġ":225,"ġ":226,"Ģ":227,"ģ":228,"Ĥ":229,"ĥ":230,"Ħ":231,"ħ":232,"Ĩ":233,"ĩ":234,"Ī":235,"ī":236,"Ĭ":237,"ĭ":238,"Į":239,"į":240,"İ":241,"ı":242,"Ĳ":243,"ĳ":244,"Ĵ":245,"ĵ":246,"Ķ":247,"ķ":248,"ĸ":249,"Ĺ":250,"ĺ":251,"Ļ":252,"ļ":253,"Ľ":254,"ľ":255,"Ŀ":256,"ŀ":257,"Ł":258,"ł":259,"Ń":260,"Ġe":261,"qu":262,"um":263,"er":264,"Ġa":265,"Ġs":266,"it":267,"us":268,"in":269,"Ġqu":270,"is":271,"Ġp":272,"at":273,"nt":274,"am":275,"on":276,"Ġc":277,"Ġn":278,"ae":279,"st":280,"Ġd":281,"em":282,"Ġm":283,"or":284,"Ġin":285,"ic":286,"ur":287,"Ġv":288,"Ġt":289,"Ġet":290,"ut":291,"Ġi":292,"re":293,"Ġf":294,"li":295,"en":296,"Ġest":297,"om":298,"es":299,"im":300,"Ġh":301,"unt":302,"od":303,"et":304,"ar":305,"an":306,"id":307,"os":308,"ec":309,"ul":310,"ent":311,"Ġnon":312,"Ġpr":313,"ia":314,"ib":315,"ol":316,"un":317,"que":318,"Ġad":319,"ed":320,"oc":321,"Ġre":322,"Ġl":323,"se":324,"ud":325,"Ġquod":326,"ac":327,"ab":328,"Ġut":329,"el":330,"ius":331,"as":332,"iam":333,"ion":334,"Ġes":335,"Ġquae":336,"Ġsunt":337,"ere":338,"il":339,"ot":340,"op":341,"Ġcum":342,"ant":343,"Ġde":344,"Ġsu":345,"al":346,"ibus":347,"Ġcon":348,"Ġex":349,"Ġquam":350,"ĠE":351,"ĠA":352,"ĠI":353,"io":354,"Ġan":355,"ĠS":356,"ag":357,"ĠC":358,"omn":359,"Ġesse":360,"Ġomn":361,"Ġdi":362,"Ġme":363,"ĠD":364,"Ġqui":365,"Ġil":366,"Ġdic":367,"est":368,"ih":369,"end":370,"Ġali":371,"ta":372,"iae":373,"itat":374,"Qu":375,"ip":376,"Ġper":377,"orum":378,"Ġaut":379,"Ġ1":380,"ter":381,"Ġfac":382,"Ġprae":383,"Ġill":384,"itur":385,"Ġb":386,"rat":387,"ist":388,"ra":389,"ium":390,"atur":391,"ob":392,"ect":393,"ili":394,"ĠP":395,"Ġsi":396,"Ġsed":397,"per":398,"omin":399,"Ġg":400,"no":401,"Ġen":402,"Ġco":403,"ĠQu":404,"Ġip":405,"quam":406,"ir":407,"ens":408,"Ġhab":409,"Ġtu":410,"Ġenim":411,"Ġpos":412,"ĠN":413,"uit":414,"cc":415,"eg":416,"ost":417,"Ġsc":418,"iv":419,"Ġeius":420,"uc":421,"Ġquid":422,"Ġhoc":423,"Ġpot":424,"arum":425,"gn":426,"aec":427,"und":428,"eb":429,"ĠM":430,"iss":431,"Ġcom":432,"Ġap":433,"are":434,"Ġquo":435,"ort":436,"Ġ(":437,"Ġver":438,"Ġetiam":439,"Ġse":440,"pt":441,"Ġips":442,"and":443,"ina":444,"Ġposs":445,"Ġautem":446,"Ġab":447,"ihi":448,"Ġvel":449,"Ġvid":450,"ita":451,"Ġu":452,"Ġ2":453,"fic":454,"Ġmihi":455,"go":456,"imus":457,"Ġr":458,"Ġop":459,"Ġsit":460,"Ġid":461,"Ġer":462,"av":463,"ĠL":464,"erunt":465,"ell":466,"ionem":467,"ĠH":468,"ct":469,"Ġne":470,"Ġca":471,"Ġam":472,"ult":473,"ĠDe":474,"ĠR":475,"Ġanno":476,"emp":477,"Ġpag":478,"lic":479,"ĠF":480,"Ġpro":481,"Ġat":482,"ore":483,"Ġpar":484,"ihil":485,"Ġte":486,"ione":487,"Ġpagina":488,"Ġinc":489,"Ġaliqu":490,"Ġcu":491,"isc":492,"erit":493,"Ġapud":494,"Ġvol":495,"ĠT":496,"etur":497,"Ġcons":498,"Ġim":499,"atus":500,"Ġpl":501,"Ġnec":502,"Ġqua":503,"Ġnihil":504,"Ġquia":505,"Ġea":506,"lib":507,"Ġtam":508,"Ġeum":509,"ibi":510,"ior":511,"Ġmag":512,"ĠV":513,"ert":514,"unc":515,"ĠEa":516,"Ġfuit":517,"ari":518,"ess":519,"Ġpotest":520,"Ġma":521,"Ġsol":522,"Ġun":523,"Ġtemp":524,"..":525,"ing":526,"Ġacc":527,"ĠĠ":528,"Ġess":529,"ust":530,"ĠG":531,"erum":532,"Ġint":533,"Ġscr":534,"Ġprop":535,"ĠB":536,"ub":537,"Ġcont":538,"Ġcomm":539,"Ġmod":540,"Ġeo":541,"âĢ":542,"ov":543,"Ġsum":544,"Ġatque":545,"ig":546,"Ġhaec":547,"ine":548,"ull":549,"obis":550,"Ġfili":551,"Ġinter":552,"Ġfu":553,"Ġor":554,"Ġlib":555,"erat":556,"tum":557,"Ġres":558,"orem":559,"Ġhomin":560,"Ġsec":561,"bi":562,"ep":563,"Ġsic":564,"ĠEt":565,"inc":566,"Ġdix":567,"Ġpat":568,"Ġbon":569,"fect":570,"00":571,"lig":572,"oqu":573,"eri":574,"int":575,"Ġreg":576,"atum":577,"ro":578,"Ġst":579,"Ġanim":580,"ran":581,"de":582,"ri":583,"rum":584,"Ġita":585,"Ġcre":586,"Ġmin":587,"ate":588,"Ġar":589,"les":590,"Ġtibi":591,"Ġomnia":592,"ient":593,"Ġcor":594,"uli":595,"Ġnost":596,"upt":597,"ata":598,"Ġleg":599,"undum":600,"ven":601,"itum":602,"eris":603,"Ġfec":604,"Ġneque":605,"untur":606,"atis":607,"isi":608,"Ġvir":609,"Ġven":610,"issim":611,"ers":612,"ap":613,"abul":614,"Ġquidem":615,"Ġant":616,"Ġloc":617,"Ġerat":618,"Ġ,":619,"iter":620,"ator":621,"Ġloqu":622,"Ġter":623,"ire":624,"Ġ19":625,"ĠO":626,"Ġdol":627,"Ġsp":628,"ĠIn":629,"ccles":630,"Ġquis":631,"Ġal":632,"antur":633,"Ġus":634,"Ġincol":635,"Ġego":636,"Ġnum":637,"eat":638,"Ġoc":639,"Ġser":640,"Ġsub":641,"Ġmult":642,"Ġaud":643,"Ġ3":644,"Ġpost":645,"Ġmort":646,"isti":647,"Ġcaus":648,"ific":649,"Ġ-":650,"Ġob":651,"Ġipsum":652,"endum":653,"Ġprim":654,"Ġman":655,"Ġtamen":656,"le":657,"Ġmodo":658,"Ġomnes":659,"Ġdom":660,"esc":661,"Ġscrip":662,"ii":663,"urb":664,"eo":665,"ffic":666,"Ġnobis":667,"ĠDomin":668,"Ġimp":669,"Ġquibus":670,"Ġvolupt":671,"Ġincolarum":672,"Ġnos":673,"Ġ\"":674,"itas":675,"ad":676,"Ġann":677,"ero":678,"Ġmagn":679,"ĠU":680,"entia":681,"Ġcuius":682,"eret":683,"Ġdu":684,"amus":685,"Ġsim":686,"isse":687,"Ġesset":688,"Ġo":689,"Ġnisi":690,"ĠRom":691,"ris":692,"Ġsecundum":693,"udic":694,"alis":695,"Ġnatur":696,"Ġcommun":697,"xim":698,"ionis":699,"iat":700,"res":701,"iunt":702,"Ġaliquid":703,"Ġquem":704,"Ġdeb":705,"ĠSed":706,"itus":707,"pon":708,"Ġgen":709,"dam":710,"Ġag":711,"aud":712,"ĠAn":713,"dic":714,"Ġsem":715,"Ġvero":716,"Ġnull":717,"ati":718,"Ġac":719,"iis":720,"Ġrat":721,"itate":722,"Ġiam":723,"Ġpart":724,"Ġpraes":725,"Ġergo":726,"itatem":727,"avit":728,"cip":729,"tus":730,"Ġvit":731,"Ġvoc":732,"ch":733,"Ġput":734,"Ġurb":735,"Ġist":736,"Ġeam":737,"ie":738,"gitur":739,"ff":740,"rae":741,"Ġpec":742,"Ġante":743,"oniam":744,"Ġille":745,"ile":746,"Ġtr":747,"Ġcog":748,"Ġnunc":749,"Ġtabul":750,"ĠDeus":751,"entur":752,"orm":753,"Ġquas":754,"Ġrerum":755,"lius":756,"ias":757,"Ġcur":758,"Ġhabet":759,"ne":760,"Ġsuper":761,"Ġrem":762,"Ġsan":763,"pe":764,"Ġcap":765,"si":766,"ui":767,"icae":768,"ux":769,"ern":770,"atio":771,"ando":772,"Ġhis":773,"ebat":774,"Ġipse":775,"Ġexp":776,"\"\\":777,"Ġmal":778,"Ġiudic":779,"antum":780,"iones":781,"uius":782,"emus":783,"Ġei":784,"Ġciv":785,"ĠĠĠĠ":786,"Ġamic":787,"\"\\\"\\":788,"stit":789,"atem":790,"Ġverb":791,"endi":792,"ĠNon":793,"Ġ[":794,"Ġdiv":795,"Ġigitur":796,"Ġdisc":797,"Ġiur":798,"dem":799,"Ġeccles":800,"erc":801,"Ġrep":802,"Ġapp":803,"Ġnomin":804,"ali":805,"Ġsicut":806,"itud":807,"ĠâĢ":808,"ĠÂ":809,"Ġdixit":810,"ene":811,"og":812,"Ġ18":813,"tor":814,"Ġ4":815,"ulum":816,"ug":817,"ationem":818,"ulo":819,"Ġcui":820,"ranc":821,"Ġdec":822,".[":823,"Ġmaxim":824,"Ġded":825,"Ġas":826,"Ġpop":827,"dit":828,"sequ":829,"Ġsua":830,"Ġmortu":831,"Ġillud":832,"01":833,"itatis":834,"ept":835,"Ã¦":836,"Ġomnibus":837,"Ġcomp":838,"Ġquoniam":839,"Ġilla":840,"Ġdes":841,"oris":842,"Ġis":843,"sum":844,"anno":845,"itt":846,"ingu":847,"ici":848,"Ġmea":849,"Ġintell":850,"Ġtot":851,"Ġquoque":852,"Ġeorum":853,"Ġpu":854,"inem":855,"Ġ200":856,"ram":857,"ublic":858,"rim":859,"ĠQuid":860,"Ġcogn":861,"di":862,"icum":863,"entes":864,"Ġmagis":865,"Ġdicitur":866,"Ġtempore":867,"Ġ:":868,"era":869,"ĠFranc":870,"Ġsent":871,"ont":872,"Ġserv":873,"Ġconc":874,"ica":875,"Ġeos":876,"Ġhic":877,"Ġdie":878,"Ġomnis":879,"itatus":880,"Ġfort":881,"isset":882,"Ġrec":883,"Ġpossunt":884,"Ġocc":885,"irc":886,"entum":887,"osc":888,"Ġmol":889,"Ġcausa":890,"Ġlit":891,"Ġgrat":892,"Ġscrib":893,"quid":894,"II":895,"Ġsemper":896,"ex":897,"Ġact":898,"Ġusque":899,"eli":900,"ĠRoman":901,"Ġcorp":902,"Ġconf":903,"Ġsine":904,"Ġfacere":905,"rem":906,"ĠQuod":907,"Ġsint":908,"Ġtua":909,"Ġdel":910,"Ġillum":911,"omen":912,"Ġvos":913,"iet":914,"ĠCh":915,"ĠÐ":916,"Ġpublic":917,"Ġinv":918,"ios":919,"raec":920,"tin":921,"Ġiust":922,"Ġmaior":923,"Ġel":924,"bus":925,"Ġviv":926,"ret":927,"Ġinf":928,"quit":929,"ĠSi":930,"Ġfid":931,"Ġnot":932,"Ġcl":933,"icus":934,"Ġsuo":935,"Ġnumquam":936,"he":937,"Ġpossit":938,"ores":939,"Ġsequ":940,"umque":941,"Ġpraec":942,"Ġquos":943,"Ġfrat":944,"Ġeis":945,"Ġipsa":946,"Ġnam":947,"Ġlingu":948,"ilis":949,"Ġmortuus":950,"Ġminus":951,"Ġ5":952,"ĠAt":953,"Ġlitter":954,"Ġcar":955,"Ġsign":956,"ĠAm":957,"Ġins":958,"Ġdicit":959,"Ġten":960,"Ġubi":961,"urae":962,"ĠCom":963,"Ġcol":964,"Ġplac":965,"Ġ'":966,"Ġpers":967,"Ġmis":968,"Ġmat":969,"Ġlab":970,"Ġcred":971,"Ġpraeter":972,"Ġsibi":973,"Ġdef":974,"ve":975,"atione":976,"isp":977,"Ġprinc":978,"Ġvobis":979,"Ġsolum":980,"Ġsuam":981,"Ġsae":982,"ĠNam":983,"Ġmor":984,"stant":985,"Ġnov":986,"Ġerit":987,"Ġep":988,"Ġsap":989,"ura":990,"Ġbonum":991,"Ġ201":992,"Ġvide":993,"Ġfecit":994,"Ġopt":995,"Ġdoc":996,"Ġconsequ":997,"ti":998,"lum":999,"Ġhuius":1000,"Ġcommune":1001,"erm":1002,"vit":1003,"Ġopp":1004,"ula":1005,"inis":1006,"Ġbene":1007,"Ġpraefect":1008,"iens":1009,"sit":1010,"entiam":1011,"Ġprov":1012,"Ġexc":1013,"Ġfi":1014,"to":1015,"Ġvis":1016,"ĠIta":1017,"oed":1018,"up":1019,"anc":1020,"Ġquasi":1021,"ilia":1022,"sus":1023,"...":1024,"icet":1025,"enda":1026,"Ġval":1027,"Ġmolest":1028,"Ġneg":1029,"Ġmeum":1030,"Ġprob":1031,"Ġcirc":1032,"itia":1033,"Ġpa":1034,"entiae":1035,"Ġaliud":1036,"odi":1037,"odo":1038,"Ð°":1039,"Ġnomen":1040,"Ġcae":1041,"Ġinven":1042,"Ġrespon":1043,"Ġdomin":1044,"Ġred":1045,"ĠLat":1046,"ino":1047,"Ġtantum":1048,"ann":1049,"Ġprincip":1050,"Ġvidetur":1051,"Ġcert":1052,"erem":1053,"Ġvest":1054,"andum":1055,"ulta":1056,"Ġmem":1057,"Ġilli":1058,"Ġsumm":1059,"Ġform":1060,"Ġpropter":1061,"Ġfr":1062,"unct":1063,"Ġfug":1064,"Ġpars":1065,"Ġcontra":1066,"Ġ7":1067,"Ġsal":1068,"ĠDominus":1069,"Ð¾":1070,"ĠAr":1071,"Ġj":1072,"lor":1073,"Ġfactum":1074,"Ġalter":1075,"Ġux":1076,"enti":1077,"Ġadh":1078,"ora":1079,"reh":1080,"ini":1081,"10":1082,"Ġnesc":1083,"Ġquaer":1084,"ĠGraec":1085,"xit":1086,"Ġ6":1087,"Ġnulla":1088,"glic":1089,"ulus":1090,"vers":1091,"Ġpecun":1092,"Ġaet":1093,"ue":1094,"Ġduc":1095,"Ġtum":1096,"pic":1097,"oribus":1098,").":1099,"ima":1100,"aret":1101,"Ġpossum":1102,"aria":1103,"Ġnatura":1104,"Ġmaxime":1105,"ĠIs":1106,"Ġvolunt":1107,"ea":1108,"ill":1109,"ong":1110,"liqu":1111,"ĠDei":1112,"Ġeg":1113,"edit":1114,"ans":1115,"Ġsuum":1116,"Ġquando":1117,"tut":1118,"ato":1119,"Ġimper":1120,"Ġsanct":1121,"Ġmund":1122,"Ġund":1123,"mon":1124,"uta":1125,"entem":1126,"Ġterra":1127,"eretur":1128,"Ġius":1129,"Ġdicere":1130,"Ġtran":1131,"omo":1132,"ass":1133,"itatibus":1134,"Ġpraefecturae":1135,"Ġdilig":1136,"ĠQuae":1137,"12":1138,"ulis":1139,"Ġext":1140,"Ġnecess":1141,"Ġgra":1142,"esse":1143,"Ġillis":1144,"Ġing":1145,"ale":1146,"iscop":1147,"epit":1148,"ĠDeo":1149,"ite":1150,"Ġtest":1151,"fer":1152,"ectus":1153,"Ġillo":1154,"ĠChr":1155,"oli":1156,"Ġoffic":1157,"glice":1158,"Ġsus":1159,"iti":1160,"cr":1161,"Ġprimum":1162,"Ġtempus":1163,"Ġfilius":1164,"Ġrebus":1165,"Ġaliquam":1166,"Ġabs":1167,"Ġsaepe":1168,"equ":1169,"Ġplur":1170,"Ġcaput":1171,"Ġintelleg":1172,"ĠComitatus":1173,"erb":1174,"Ġomnium":1175,"Ġdign":1176,"Ġregione":1177,"eper":1178,"Ġvita":1179,"Ġposse":1180,"Ġsatis":1181,"utus":1182,"Ġfam":1183,"Ġ8":1184,"Ġrei":1185,"Ġexerc":1186,"ĠPr":1187,"\"\\\"\\\"\\\"\\":1188,"Ġvic":1189,"Ġsapient":1190,"Ġsens":1191,"Ġmut":1192,"Ġquaedam":1193,"urum":1194,"Ġit":1195,"ies":1196,"Ġhon":1197,"Ġcogit":1198,"Ġtab":1199,"Ġunum":1200,"Ġhabere":1201,"ĠEccles":1202,"Ġvirtut":1203,"ĠJ":1204,"ord":1205,"aris":1206,"ĠHoc":1207,"Ġsaec":1208,"ĠQui":1209,"Ġaccip":1210,"iqu":1211,"Ðµ":1212,"Ġhomo":1213,"Ġinquit":1214,"Ġfacta":1215,"Ġait":1216,"Ġhum":1217,"Ġmeus":1218,"endo":1219,"itiae":1220,"dum":1221,"Ġcognosc":1222,"Ġhomines":1223,"mn":1224,"Ġtuum":1225,"Ġiure":1226,"Ġalia":1227,"Ġfut":1228,"ecta":1229,"vis":1230,"Ġomni":1231,"Ġmed":1232,"Ġign":1233,"Ġtra":1234,"Ġvitae":1235,"Ġord":1236,"ĠMar":1237,"Ġaed":1238,"Ġtuam":1239,"Ġappell":1240,"Ġfieri":1241,"itis":1242,"Ġpet":1243,"ionibus":1244,"Ġind":1245,"ĠAmer":1246,"Ġreliqu":1247,"vi":1248,"Ġcet":1249,"Ġunde":1250,"Ġmulta":1251,"Ġstud":1252,"ice":1253,"ente":1254,"Ġvelit":1255,"Ġloquitur":1256,"Et":1257,"Ġipso":1258,"ĠĠĠĠĠĠĠĠ":1259,"ll":1260,"Ð¸":1261,"ito":1262,"Ġpatr":1263,"emo":1264,"cce":1265,"uct":1266,"Ġsup":1267,"Ġw":1268,"ilium":1269,"Ġverum":1270,"14":1271,"An":1272,"Ġhanc":1273,"Ġull":1274,"Ġconi":1275,"pos":1276,"Ġ9":1277,"eres":1278,"Ġlaud":1279,"act":1280,"oph":1281,"Ġtuus":1282,"rehend":1283,"Ġ|":1284,"erent":1285,"Ġhabent":1286,"18":1287,"Ġpertin":1288,"Ġsen":1289,"pect":1290,"omodo":1291,"Ġph":1292,"Ġlong":1293,"Ġ12":1294,"Ġidem":1295,"ecum":1296,"ĠAd":1297,"Ġiis":1298,"inde":1299,"Ġintel":1300,"str":1301,"Ġurbs":1302,"idit":1303,"Ġstat":1304,",\"":1305,"inam":1306,"uum":1307,"Ġconstit":1308,"Ġtui":1309,"Ġglor":1310,"Ġillius":1311,"Ġbell":1312,"ÑĤ":1313,"Ġod":1314,"Ġibi":1315,"Ġdiscip":1316,"Ġprovinc":1317,"Ġmolestiae":1318,"Ġproc":1319,"13":1320,"erv":1321,"Ġdolorem":1322,"In":1323,"uper":1324,"Ġnomine":1325,"ĠEx":1326,"Â»":1327,"Ġsuae":1328,"ana":1329,"aes":1330,"Ġtant":1331,"asc":1332,"Ġista":1333,"inum":1334,"Ġpropr":1335,"Ġintellig":1336,"Ġmens":1337,"ĠDeum":1338,"iant":1339,"Ġ15":1340,"ĠFoed":1341,"uerunt":1342,"enter":1343,"Ġfilii":1344,"Ġsubstant":1345,"ph":1346,"Ġannum":1347,"Ġecclesia":1348,"Ġem":1349,"19":1350,"Ġmun":1351,"imo":1352,"Ġiste":1353,"ique":1354,"Ġoport":1355,"Ġmil":1356,"Ġexist":1357,"Ġdomum":1358,"ĠCon":1359,"Ġaliis":1360,"Ġfact":1361,"Ġsac":1362,"rah":1363,"erman":1364,"\":":1365,"11":1366,"enta":1367,"Ġerant":1368,"Ġhominum":1369,"num":1370,"Ġpul":1371,"ath":1372,"Ġomne":1373,"uv":1374,"ĠUt":1375,"entis":1376,"ĠLorem":1377,"Ġconsequatur":1378,"sa":1379,"Ġ17":1380,"bit":1381,"Ġpraedic":1382,"Ġadhuc":1383,"Ġfaci":1384,"Ġaqu":1385,"oll":1386,"Ġfacit":1387,"Ġloco":1388,"ĠIud":1389,"Ġpotius":1390,"ĠBr":1391,"15":1392,"Ġaper":1393,"Ġpecc":1394,"ast":1395,"ĠHaec":1396,"Ġplus":1397,"17":1398,"Ġmuli":1399,"entibus":1400,"ĠSan":1401,"Ġmeam":1402,"Ġpo":1403,"Ġaccus":1404,"Ġcontr":1405,"cumque":1406,"Ġlat":1407,"Ġsubi":1408,"Ġquin":1409,"ãģ":1410,"Ġdicta":1411,"Ġspec":1412,"if":1413,"arent":1414,"lin":1415,"Ġrex":1416,"Ġsive":1417,"Ġvoluptatem":1418,"ĠÂ·":1419,"Ġtrans":1420,"Ġfal":1421,"Ġsignific":1422,"itiam":1423,"Ġadm":1424,"Ġimm":1425,"ffect":1426,"ĠX":1427,"Ġdisp":1428,"Ġliber":1429,"Ġsoc":1430,"Ġdub":1431,"urg":1432,"Ġcup":1433,"ebant":1434,"16":1435,"abo":1436,"ilius":1437,"irm":1438,"Ġoper":1439,"Ġuna":1440,"Ġrect":1441,"âĢĿ":1442,"ĠCum":1443,"Ġideo":1444,"arii":1445,"ĠMa":1446,"Ġbe":1447,"ivers":1448,"Ġost":1449,"ationis":1450,"odie":1451,"Ġpon":1452,"alem":1453,"Ġmemor":1454,"ĠAl":1455,"ĠCiv":1456,"Ġvi":1457,"Ġomnem":1458,"Ġ13":1459,"Ġmater":1460,"Ġopus":1461,"Ġaequ":1462,"Ġsui":1463,"ĠCaes":1464,"ĠUn":1465,"itio":1466,"Ġthe":1467,"ĠPat":1468,"tem":1469,"Ñģ":1470,"ane":1471,"ĠQuam":1472,"Ġnostra":1473,"Ġdeus":1474,"Ġfuisse":1475,"ectum":1476,"uo":1477,"ĠK":1478,"ĠAb":1479,"Ġtunc":1480,"Ġoppid":1481,"lo":1482,"ĠPh":1483,"Ġtamquam":1484,"ĠQuis":1485,"Ġipsi":1486,"Ġnostrum":1487,"eque":1488,"Ġtim":1489,"Ġsuis":1490,"Ġ14":1491,"Ġsimul":1492,"erint":1493,"ani":1494,"ide":1495,"Ġomnino":1496,"Ġdies":1497,"Ġfuerit":1498,"jus":1499,"Ð½":1500,"Ġsumus":1501,"Ġaedific":1502,"uerit":1503,"Ġratione":1504,"ĠâĢľ":1505,"ĠAp":1506,"Ġtuae":1507,"ĠGerman":1508,"Ġadi":1509,"ĠIes":1510,"ĠOmn":1511,"avi":1512,"nam":1513,"itudo":1514,"Ġvoluptas":1515,"Ġterram":1516,"Ġquant":1517,"Ġquomodo":1518,"asse":1519,"ĠSanct":1520,"Ġregn":1521,"ĠCo":1522,"Ġpater":1523,"Ġsermon":1524,"iles":1525,"Ġnatus":1526,"Ġnemo":1527,"imum":1528,"ulos":1529,"Ġdedit":1530,"issime":1531,"Ġepiscop":1532,"ĠIo":1533,"crip":1534,"iatur":1535,"lis":1536,"ric":1537,"arium":1538,"Ã©":1539,"Ġbona":1540,"issimum":1541,"ev":1542,"uet":1543,"Ġcumque":1544,"Ġdem":1545,"Ġmagna":1546,"bul":1547,"ebam":1548,"Ġitaque":1549,"Ġfactus":1550,"Ġscripta":1551,"anum":1552,"Ġdiff":1553,"Ġmet":1554,"odem":1555,"ano":1556,"umquam":1557,"inae":1558,"Ġpossimus":1559,"Ġverba":1560,"Ġmov":1561,"Ġexs":1562,"libus":1563,"ĠFoederat":1564,"ĠSic":1565,"Si":1566,"Ġdist":1567,"ua":1568,"ider":1569,"22":1570,"tere":1571,"Ġhac":1572,"anus":1573,"ang":1574,"Ġloqui":1575,"ilicet":1576,"Ġparte":1577,"ilos":1578,"th":1579,"Ġult":1580,"Ġnoc":1581,"Ġluc":1582,"Ġcontin":1583,"Ġdet":1584,"idunt":1585,"Ġconven":1586,"vert":1587,"Ġquantum":1588,"lar":1589,"te":1590,"atae":1591,"Ġhominem":1592,"Ġratio":1593,"Ġfl":1594,"Ġcreatus":1595,"Ġth":1596,"tr":1597,"Ġsing":1598,"Ġanima":1599,"Ġdolor":1600,".\"":1601,"Ġquorum":1602,"Ġvoluptate":1603,"Ġprod":1604,"Ġperfect":1605,"Ġpraecip":1606,"%)":1607,"Ġdon":1608,"Ġquaest":1609,"Ġpor":1610,"ales":1611,"ĠEcclesiae":1612,"uxta":1613,"Ġmalum":1614,"iorum":1615,"ÑĢ":1616,"inus":1617,"Ġadd":1618,"Ġ16":1619,"ilosoph":1620,"one":1621,"Ġ10":1622,"Ġscilicet":1623,"ĠAnno":1624,"Ġinquam":1625,"Ġscient":1626,"21":1627,"Ġeffic":1628,"uri":1629,"Ġdictum":1630,"Ġtrib":1631,"Ġauc":1632,"reg":1633,"ena":1634,"Ġmodi":1635,"ĠAmericae":1636,"so":1637,"Ġfit":1638,"itatu":1639,"Ġessent":1640,"Ġecclesiae":1641,"ĠIuli":1642,"Ġunivers":1643,"ĠFranciae":1644,"Ġpac":1645,"Ġfer":1646,"rog":1647,"Ġfor":1648,"Ġaliqua":1649,"Ġadvers":1650,"Ġantiqu":1651,"Ġlibero":1652,"Ð»":1653,"lia":1654,"Ġduo":1655,"Ġtrad":1656,"ign":1657,"Ġbeat":1658,"andi":1659,"ĠW":1660,"Ġvult":1661,"entium":1662,"ibile":1663,"ĠFrancicum":1664,"onis":1665,"Ġmir":1666,"icam":1667,"emb":1668,"Ġvet":1669,"Ġcond":1670,"Ġarg":1671,"Ġearum":1672,"ĠquÃ¦":1673,"Ġprius":1674,"plic":1675,"Ġdico":1676,"ĠTh":1677,"Ġverbum":1678,"Ġelig":1679,"Ġquic":1680,"ach":1681,"Ġpossess":1682,"Ġanimi":1683,"Ġprimo":1684,"),":1685,"Ġ%)":1686,"Ġmon":1687,"lim":1688,"arem":1689,"Ġdum":1690,"Ġutrum":1691,"Ġconsul":1692,"Ġmulto":1693,"Ġdebet":1694,"iores":1695,"Ġev":1696,"Ġquisquam":1697,"ung":1698,"lex":1699,"ime":1700,"abit":1701,"Ġcomitatus":1702,"ĠReg":1703,"Ġlingua":1704,"ard":1705,"Ġvenit":1706,"Ġgrav":1707,"Ġmand":1708,"Ġhunc":1709,"oth":1710,"Ġdici":1711,"Ġaudiv":1712,"ĠEr":1713,"Ġaudi":1714,"Ġnecesse":1715,"Ġpostea":1716,"erbum":1717,"la":1718,"Ġcomitatu":1719,"Ġanimo":1720,"Ġhaud":1721,"Ġmelius":1722,"Ġeiusdem":1723,"Ġrationem":1724,"terea":1725,"Ġauctor":1726,"na":1727,"Ġed":1728,"Ġpulch":1729,"ei":1730,"Ġlic":1731,"Ġscire":1732,"ebatur":1733,"Ġannos":1734,"Ġmiser":1735,"Anglice":1736,"cur":1737,"Ġhabe":1738,"Ġcel":1739,"Ġmot":1740,"endam":1741,"Ġeadem":1742,"utum":1743,"Ġexplic":1744,"Ġfamili":1745,"Ġamp":1746,"ĠDomini":1747,"Ġgenere":1748,"Ġsequitur":1749,"Ġphilosoph":1750,"ys":1751,"qui":1752,"ori":1753,"ĠSp":1754,"Ġaetern":1755,"ĠHic":1756,"Ġobs":1757,"Ġsecund":1758,"Ġtert":1759,"unty":1760,"ulp":1761,"Ġipsam":1762,"Ġarbit":1763,"Ġinstit":1764,"Ġfilium":1765,"Ġart":1766,"ypt":1767,"ĠÃ":1768,"Ġnol":1769,"urus":1770,"ĠCounty":1771,"ationes":1772,"averunt":1773,"ĠRomae":1774,"Ġreprehend":1775,"abat":1776,"Ġexemp":1777,"Ġrespond":1778,"Ġhodie":1779,"idi":1780,"agin":1781,"ilio":1782,"ebit":1783,"Ġspir":1784,"ĠCivitatibus":1785,"mo":1786,"Ġamet":1787,"Ġperson":1788,"Ġref":1789,"ĠItaque":1790,"Ġredd":1791,"Ġdicunt":1792,"Ġtuo":1793,"Ġuel":1794,"Ġcoll":1795,"ĠFoederatis":1796,"hib":1797,"ras":1798,"Ġeas":1799,"onem":1800,"icip":1801,"ĠEst":1802,"Ġlocum":1803,"Ġch":1804,"Ġiuxta":1805,"Ġsoluta":1806,"Ġcausam":1807,"uti":1808,"Ġdomus":1809,"red":1810,"Ġpossumus":1811,"Ġeodem":1812,"ation":1813,"Ġillam":1814,"alia":1815,"20":1816,"uis":1817,"Ġmeo":1818,"ates":1819,"anda":1820,"Ġprof":1821,"iorem":1822,"Ġtempora":1823,"ĠAnt":1824,"ĠPl":1825,"....":1826,"Ġcorporis":1827,"ico":1828,"icis":1829,"ĠChrist":1830,"Ġecce":1831,"erim":1832,"ĠÂ«":1833,"Ġfin":1834,"Ġperm":1835,"Ġbib":1836,"Ġparv":1837,"itudinem":1838,"ĠIsrah":1839,"Sed":1840,"Ġcogitat":1841,"23":1842,"quis":1843,"arius":1844,"ĠAeg":1845,"Ġgaud":1846,"Ġminima":1847,"Ġpraest":1848,"Ġhominis":1849,"uetud":1850,"XX":1851,"Ġdicuntur":1852,"Ġprofect":1853,"Ġcirca":1854,"25":1855,"Ġlae":1856,"ĠNihil":1857,"Non":1858,"Ġdiss":1859,"Ġnaturae":1860,"Ġalic":1861,"Ġcal":1862,"ĠIsrahel":1863,"iuntur":1864,"ensis":1865,"Ġhabeat":1866,"ĠGal":1867,"Ġoportet":1868,"uic":1869,"Ġunus":1870,"\"\\\"\\\"\\\"\\\"\\\"\\\"\\\"\\":1871,"ons":1872,"Ġlabor":1873,"Ġaliquo":1874,"Ġprima":1875,"Ġimpedit":1876,"24":1877,"26":1878,"ĠId":1879,"Ġdicam":1880,"Ġclar":1881,"ario":1882,"erant":1883,"onium":1884,"essit":1885,"ĠAnglice":1886,"Ġnegot":1887,"Ġpecuniam":1888,"Ġang":1889,"endit":1890,"Ġepist":1891,"Ġquamquam":1892,"itates":1893,"Ġ2000":1894,"28":1895,"ento":1896,"let":1897,"ident":1898,"Ġlect":1899,"Ġdicendum":1900,"Ġhuman":1901,"ma":1902,"Ġ.":1903,"Ġtur":1904,"liae":1905,"acob":1906,"Ġmanu":1907,"Can":1908,"eh":1909,"idem":1910,"ulg":1911,"Ġdicimus":1912,"Ġdolore":1913,"ispan":1914,"Ġconsuetud":1915,"Ġdixi":1916,"Ġlocutus":1917,"Ġoptio":1918,"Ġcan":1919,"Ġmi":1920,"Ġfaciam":1921,"elim":1922,"mod":1923,"Ġejus":1924,"Ġfinem":1925,"ĠZ":1926,"itu":1927,"ulae":1928,"Ġprom":1929,"Ġveniam":1930,"Ġdomu":1931,"\",":1932,"Ġerunt":1933,"Ġessentia":1934,"ox":1935,"Ġlux":1936,"Ġdep":1937,"Ġipsius":1938,"Ġden":1939,"antium":1940,"Ġdict":1941,"Ġerr":1942,"Ġterrae":1943,"Ġmeae":1944,"Ġdicens":1945,"Ġsex":1946,"oni":1947,"Ġcop":1948,"Ġcust":1949,"Ġatt":1950,"Ġmortem":1951,"ĠAegypt":1952,"ãĥ":1953,"Ġbre":1954,"Ġsept":1955,"istis":1956,"ĠNunc":1957,"epta":1958,"aus":1959,"modi":1960,"Ġdil":1961,"Ġdiu":1962,"iri":1963,"Ġexistim":1964,"Ġumquam":1965,"Ġdiffic":1966,"Ð¾Ð":1967,"ĠChristi":1968,"par":1969,"Ġrecip":1970,"Ġdei":1971,"ĠPost":1972,"ĠPrae":1973,"Ġ&":1974,"etis":1975,"ĠCur":1976,"Ġmei":1977,"rob":1978,"Ġav":1979,"ĠIll":1980,");":1981,"andae":1982,"Ġcerte":1983,"ros":1984,"Ġhost":1985,"Ġaliquando":1986,"Ġlege":1987,"land":1988,"itionem":1989,"Ġdiem":1990,"Ġmagnam":1991,"Ġsimil":1992,"Ġpugn":1993,"Ġeligendi":1994,"ered":1995,"Ġlicet":1996,"Ġvidentur":1997,"\\/":1998,"uere":1999,"Ġto":2000,"Ġhominibus":2001,"Ġplaceat":2002,"Ġmagist":2003,"Ġnaturam":2004,"Ġiuris":2005,"Ġdelect":2006,"Ġtecum":2007,"ĠSc":2008,"Ġincip":2009,"Ġtabulat":2010,"Ġbellum":2011,"Ġvera":2012,"eph":2013,"Ġgenus":2014,"Ġuxorem":2015,"Ġsupra":2016,"Ġvig":2017,"ereb":2018,"ĠIos":2019,"Ġpol":2020,"Ġpotestate":2021,"Ġsalut":2022,"Nam":2023,"Ġeff":2024,"Ġon":2025,"Ġreper":2026,"Ġpauc":2027,"anu":2028,"issima":2029,"iret":2030,"nis":2031,"Ġcorpus":2032,"30":2033,"Ġsper":2034,"ĠCar":2035,"Ġseu":2036,"Ġpropri":2037,"Ġpopulo":2038,"Ġdeinde":2039,"ĠPet":2040,"Ġaliter":2041,"Ġalien":2042,"Quod":2043,"issent":2044,"III":2045,"Ġy":2046,"Ġindic":2047,"ĠIm":2048,"Quid":2049,"Ġalio":2050,"Ġtotum":2051,"Ġhonest":2052,"cus":2053,"Ġproxim":2054,"Ġtabula":2055,".,":2056,"Ġcong":2057,"ipisc":2058,"Ġposset":2059,"Ġaccid":2060,"Ġmodum":2061,"Ġvitam":2062,"erus":2063,"eram":2064,"imur":2065,"Ġmultis":2066,"Ġreprehenderit":2067,"uen":2068,"ĠEgo":2069,"ĠIesus":2070,"Ġmeli":2071,"âĢĻ":2072,"Ġfugiat":2073,"Ġuid":2074,"Ġlibert":2075,"Ġpartes":2076,"Ġvocem":2077,"Ġnob":2078,"Ġtuis":2079,"Ġ2009":2080,"Ġdesc":2081,"Ġvelim":2082,"ĠNov":2083,"tu":2084,"ioec":2085,"Ġand":2086,"Ġpae":2087,"imis":2088,"Ġcupid":2089,".)":2090,"Ġquot":2091,"Ġfur":2092,"Ġopin":2093,"uncta":2094,"ioeces":2095,"aliter":2096,"ĠCat":2097,"Ġpotentia":2098,"Ġuno":2099,"Ġof":2100,"ĠIudae":2101,"De":2102,"29":2103,"Ġport":2104,"Ġquaerat":2105,"embris":2106,"ce":2107,"ni":2108,"oque":2109,"Ġmitt":2110,"Ġipsis":2111,"Ġsuscip":2112,"athol":2113,"Ġmundum":2114,"ulam":2115,"ĠEp":2116,"andem":2117,"Ġmaius":2118,"Ġmultum":2119,"Ġsumma":2120,"Ġcogitari":2121,"Ġk":2122,"abitur":2123,"Ġben":2124,"ou":2125,"Ġequ":2126,"accur":2127,"Ġsucc":2128,"ĠAs":2129,"ĠAli":2130,"Ġfuerunt":2131,"Ġiudicium":2132,"Ġingen":2133,"accurate":2134,"50":2135,"Ġnunt":2136,"ich":2137,"ecto":2138,"ivit":2139,"Ġquidam":2140,"ebus":2141,"Ġlac":2142,"ĠSt":2143,"Ġaliae":2144,"Ġhabeo":2145,"Ð°Ð":2146,"27":2147,"iarum":2148,"pr":2149,"uss":2150,"Ġfaciunt":2151,"Ġscript":2152,"Ġdisput":2153,"hen":2154,"Ġinim":2155,"Ġpriv":2156,"Ġpraed":2157,"Ġlibro":2158,"Ġputo":2159,"Ġforte":2160,"Ġgratiam":2161,"Ġfrater":2162,"Ġarbitr":2163,"rac":2164,"Ġsuos":2165,"Ġcorr":2166,"Ġdefin":2167,"Ġcr":2168,"Ġrog":2169,"ress":2170,"Ġfortasse":2171,"Ġpublica":2172,"Ġiterum":2173,"lus":2174,"ugn":2175,"ãĤ":2176,"Ġmanus":2177,"Ġfruc":2178,"ĠErgo":2179,"33":2180,"atu":2181,"atibus":2182,"entus":2183,"Ġadipisc":2184,"Ġvolo":2185,"Ġteneb":2186,"het":2187,"pet":2188,"inct":2189,"Ġculp":2190,"Ġfere":2191,"Ġconv":2192,"Ġtemporibus":2193,"Ġprovincia":2194,"Ġrecte":2195,"lem":2196,"Ġperic":2197,"ĠMag":2198,"Ġpropos":2199,"Ġquicquam":2200,"Ġaur":2201,"ulorum":2202,"Ġquaecumque":2203,"ĠInt":2204,"Ġaccep":2205,"Ġfecisti":2206,"Ġpuer":2207,"Ã¡":2208,"ariae":2209,"Ġuti":2210,"ilem":2211,"issimus":2212,"Ġopera":2213,"Ġterr":2214,"Ġalii":2215,"Ġcas":2216,"irum":2217,"Ġlabore":2218,"Ġeffect":2219,"erentur":2220,"ioni":2221,"ĠAut":2222,"ĠPer":2223,"Ġoratio":2224,"Ġpostquam":2225,"Haec":2226,"iit":2227,"natus":2228,"Ġ;":2229,"Ġ<":2230,"antes":2231,"Ġalias":2232,"Ġperd":2233,"Ġ194":2234,"Ġ/":2235,"Ġaest":2236,"Ġrev":2237,"Ġ199":2238,"ugust":2239,"rb":2240,"anae":2241,"Ġdomo":2242,"Ġq":2243,"Ġmecum":2244,"Ġnondum":2245,"ĠNec":2246,"Ġincidunt":2247,"ron":2248,"itationem":2249,"ĠQuia":2250,"ensi":2251,"erimus":2252,"Ġaff":2253,"ĠHispan":2254,"ĠDav":2255,"Ġviri":2256,"Ġusus":2257,"ĠUnde":2258,"ĠSpir":2259,"Ġmar":2260,"Ġlud":2261,"tare":2262,"Ġpopulum":2263,"Ġgratia":2264,"Ġfuturum":2265,"Ġquodam":2266,"Ġfacile":2267,"Ġhabit":2268,"Ġquibusdam":2269,"Ġpopulus":2270,"annes":2271,"ifest":2272,"Ġnar":2273,"ren":2274,"abis":2275,"Ġdiebus":2276,"Ġpotuit":2277,"Ġaliquod":2278,"Ġimag":2279,"Ġhomine":2280,"ix":2281,"Ġiac":2282,"Ġfem":2283,"Ġgest":2284,"Ġannis":2285,"ĠĠĠĠĠĠĠĠĠĠĠĠĠĠĠĠ":2286,"Ġpertinet":2287,"Ad":2288,"Ex":2289,"Ġped":2290,"Ġnav":2291,"ict":2292,"Ġ20":2293,"Quis":2294,"ĠQuo":2295,"Ġpuell":2296,"Ġsententia":2297,"Ġvalde":2298,"Ġnesciunt":2299,"32":2300,"Ġson":2301,"Ġhos":2302,"Ġutil":2303,"ĠHi":2304,"libet":2305,"Ġcoram":2306,"Ġlocus":2307,"Ġsequi":2308,"Ġtestim":2309,"Ġaug":2310,"Ġmiss":2311,"Ġdeum":2312,"ĠNeque":2313,"Ġanni":2314,"Ġoff":2315,"Ġnullum":2316,"itudine":2317,".{":2318,"verunt":2319,"erd":2320,"Ġini":2321,"rec":2322,"endus":2323,"Ġfacti":2324,"Ġlinguam":2325,"Ġforma":2326,"Num":2327,"icem":2328,"Ġfoed":2329,"Ġvidere":2330,"Ġsane":2331,"Ġfortun":2332,"Ġlitteras":2333,"aretur":2334,"Ġsuas":2335,"iora":2336,"Ġagere":2337,"Ġverbis":2338,"Ġsententiae":2339,"Ġvivere":2340,"quod":2341,"ionum":2342,"Ġurbe":2343,"Ġcogno":2344,"ĠSept":2345,"Ġambul":2346,"iscum":2347,"Ġscriptum":2348,"Ġsaeculo":2349,"Ġconiunct":2350,"itiis":2351,"uris":2352,"Ġiuc":2353,"ĠLib":2354,"Ġinterrog":2355,"Ġpublicae":2356,"Ġrespondit":2357,"Ġextra":2358,"ĠDavid":2359,"yr":2360,"Ġsin":2361,"Ġmerc":2362,"icorum":2363,"Ġads":2364,"Ġrepell":2365,"Ġintellect":2366,"lam":2367,"ru":2368,"Ġveh":2369,"antibus":2370,"ĠVerbum":2371,"Ġscrips":2372,"Ġmaiores":2373,"Ġdam":2374,"ĠAugust":2375,"ostol":2376,"Ġpatrem":2377,"Ġdivis":2378,"Ġdim":2379,"itati":2380,"Ġcast":2381,"Ġurbem":2382,"Ġdivers":2383,"Ġignor":2384,"Ġexspect":2385,"non":2386,"pici":2387,"olog":2388,"Ġrelin":2389,"ĠPa":2390,"Ġnostri":2391,"Ġlinguae":2392,"Ġeven":2393,"quir":2394,"anis":2395,"ulit":2396,"eperunt":2397,"Ġnasc":2398,"Ġvers":2399,"Ġessem":2400,"Ġmulti":2401,"ĠDomine":2402,"Ġdux":2403,"ĠâĢĵ":2404,"Ġra":2405,"Ġaux":2406,"Ġetsi":2407,"Ġhered":2408,"ania":2409,"oss":2410,"Ġmeis":2411,"endis":2412,"Ġpartem":2413,"Ġpraesens":2414,"Ġmundo":2415,"Ġodio":2416,"Ġoppidum":2417,"ola":2418,"ares":2419,"Ġaccepit":2420,"Ġcompos":2421,"Ġcaelum":2422,"36":2423,"itae":2424,"ulator":2425,"ĠAc":2426,"Ġillos":2427,"âĢ¦":2428,"ĠÂ»":2429,"uisse":2430,"Ġsor":2431,"ith":2432,"Ġhuic":2433,"Ġass":2434,"Ġpopuli":2435,"Ġtota":2436,"Ġullam":2437,"ĠNum":2438,"Ġanimae":2439,"Ġcura":2440,"amur":2441,"Ġrelig":2442,"ave":2443,"Ġvideatur":2444,"rop":2445,"rent":2446,"Ġadf":2447,"istor":2448,"Ġvideb":2449,"ustr":2450,"ĠEtiam":2451,"ĠProv":2452,"Ġperf":2453,"Ġfiliis":2454,"issimi":2455,"Ġcorpore":2456,"Ġfide":2457,"Ġsust":2458,"usc":2459,"Ġfabul":2460,"ĠPom":2461,"Ġmanifest":2462,"Ġsociet":2463,"ow":2464,"urr":2465,"Ġfig":2466,"ĠIl":2467,"ĠVol":2468,"Ġbonorum":2469,"Ġ2011":2470,"Ġadhib":2471,"Ġmemoria":2472,".'":2473,"Ġquar":2474,"Ġlum":2475,"ĠIacob":2476,"Ġperven":2477,"Ġhabuit":2478,"Ġpatris":2479,"Ġscriptor":2480,"onte":2481,"Ġli":2482,"inqu":2483,"endere":2484,"Ġnullo":2485,"Ġsubstantia":2486,"Ġmulier":2487,"ixit":2488,"Ġparum":2489,"Ġorient":2490,"Ġarch":2491,"ense":2492,"elli":2493,"Ġmundus":2494,"Ġstatim":2495,"nit":2496,"Ðº":2497,"Ñĥ":2498,"eros":2499,"Ġtut":2500,"enus":2501,"ectetur":2502,"Ġsch":2503,"Ġnostro":2504,"Ġordin":2505,"unquam":2506,"Ġla":2507,"Ġ24":2508,"ertim":2509,"ariis":2510,"Ġlitteris":2511,"aginta":2512,"Ġeu":2513,"Ġaffect":2514,"onia":2515,"idie":2516,"Ġrefer":2517,"atores":2518,"rip":2519,"rorum":2520,"uram":2521,"Ġpossid":2522,"Ġpariatur":2523,"Ġaliquis":2524,"Ġfidem":2525,"Ġculpa":2526,"iendum":2527,"lac":2528,"Ġpret":2529,"Ġiniqu":2530,"Ġfre":2531,"ara":2532,"ĠIun":2533,"ĠIanu":2534,"Ġdicis":2535,"Ġbonis":2536,"Ġlegem":2537,"Ġmanum":2538,"Ġmateria":2539,"Cum":2540,"Ġcens":2541,"Ġdeo":2542,"iva":2543,"Ġfratres":2544,"Ġ2010":2545,"Ġnescio":2546,"Ġalicuius":2547,"\",\"":2548,"ax":2549,"mus":2550,"pi":2551,"ond":2552,"endae":2553,"Ġquidquid":2554,"Ġarc":2555,"Ġmagni":2556,"Ġmala":2557,"ĠÂ§":2558,"Î¿":2559,"oniae":2560,"Ġvia":2561,"Ġvere":2562,"Ġhort":2563,"ecit":2564,"Ġrel":2565,"ante":2566,"issem":2567,"Ġdixerunt":2568,"Ġamicitia":2569,"Ġcompar":2570,"Ġpecunia":2571,"Ġofficia":2572,"pectu":2573,"Ġpal":2574,"Ġuol":2575,"Ġscripsit":2576,"Ġsimplic":2577,"Ġtotam":2578,"Ġcircum":2579,"Ġdemon":2580,"Ġpossessionem":2581,"fac":2582,"Ġ11":2583,"Ġhabebat":2584,"andam":2585,"Ġsolus":2586,"Ġasper":2587,"Ġaudivi":2588,"Ġpass":2589,"ĠIp":2590,"ĠDec":2591,"ĠPar":2592,"ister":2593,"Ġcunct":2594,"Ġdare":2595,"ĠMos":2596,"Ġvidit":2597,"Ġuero":2598,"ĠVid":2599,"Ġintra":2600,"Ġboni":2601,"Ġregem":2602,"ĠLatine":2603,"Ġtanta":2604,"oh":2605,"opt":2606,"all":2607,"Ġquamvis":2608,"Ġanimam":2609,"Ġnostris":2610,"Ġassum":2611,"Ġuxor":2612,"erg":2613,"itione":2614,"stat":2615,"ete":2616,"Ġconsectetur":2617,"Ġoculis":2618,"Ġsententiam":2619,"quidem":2620,"ĠRomani":2621,"Ġquat":2622,"Ġdis":2623,"Ġment":2624,"enn":2625,"entius":2626,"Ġle":2627,"ĠThe":2628,"Ġpraesertim":2629,"eptum":2630,"Ġinvent":2631,"Ġsaep":2632,"Ġsensus":2633,"Ġcustod":2634,"Ġmundi":2635,"Ġprovinciae":2636,"Ġsy":2637,"amen":2638,"Ġquaes":2639,"Ġanimus":2640,"Ġfaciat":2641,"Ġfacilis":2642,"Ġ26":2643,"ĠProvinc":2644,"lect":2645,"Î±":2646,"Ġagn":2647,"Ġparent":2648,"ure":2649,"Ġvinc":2650,"Ġtem":2651,"abile":2652,"ĠII":2653,"Ġtemporis":2654,"Ġregis":2655,"Ġ197":2656,"Ġquisque":2657,"Ġlittera":2658,"sc":2659,"ulc":2660,"Ġnonne":2661,"Ġret":2662,"000":2663,"Ġfeci":2664,"Ġturp":2665,"iebat":2666,"Ġmer":2667,"Ġcreatur":2668,"Ġnumero":2669,"Ġdominus":2670,"ÃŃ":2671,"Ġhi":2672,"Ġquaeso":2673,"Ġconsum":2674,"Ġprophet":2675,"Ġconting":2676,"Ġ196":2677,"Ġmilit":2678,"cum":2679,"eant":2680,"uam":2681,"itam":2682,"Ġinde":2683,"Ġantea":2684,"Ġvalet":2685,"ĠLatina":2686,"Ġprimus":2687,"ĠDic":2688,"Ġscel":2689,"Ġprincipio":2690,"Ġlaet":2691,"Ġisti":2692,"Ġnat":2693,"Ġfund":2694,"imi":2695,"Ġperpet":2696,"ĠTum":2697,"abulator":2698,"Ġplacet":2699,"crib":2700,"Ġargum":2701,"39":2702,"lator":2703,"qua":2704,"quae":2705,"umb":2706,"ĠNull":2707,"unda":2708,"gu":2709,"Ġviam":2710,"ech":2711,"Ġpossint":2712,"Ġ28":2713,"Ġplen":2714,"Ġplane":2715,"Ġfecerit":2716,"Ġaudire":2717,"Ġduae":2718,"Ġisto":2719,"Ġecclesiam":2720,"Ġalterum":2721,"Ġvix":2722,"Ġdiffer":2723,"Ġaestim":2724,"Ġiniur":2725,"Ġadul":2726,"Ġlex":2727,"Ġdolores":2728,"Ġnumquid":2729,"bulator":2730,"Ġfel":2731,"Ġdicat":2732,"ĠPrim":2733,"Ġpotes":2734,"ioris":2735,"Ġfilios":2736,"Ġgener":2737,"Ġamplius":2738,"Ġintellectu":2739,"null":2740,"Ġnati":2741,"Ġvac":2742,"ecim":2743,"Ġscio":2744,"ĠâĢĺ":2745,"Ġprincipium":2746,"amp":2747,"ute":2748,"ĠCic":2749,"ratus":2750,"Ġcapt":2751,"Ġconsilium":2752,"ĠVen":2753,"Ġsalv":2754,"Ġsusc":2755,"Ġproprium":2756,"Ġporro":2757,"ay":2758,"Ġcondic":2759,"ĠNe":2760,"ĠMed":2761,"ĠUrb":2762,"Ġdecem":2763,"ontific":2764,"ĠAtque":2765,"Ġpauper":2766,"Ġexercitationem":2767,"Ġceteris":2768,"At":2769,"rin":2770,"Ġpropria":2771,"ĠIoseph":2772,"eremus":2773,"Ġsemp":2774,"Ġdata":2775,"Ġutique":2776,"Ġexper":2777,"ĠEcce":2778,"Ġgl":2779,"eps":2780,"Ġpraesid":2781,"Ġconced":2782,"cript":2783,"35":2784,"37":2785,"ha":2786,"uae":2787,"Ġquare":2788,"Ġta":2789,"itatum":2790,"Ġaliquem":2791,"essus":2792,"Ġcivitatis":2793,"Ġcrim":2794,"Ġnim":2795,"ocrat":2796,"ĠEpic":2797,"Ġvideri":2798,"Ġsignum":2799,"ĠIanuarii":2800,"rus":2801,"Ñĭ":2802,"ĠÎ":2803,"Ġtres":2804,"Ġfiat":2805,"Ġadv":2806,"Qui":2807,"ĠQua":2808,"Ġvideo":2809,"Ġ25":2810,"Ġalb":2811,"Ġpartibus":2812,"Ġtestimonium":2813,"Ġaquam":2814,"Ġvul":2815,"ese":2816,"Ġlev":2817,"abatur":2818,"ilibus":2819,"Ġhabemus":2820,"ivi":2821,"Ġveritatis":2822,"Ġsitum":2823,"Ġvirum":2824,"Ġ30":2825,"Ġantequam":2826,"Ġmisit":2827,"ĠBrit":2828,"Ġsubiectum":2829,"Ġostend":2830,"Ġregnum":2831,"Ġutrumque":2832,"Hoc":2833,"ãĢ":2834,"Ġha":2835,"abilis":2836,"ĠCl":2837,"Ġpraem":2838,"Ġusu":2839,"ressus":2840,"Ġpecuniae":2841,"Ġaquae":2842,"ĠIuda":2843,"ĠPater":2844,"Ġdistinct":2845,"leg":2846,"Ġrestit":2847,"Ġbest":2848,"Ġpotestatem":2849,"Ġrelinqu":2850,"34":2851,"Ġvim":2852,"Ġtandem":2853,"ĠCor":2854,"Quae":2855,"Ġprofic":2856,"Ġhomini":2857,"inti":2858,"Ġnoster":2859,"Ġpostul":2860,"Ġgeneris":2861,"Ġputas":2862,"Ġtestam":2863,"ĠEcclesia":2864,"Ġecclesiast":2865,"Ġceleb":2866,"Ġfrequ":2867,"ribus":2868,"eta":2869,"ule":2870,"ulli":2871,"iori":2872,"Ġloquor":2873,"Ġpraeses":2874,"Ġurbis":2875,"Ġvoluntatem":2876,"CC":2877,"].":2878,"Ġpen":2879,"ĠLuc":2880,"Ġfilio":2881,"Ġcorde":2882,"Ġjust":2883,"Ġitem":2884,"31":2885,"eas":2886,"Ġmus":2887,"urre":2888,"Ġtac":2889,"Ġtalis":2890,"Ġharum":2891,"Ġhistor":2892,"Ġpert":2893,"Ġstult":2894,"Ġnomina":2895,"Ġtenetur":2896,"Ġcetera":2897,"Ġangel":2898,"201":2899,"ver":2900,"Ġno":2901,"Ġmagnum":2902,"dus":2903,"Ġpere":2904,"aniae":2905,"Ġquaeque":2906,"antia":2907,"Ġconsec":2908,"Ġamicitiae":2909,"Ġfugit":2910,"Ġsacerd":2911,"ĠBritann":2912,"eatur":2913,"Ġ0":2914,"Ġ...":2915,"inist":2916,"atorum":2917,"Ġdia":2918,"Ġir":2919,"abunt":2920,"Ġdepos":2921,"ĠDol":2922,"Ġcomed":2923,"Ġcommod":2924,"Ġbenefic":2925,"Ġpoen":2926,"Ġbened":2927,"Ġcorrupt":2928,"Ġsempiter":2929,"Ġnunquam":2930,"redi":2931,"eniti":2932,"ĠCathol":2933,"ĠQuare":2934,"Ġ27":2935,"Ġfecerunt":2936,"itudinis":2937,"ĠIsrae":2938,"Ġvoluntate":2939,"Ut":2940,"à´":2941,"itias":2942,"onom":2943,"enim":2944,"ĠAg":2945,"Ġalius":2946,"Ġbland":2947,"Ġacced":2948,"Ġeleg":2949,"eperit":2950,"ĠQuamquam":2951,"Ġsuscipit":2952,"iu":2953,"ĠFac":2954,"ĠTu":2955,"Ġcausae":2956,"Ġcivitate":2957,"Ġ2012":2958,"Ġulla":2959,"ioc":2960,"Ġfest":2961,"idic":2962,"ĠEur":2963,"ive":2964,"ĠMo":2965,"Ġ29":2966,"Ġorb":2967,"Ġdesider":2968,"Ġ2008":2969,"Ġscribere":2970,"Ġhuiusmodi":2971,"Ġplures":2972,"ĠEpiscop":2973,"uisti":2974,"Î½":2975,"atam":2976,"uto":2977,"Ġfore":2978,"abant":2979,"ĠSunt":2980,"Ġconsilio":2981,"Ġtabulato":2982,"Ġasc":2983,"Ġactum":2984,"\":\"":2985,"ĠProvincia":2986,"uven":2987,"umus":2988,"orsus":2989,"iderat":2990,"sign":2991,"Ġdubit":2992,"\"\\\"\\\"\\\"\\\"\\\"\\\"\\\"\\\"\\\"\\\"\\\"\\\"\\\"\\\"\\\"\\":2993,"ok":2994,"idere":2995,"ĠCap":2996,"Ġbono":2997,"Ġgenerat":2998,"Ġofficiis":2999,"Ġfutura":3000,"etiae":3001,"ĠEn":3002,"age":3003,"Ġcoepit":3004,"Ġhabes":3005,"Ġamb":3006,"Ġquad":3007,"Ġcommodi":3008,"Ġvirtus":3009,"Ġ198":3010,"Ġmaiorem":3011,"Ġofficium":3012,"Ġmensis":3013,"ĠOmnia":3014,"Ġprofecto":3015,"onum":3016,"tav":3017,"rare":3018,"Ġpoterit":3019,"eruntur":3020,"illa":3021,"ÐµÐ":3022,"az":3023,"com":3024,"ht":3025,"Â§":3026,"iderunt":3027,"Ġpros":3028,"Ġaliam":3029,"Ġanimal":3030,"adem":3031,"Ġtabulas":3032,"Ġverborum":3033,"Ġelect":3034,"Ġquaeritur":3035,"ĠIulii":3036,"ĠIsrael":3037,"rib":3038,"ationibus":3039,"antem":3040,"Ġalium":3041,"igin":3042,"Ġlocis":3043,"Ġdeserunt":3044,"Ġ2007":3045,"Ġcaelo":3046,"Ġquinque":3047,"Ġsingul":3048,"ĠPompe":3049,"lud":3050,"Ġsuffic":3051,"Ġens":3052,"Ġhabitat":3053,"Ġconsol":3054,"Ġcontem":3055,"Ġfiliae":3056,"Ġfuisset":3057,"rix":3058,"ĠCaesar":3059,"ÑģÑĤ":3060,"eam":3061,"mat":3062,"Ġot":3063,"Ġdorm":3064,"Ġtoll":3065,"Ġflum":3066,"ĠSal":3067,"Ġpraet":3068,"Ġsep":3069,"ĠDomino":3070,"Ġmale":3071,"Ġnota":3072,"Ġpraecepta":3073,"Ġvirtute":3074,"Ġindig":3075,"Ġgloriam":3076,"Ġfaciem":3077,"Ġbeatus":3078,"Ġsecundo":3079,"Ġprud":3080,"Ġplura":3081,"Ġmali":3082,"Ġprope":3083,"Ġiudicio":3084,"Ġdedisti":3085,"dign":3086,"Ġelit":3087,"Ġsigna":3088,"ĠArist":3089,"angeli":3090,"ursus":3091,"ĠIam":3092,"Ġanc":3093,"Ġfacult":3094,"ĠLut":3095,"erumque":3096,"Ġalt":3097,"Ġsermo":3098,"Ġsubs":3099,"Ġexped":3100,"Ġnotare":3101,"Ġdomine":3102,"Ġquaerere":3103,"PD":3104,"ly":3105,"quo":3106,"Ġcant":3107,"ensum":3108,"itavit":3109,"ĠAng":3110,"Ġcivitatem":3111,"Ġactu":3112,"Ġoptime":3113,"Ġexcept":3114,"Ġlonge":3115,"iantur":3116,"ĠImper":3117,"ke":3118,"Ġ?":3119,"Ġcib":3120,"Ġdioeces":3121,"ebantur":3122,"Ġveritatem":3123,"Ġquaerit":3124,"Ġinterp":3125,"Ġcredit":3126,"Ġminor":3127,"Ġtria":3128,"Ġcivitas":3129,"Ġmaxima":3130,"Ġscribis":3131,"Ġiustitiam":3132,"Ġsummum":3133,"ĠGermaniae":3134,"¿½":3135,"ï¿½":3136,"Ġdatur":3137,"iamus":3138,"ĠCal":3139,"ilii":3140,"ĠMin":3141,"averit":3142,"Ġsola":3143,"Ġsecum":3144,"Ġlegatus":3145,"Ġsenatus":3146,"modum":3147,"Ġerror":3148,"40":3149,"hod":3150,"abam":3151,"Ġalios":3152,"Ġopere":3153,"Ġnostram":3154,"ĠOr":3155,"Ġspect":3156,"Ġiusto":3157,"Ġmori":3158,"\".":3159,"48":3160,"apt":3161,"Ġau":3162,"Ġdex":3163,"Ġoperat":3164,"Ġiudices":3165,"Ġoccup":3166,"ĠRomanae":3167,"Ġinfin":3168,"Ġclam":3169,"ĠInter":3170,"Ġvend":3171,"imae":3172,"iliter":3173,"Ġscit":3174,"Ġpossim":3175,"Ġconsider":3176,"Ġsolv":3177,"Ġunius":3178,"Ġpatre":3179,"ĠDominum":3180,"Ġ185":3181,"Ġconfirm":3182,"Ġiustitiae":3183,"Ġextrem":3184,"Ġpolit":3185,"ĠEurop":3186,"åİ":3187,"Ġiter":3188,"icarum":3189,"Ġconvers":3190,"Ġfacies":3191,"Ġgoth":3192,"Ġapostol":3193,"Ġpossib":3194,"ĠDeinde":3195,"Ġminist":3196,"Ġ195":3197,"Ġconcess":3198,"Ġiustus":3199,"Ġformam":3200,"Ġpluribus":3201,"44":3202,"tis":3203,"aed":3204,"Ġfirm":3205,"Ġrelic":3206,"Ġloque":3207,"udi":3208,"ala":3209,"Ġfacilius":3210,"Ġessentiam":3211,"âĢĶ":3212,"Ġputamus":3213,"uxit":3214,"Ġtabern":3215,"Ġoperam":3216,"iz":3217,"ps":3218,"Ñĩ":3219,"Ġinst":3220,"Ġetiamsi":3221,"Ġipsorum":3222,"ĠLa":3223,"Ġvenire":3224,"Ġoculi":3225,"ĠAtt":3226,"Ġcael":3227,"Ġnecessitatibus":3228,"Ġgothica":3229,"ho":3230,"rag":3231,"Î¹":3232,"errim":3233,"Ġnata":3234,"Ġdev":3235,"Ġdiceret":3236,"Ġsollic":3237,"Ġori":3238,"iosum":3239,"Ġsapientia":3240,"iore":3241,"ĠAf":3242,"ĠSto":3243,"Ġunam":3244,"Ġobl":3245,"Ġscripsi":3246,"Ġrepet":3247,"Ã¦c":3248,"Ġfidei":3249,"Ġcirciter":3250,"Ġbeatae":3251,"Ġdenique":3252,"Ġbrev":3253,"Ġiucund":3254,"pp":3255,"Ġque":3256,"ĠSam":3257,"Ġillae":3258,"Ġgentes":3259,"Ġtuas":3260,"âĢľ":3261,"Ġpatet":3262,"Ġdefend":3263,"Ġultra":3264,"Ġscientia":3265,"Ġcupiditate":3266,"ÏĦ":3267,"Ġx":3268,"err":3269,"ines":3270,"emur":3271,"ĠSim":3272,"obus":3273,"Ġipsos":3274,"ioribus":3275,"Ġpraesentium":3276,"Ġservus":3277,"Ġeget":3278,"Ġimperator":3279,"Ġabsol":3280,"Ġvirtutis":3281,"Ġfructum":3282,"hi":3283,"Ġrevert":3284,"ota":3285,"Ġvenerunt":3286,"Ġdeduc":3287,"Ġdelectus":3288,"Ġfides":3289,"Ġdoctr":3290,"Ġaperiam":3291,"Ġspecies":3292,"ĠMaii":3293,"ĠSancti":3294,"Ġvehem":3295,"IV":3296,"Ñı":3297,"Ġfiunt":3298,"ote":3299,"Ġconstr":3300,"issimo":3301,"Ġobi":3302,"Ġnullam":3303,"Ġparticip":3304,"Ġiustitia":3305,"Ġsuspic":3306,"Ġexplicabo":3307,"Ita":3308,"mis":3309,"su":3310,"uus":3311,"Ġort":3312,"Ġpron":3313,"olis":3314,"ella":3315,"ressi":3316,"ĠRomana":3317,"Ġfratrem":3318,"ĠMart":3319,"Ġodit":3320,"Ġquanto":3321,"Ġadduc":3322,"Ġadversus":3323,"Ġmiseric":3324,"tuor":3325,"åİ¿":3326,"38":3327,"our":3328,"Ġsil":3329,"Ġsomn":3330,"itor":3331,"Ġcult":3332,"icula":3333,"utis":3334,"omm":3335,"Ġhor":3336,"Ġsedes":3337,"Ġcad":3338,"Ġcommend":3339,"Ġappar":3340,"Ġactus":3341,"ĠAthen":3342,"Ġlitterae":3343,"Ġsapientiae":3344,"ĠOmnes":3345,"Ġproficisc":3346,"atim":3347,"Ġiuv":3348,"abantur":3349,"ĠPol":3350,"ĠPro":3351,"Ġprohib":3352,"Ġeaque":3353,"Ġproport":3354,"Ġusum":3355,"Ġmorte":3356,"Ġtotius":3357,"Ġpublicam":3358,"Ġadiuv":3359,"Ġdemonst":3360,"circ":3361,"uas":3362,"uimus":3363,"à«":3364,"eribus":3365,"itium":3366,"onae":3367,"liv":3368,"ĠRe":3369,"Ġlegit":3370,"alium":3371,"Ġrecus":3372,"Ġnocte":3373,"Ġobserv":3374,"Ġmelior":3375,"uisset":3376,"ä¸":3377,"Ġexter":3378,"ĠEs":3379,"ĠIt":3380,"ellum":3381,"ubern":3382,"Ġdomi":3383,"Ġmoribus":3384,"05":3385,"VI":3386,"Ã¢":3387,"Ġprorsus":3388,"Quam":3389,"ĠLe":3390,"ertum":3391,"ertur":3392,"âĢī":3393,"Ġinterfic":3394,"Ġleges":3395,"Ġannorum":3396,"Ġcommunia":3397,"iosam":3398,"Ġaltera":3399,"Ġsalutem":3400,"46":3401,"Ġedit":3402,"ites":3403,"ater":3404,"ida":3405,"Ġpraeterea":3406,"ĠRes":3407,"ĠTur":3408,"Ġfilia":3409,"Ġdiximus":3410,"Ġantep":3411,"Ġ36":3412,"Ġsangu":3413,"Ġlitterarum":3414,"Ġvestra":3415,"Ġsensu":3416,"Ġmutationem":3417,"Ġappellatur":3418,"Ġprocessus":3419,"Ġmunicip":3420,"ĠChristus":3421,"Ġsaepius":3422,"Ġloqueb":3423,"Ġom":3424,"ipp":3425,"Ġpraetor":3426,"Ġillic":3427,"ĠPot":3428,"ĠNost":3429,"Ġconspectu":3430,"essor":3431,"Ġnostrae":3432,"Ġoculos":3433,"Ġimpet":3434,"Ġgenera":3435,"Ġistud":3436,"Ġmalo":3437,"Ġcomprehend":3438,"Ġservi":3439,"Ġrecord":3440,"Ġsubstantiae":3441,"ĠCons":3442,"ĠIlle":3443,"ci":3444,"Ġcess":3445,"Ġmy":3446,"uras":3447,"Ġhorum":3448,"ĠPis":3449,"Ġvelle":3450,"Ġmortui":3451,"ĠUbi":3452,"Ġdebent":3453,"Ġvocabul":3454,"Ġperspic":3455,"Ġreliqua":3456,"Ð¸Ð":3457,"Ġsubstantiam":3458,"piciatis":3459,"eor":3460,"uitur":3461,"ximus":3462,"Ġov":3463,"erius":3464,"Ġaeg":3465,"inibus":3466,"Ġnem":3467,"uro":3468,"Ġconp":3469,"ĠAcc":3470,"aecati":3471,"Ġ23":3472,"ustra":3473,"Ġbonus":3474,"Ġregum":3475,"Ġdeleniti":3476,"Ġconsequuntur":3477,"Ġducimus":3478,"Ġfalsum":3479,"Ġtribun":3480,"Ġuniversa":3481,"Ġviginti":3482,"Ġsacerdot":3483,"ĀĀ":3484,"Ġdy":3485,"Ġmente":3486,"ices":3487,"abilia":3488,"ĠCol":3489,"Ġperitus":3490,"ĠPers":3491,"ĠMihi":3492,"Ġconsc":3493,"Ġplerumque":3494,"Ġsumpt":3495,"Ġorn":3496,"Ġtract":3497,"Ġamici":3498,"Ġconclus":3499,"retur":3500,"Ġaqua":3501,"au":3502,"Ġur":3503,"Ġsis":3504,"itter":3505,"Ġindign":3506,"olus":3507,"ĠScip":3508,"Ġ22":3509,"ĠHel":3510,"Ġquaeris":3511,"Ġanimum":3512,"Ġduod":3513,"Ġduas":3514,"ittere":3515,"Ġpueri":3516,"diu":3517,"Ġmagister":3518,"ĠRomanus":3519,"Ġnovum":3520,"ermin":3521,"ĠItaliae":3522,"Ġepiscopalis":3523,"ierunt":3524,"rig":3525,"Ġz":3526,"Ġsoli":3527,"Ġsese":3528,"ursum":3529,"Ġconfic":3530,"Ġillorum":3531,"Ġhabeb":3532,"ĠRhod":3533,"ĠVal":3534,"Ġaccept":3535,"Ġlegis":3536,"Ġmultae":3537,"Ġ39":3538,"Ġ186":3539,"Ġelectus":3540,"Ġpraecepit":3541,"Ġmemin":3542,"Ġfuga":3543,"Ġfactionis":3544,"Ġinventore":3545,"ria":3546,"ĠQ":3547,"ind":3548,"Ġcec":3549,"Ġturb":3550,"utio":3551,"olae":3552,"Ġcondit":3553,"ĠSec":3554,"Ġsepar":3555,"Ġconserv":3556,"Ġmagno":3557,"ientia":3558,"Ġlegibus":3559,"issimos":3560,"Ġlaborum":3561,"Ġnovi":3562,"Ġpeccatum":3563,"',":3564,"Ar":3565,"Omn":3566,"men":3567,"atore":3568,"Ġcot":3569,"Ġnub":3570,"Ġii":3571,"Ġire":3572,"ĠMirum":3573,"Ġvidet":3574,"Ġuir":3575,"Ġminime":3576,"Ġabsc":3577,"Ġbello":3578,"Ġdiscipuli":3579,"Ġaccusamus":3580,"Ġadminist":3581,"ĠAlp":3582,"Ġmotus":3583,"ĠSpiritus":3584,"Ġquattuor":3585,"Lorem":3586,"Ã¨":3587,"ÏĤ":3588,"emor":3589,"Ġmont":3590,"Ġvox":3591,"utionem":3592,"entr":3593,"erest":3594,"ĠPontific":3595,"Ġvides":3596,"Ġuerbum":3597,"Ġproeli":3598,"Ġagitur":3599,"Ġnominis":3600,"Ġmemb":3601,"Ġjudic":3602,"Ġalterius":3603,"Ġvictor":3604,"Ġpersonae":3605,"Ġpaene":3606,"Ġterrarum":3607,"Ġglad":3608,"49":3609,"Item":3610,"eum":3611,"rius":3612,"Ġos":3613,"Ġty":3614,"eth":3615,"Ġexig":3616,"Ġpercip":3617,"Ġpraef":3618,"Ġpraepos":3619,"Ġinteg":3620,"deo":3621,"Ġimped":3622,"Ġagit":3623,"Ġvocatur":3624,"ĠâĢ¢":3625,"Ġoccult":3626,"Ġaccipere":3627,"Ġmedio":3628,"Ġpacem":3629,"Ġproprie":3630,"ade":3631,"Ġdur":3632,"Ġmentem":3633,"Ġiuven":3634,"Ġretin":3635,"ĠSuper":3636,"issa":3637,"Ġuen":3638,"Ġpatri":3639,"ĠInfer":3640,"Ġnullus":3641,"Ġmoll":3642,"Ġcertum":3643,"Ġaetate":3644,"âĢĿ.":3645,"Ġpaenit":3646,"Ġpereg":3647,"ĠCatholicae":3648,"circo":3649,"da":3650,"ueris":3651,"art":3652,"Ġdig":3653,"Ġamore":3654,"Ġaliquot":3655,"ientem":3656,"Ġ37":3657,"Ġspiritus":3658,"ĠÂ»Â»":3659,"Ġassumenda":3660,"Ġmisericord":3661,"47":3662,"natur":3663,"erere":3664,"Ġnoli":3665,"Ġline":3666,"Ġperfic":3667,"ĠNo":3668,"Ġfuerint":3669,"Ġspes":3670,"Ġvoluptatum":3671,"Ġdecre":3672,"Ġdedi":3673,"Ġoccas":3674,"Ġcaeli":3675,"Ġcogitare":3676,"Ġlectorum":3677,"ĠAliquam":3678,"Ġfructus":3679,"Ġimago":3680,".âĢĿ":3681,"pl":3682,"erta":3683,"Ġquarum":3684,"Ġinqu":3685,"Ġtit":3686,"eles":3687,"Ġconvert":3688,"Ġuoc":3689,"ĠRuss":3690,"Ġimagin":3691,"Ġistis":3692,"dixit":3693,"icumque":3694,"Ġactio":3695,"Ġfalsa":3696,"namicus":3697,"iginta":3698,"Ġsita":3699,"Ġquum":3700,"Ġdo":3701,"ial":3702,"Ġgubern":3703,"ensio":3704,"ellae":3705,"Ġvolumus":3706,"Ġviro":3707,"Ġmagnus":3708,"Ġverbo":3709,"Ġscribam":3710,"ĠIoannes":3711,"Ġartific":3712,"Ġadipiscing":3713,"ĠVolupt":3714,"vent":3715,"Ġuit":3716,"atorem":3717,"ona":3718,"Ġmilia":3719,"utem":3720,"aculum":3721,"abor":3722,"Ġcoep":3723,"Ġamor":3724,"ĠFeb":3725,"Ġtempor":3726,"ĠGen":3727,"Ġfiliorum":3728,"Ġinterdum":3729,"Ġcivitates":3730,"Ġnotae":3731,"Ġepiscopus":3732,"Ġtertio":3733,"ĠZen":3734,"Ġsustin":3735,"Ġagnosc":3736,"ga":3737,"ppe":3738,"sent":3739,"tae":3740,"vol":3741,"Ġcern":3742,"Ġmerit":3743,"Ġhae":3744,"ibulum":3745,"Ġadeo":3746,"ĠItem":3747,"Ġdierum":3748,"Ġfacie":3749,"ratum":3750,"ĠLeg":3751,"ĠFilius":3752,"Ġoratione":3753,"Ġveni":3754,"Ġloquuntur":3755,"Ġcommunis":3756,"Ġdelic":3757,"ĠÐ¿":3758,"Ġinvicem":3759,"Ġpatria":3760,"Ġcondita":3761,"Ġconsuetudium":3762,"Mar":3763,"min":3764,"nus":3765,"nae":3766,"Ïĥ":3767,"eras":3768,"arn":3769,"Ġsuff":3770,"ĠIst":3771,"ĠDem":3772,"Ġdicatur":3773,"ectae":3774,"ivum":3775,"ĠMult":3776,"Ġquaereb":3777,"Ġcontemp":3778,"Ġminister":3779,"issimis":3780,"Ġmanibus":3781,"Ġsimilis":3782,"Ġtriginta":3783,"Ġmaximum":3784,"Ġfiduc":3785,"ĠGraeci":3786,"Ġvoluntas":3787,"Ġtabu":3788,"Ġgloria":3789,"Ġsignificat":3790,"Ġsermonem":3791,"Ġcolleg":3792,"Ġseptem":3793,"ĠPetrum":3794,"Ġadipisci":3795,"Ġinterpret":3796,"Ġdynamicus":3797,"Est":3798,"Ġore":3799,"isus":3800,"Ġhas":3801,"Ġreli":3802,"Ġconstat":3803,"ĠCuius":3804,"Ġquippe":3805,"Ġvidemus":3806,"Ġub":3807,"Ġ21":3808,"ĠBo":3809,"Ġpublicus":3810,"Ġcarn":3811,"Ġplacuit":3812,"Ġperspiciatis":3813,"Ġconvenit":3814,"Ġblanditiis":3815,"Prae":3816,"Ã³":3817,"Ġsod":3818,"Ġpisc":3819,"imentum":3820,"ĠIII":3821,"raph":3822,"ĠQuint":3823,"ĠMan":3824,"Ġlibri":3825,"Ġspem":3826,"Ġvoce":3827,"Ġiudicia":3828,"Ġdiscess":3829,"Ġconcup":3830,"ĠComm":3831,"Ġhonor":3832,"ĠAmerica":3833,"Ġbeatum":3834,"ĠCaesaris":3835,"laritas":3836,"Ġfortuna":3837,"quaquam":3838,"Hic":3839,"Post":3840,"auc":3841,"Ġquoc":3842,"atos":3843,"Ġcentum":3844,"Ġdissim":3845,"anquam":3846,"abiles":3847,"rata":3848,"ectura":3849,"ĠMet":3850,"ertus":3851,"Ġdolorum":3852,"Ġvoluptates":3853,"Ġduos":3854,"Ġcapit":3855,"Ġ187":3856,"Ġoccid":3857,"103":3858,"Ġsaeculum":3859,"Ġordine":3860,"Ġquaestio":3861,"Ġalbum":3862,"'.":3863,"86":3864,"ain":3865,"ÑĮ":3866,"isit":3867,"liam":3868,"Ġquoddam":3869,"Ġnihilo":3870,"ĠVel":3871,"Ġloci":3872,"Ġoblig":3873,"admodum":3874,"Ġduobus":3875,"Ġpeculi":3876,"Ġdeclar":3877,"Ġoccident":3878,"Ġinvid":3879,"Ġdomino":3880,"Anno":3881,"asti":3882,"Ġadversum":3883,"Ġparva":3884,"Ġdamn":3885,"Ġent":3886,"obiscum":3887,"Ġgreg":3888,"Ġhabetur":3889,"Ġabund":3890,"Ġexpet":3891,"Ġtoto":3892,"Ġfratribus":3893,"Ġordinem":3894,"Ġpraecipue":3895,"Ġfamiliae":3896,"Ġyou":3897,"Ġarbitror":3898,"Ġrepellendus":3899,"Ġadulesc":3900,"Ġdistinctio":3901,"Datum":3902,"cta":3903,"rit":3904,"Ġá":3905,"Ġdap":3906,"Ġinitio":3907,"rep":3908,"Ġadmon":3909,"Ġscimus":3910,"Ġabi":3911,"Ġquaero":3912,"ĠVir":3913,"Ġaccess":3914,"Ġmultos":3915,"Ġimprob":3916,"Ġamicus":3917,"Ġvivit":3918,"Ġmatrem":3919,"Ġvideantur":3920,"Ġvisum":3921,"Ġvestrum":3922,"Ġabsque":3923,"Ġdignum":3924,"Ġorientalis":3925,"Ġdapibus":3926,"41":3927,"45":3928,"?\"":3929,"bat":3930,"Ġ{":3931,"icos":3932,"Ġtale":3933,"Ġiub":3934,"Ġfing":3935,"lium":3936,"Ġhodi":3937,"Ġrequir":3938,"ĠSequ":3939,"Ġdicentes":3940,"ravit":3941,"ientes":3942,"Ġdixitque":3943,"Ġintellectus":3944,"iose":3945,"Ġinfer":3946,"Ġcredo":3947,"ariant":3948,"Ġitin":3949,"Nihil":3950,"ĠÑģ":3951,"ones":3952,"onius":3953,"Ġventur":3954,"ĠAlex":3955,"ĠSy":3956,"Ġfaciet":3957,"ĠPy":3958,"Ġpossis":3959,"Ġuer":3960,"Ġanimad":3961,"Ġsponte":3962,"Ġvoluptatibus":3963,"eptus":3964,"Ġnecessaria":3965,"Ġlucem":3966,"Ġpulchra":3967,"88":3968,"Sa":3969,"Ã«":3970,"Ïģ":3971,"onus":3972,"econom":3973,"Ġlap":3974,"ille":3975,"anti":3976,"Ġsuav":3977,"ĠIust":3978,"Ġfaceret":3979,"ultus":3980,"Ġistam":3981,"Ġtrist":3982,"Ġappet":3983,"Ġoccurr":3984,"Ġpraeced":3985,"Ġinsip":3986,"Ġuxore":3987,"Ġexercitus":3988,"Ġsapientiam":3989,"Ġstudio":3990,"Ġullo":3991,"Ġfactae":3992,"Ġsermone":3993,"Ġdetermin":3994,"trib":3995,"Ġlaboriosam":3996,"Ġhosp":3997,"--":3998,"VIII":3999,"ogn":4000,"Ġele":4001,"Ġmom":4002,"Ġinuen":4003,"Ġhuc":4004,"Ġheres":4005,"arb":4006,"anam":4007,"ibilis":4008,"ensa":4009,"Ġhabens":4010,"ĠNumquam":4011,"undem":4012,"Ġamicis":4013,"Ġdivid":4014,"iosus":4015,"Ġoppos":4016,"Ġinvenire":4017,"Ġsancti":4018,"Ġspecie":4019,"Ġquanta":4020,"Ġpropriet":4021,"Ġnobiscum":4022,"Ġcasu":4023,"Ġuolunt":4024,"Ġcunctis":4025,"ĠPrimum":4026,"ĠFebru":4027,"lina":4028,"rud":4029,"Ġare":4030,"inarum":4031,"Ġqualis":4032,"Ġder":4033,"utae":4034,"rect":4035,"iac":4036,"abuntur":4037,"ĠDuo":4038,"ĠMich":4039,"Ġnequaquam":4040,"Ġconsili":4041,"overs":4042,"Ġpati":4043,"Ġall":4044,"Ġnumerus":4045,"Ġ35":4046,"Ġimposs":4047,"Ġsimile":4048,"Ġistum":4049,"Ġamicum":4050,"Ġelem":4051,"Ġoptimum":4052,"ĠProp":4053,"Ġpatribus":4054,"Ġsermonum":4055,"Ġeduc":4056,"Ġhabeant":4057,"ĠIllud":4058,"Ġsimiliter":4059,"eunt":4060,"nunt":4061,"rot":4062,"Ġå":4063,"indic":4064,"Ġpres":4065,"arch":4066,"anos":4067,"Ġexhib":4068,"iliae":4069,"Ġquoad":4070,"ĠTer":4071,"ĠVerum":4072,"erte":4073,"Ġfuerat":4074,"incidunt":4075,"Ġdixisti":4076,"aph":4077,"Ġsimili":4078,"Ġdebeat":4079,"Ġappare":4080,"ĠâĢĶ":4081,"Ġ40":4082,"Ġpaulo":4083,"Ġpatriam":4084,"ĠApr":4085,"Ġcogitatione":4086,"ĠEuropae":4087,".Â§":4088,"??":4089,"rod":4090,"Ã®":4091,"Îµ":4092,"Ġauct":4093,"Ġaeque":4094,"Ġfe":4095,"ulas":4096,"ĠPic":4097,"ĠNemo":4098,"Ġquidquam":4099,"Ġveritate":4100,"Ġuerum":4101,"Ġidcirco":4102,"Ġamare":4103,"Ġinterret":4104,"ĠOct":4105,"Ġnumerum":4106,"Ġaudit":4107,"sumus":4108,"Ġgratiae":4109,"Ġsequuntur":4110,"Ġcognoscere":4111,"ĠÃ¥":4112,"Ġepistulam":4113,"Ġcongreg":4114,"ĠIunii":4115,"200":4116,"iebam":4117,"Ġnatum":4118,"Ġmalis":4119,"aced":4120,"Ġhaberet":4121,"Ġarb":4122,"ientiam":4123,"Ġolim":4124,"Ġquemadmodum":4125,"Ġcivitatibus":4126,"Ġ189":4127,"Ġnotum":4128,"Ġexcell":4129,"ĠOmnis":4130,"Ġdilect":4131,"ĠLutetiae":4132,"Ġmollitia":4133,"plex":4134,"Ġvobiscum":4135,"Ġtincidunt":4136,"lio":4137,"illim":4138,"Ġdeorum":4139,"Ġaliorum":4140,"ebo":4141,"issum":4142,"Ġvidebatur":4143,"Ġrursus":4144,"ĠVale":4145,"ĠIns":4146,"Ġdebitis":4147,"Ġeloqu":4148,"Ġcontrovers":4149,"Ġauctoritate":4150,"Ġmotum":4151,"Ġpollic":4152,"Ġarchit":4153,"Ġvehementer":4154,"Â«":4155,"Ġquale":4156,"Ġcuncta":4157,"Ġmare":4158,"arg":4159,"idum":4160,"ĠSu":4161,"Ġpraeb":4162,"Ġbapt":4163,"ĠQuem":4164,"ĠTro":4165,"Ġpleb":4166,"Ġpropterea":4167,"Ġlibris":4168,"ĠRomam":4169,"avitque":4170,"Ġtabulis":4171,"Ġgratias":4172,"Ġnova":4173,"Ġmolestias":4174,"ĠSanctum":4175,"Ġquicquid":4176,"ĠChristo":4177,"Ġpre":4178,"Ġmore":4179,"Ġprot":4180,"abilem":4181,"ĠEb":4182,"estas":4183,"Ġveritas":4184,"ellus":4185,"Ġsolet":4186,"Ġacceper":4187,"Ġmodus":4188,"Ġstip":4189,"atoris":4190,"Ġdoloribus":4191,"Ġcausis":4192,"ĠâĢ¦":4193,"Ġ180":4194,"Ġservum":4195,"Ġpraecept":4196,"Ġprincipes":4197,"Ġsapiente":4198,"uctio":4199,"Ġtanto":4200,"Ġmunus":4201,"Ġscientiae":4202,"Ġpriusquam":4203,"Ġspiritum":4204,"met":4205,"usquam":4206,"Ġcathol":4207,"ors":4208,"Ġfab":4209,"Ġadven":4210,"abili":4211,"Ġconstant":4212,"ĠNomen":4213,"Ġvidi":4214,"Ġidque":4215,"Ġparia":4216,"ĠTemp":4217,"Ġinterest":4218,"Ġinterf":4219,"Ġliberi":4220,"Ġ33":4221,"Ġvitium":4222,"Ġtabulae":4223,"Ġcapite":4224,"Ġpopul":4225,"iosa":4226,"Ġfratre":4227,"inister":4228,"Ġeffectum":4229,"Ġrepellat":4230,"Ġlumen":4231,"modo":4232,"Ġlig":4233,"Ġequidem":4234,"Ġquer":4235,"icta":4236,"une":4237,"edere":4238,"Ġpositum":4239,"Ġsolo":4240,"Ġrepudi":4241,"ĠItalia":4242,"Ġinvenitur":4243,"Ġquaerimus":4244,"Ġpoena":4245,"Ġmemoriae":4246,"Ġcorrupti":4247,"irat":4248,"å¸":4249,"Ġvex":4250,"arunt":4251,"ulerunt":4252,"Ġador":4253,"antis":4254,"ĠSch":4255,"ĠDixit":4256,"Ġperc":4257,"ĠQuoniam":4258,"Ġprog":4259,"Ġorationem":4260,"Ġlibrum":4261,"Ġlibenter":4262,"Ġard":4263,"ĠInc":4264,"Ġmultip":4265,"Ġprimis":4266,"Ġquemquam":4267,"ponitur":4268,"Ġsemen":4269,"Ġoccaecati":4270,"Ġactionem":4271,"Ġsapiens":4272,"Ġinveni":4273,"Ġvirtutem":4274,"ĠMarc":4275,"Ġsubiecto":4276,"ĠAlb":4277,"Ġexemplum":4278,"ĠChristum":4279,"Ġmissus":4280,"ĠAcadem":4281,"Ġparentes":4282,"Ġreliquit":4283,"Mont":4284,"iem":4285,"Ġedic":4286,"inas":4287,"Ġprec":4288,"ialis":4289,"ela":4290,"Ġdefic":4291,"Ġsuorum":4292,"ĠCont":4293,"ecti":4294,"ĠQuomodo":4295,"enses":4296,"ĠMat":4297,"isses":4298,"Ġrom":4299,"ello":4300,"ĠHab":4301,"ĠFort":4302,"ĠTar":4303,"fectum":4304,"fectus":4305,"Ġrecta":4306,"Ġaetatis":4307,"asset":4308,"Ġdiligenter":4309,"Ġfaciendum":4310,"Ġregni":4311,"Ġaeternum":4312,"ioecesis":4313,"Ġeveniet":4314,"ĠNulla":4315,"ĠCicer":4316,"Ġoriunda":4317,"ĠAlexand":4318,"43":4319,"IX":4320,"mi":4321,"sec":4322,"Ġinp":4323,"arc":4324,"ullius":4325,"illum":4326,"otus":4327,"Ġdicamus":4328,"rav":4329,"Ġviderunt":4330,"Ġaccidit":4331,"Ġpropon":4332,"ĠBib":4333,"Ġdixerit":4334,"Ġfecisse":4335,"Ġloquar":4336,"Ġimpl":4337,"Ġcommuni":4338,"Ġiudicem":4339,"Ġdivina":4340,"ercule":4341,"Ġdominum":4342,"Ġbeata":4343,"Ġoppido":4344,"ĠIesu":4345,"XXX":4346,"Ġpericulo":4347,"Ġpropositum":4348,"Ġsyll":4349,"Ġimpossibile":4350,"100":4351,"59":4352,"IT":4353,"Int":4354,"Iac":4355,"by":4356,"ogo":4357,"ry":4358,"Ã¶":4359,"Ġ)":4360,"ĠY":4361,"Ġqual":4362,"Ġnusquam":4363,"Ġvindic":4364,"omet":4365,"ĠSol":4366,"ĠCn":4367,"Ġbelli":4368,"Ġpossent":4369,"ĠLig":4370,"Ġcub":4371,"episcop":4372,"ientibus":4373,"Ġgenuit":4374,"Ġamico":4375,"Ġdiscere":4376,"Ġfruct":4377,"illam":4378,"Ġdiligit":4379,"Ġpertinere":4380,"ĠFoeder":4381,"Ġpoet":4382,"ĠXX":4383,"ĠAegypti":4384,"Ġlign":4385,"ĠDecembris":4386,"ĠOctob":4387,"Ġâ":4388,"Ġsat":4389,"aepe":4390,"Ġmense":4391,"Ġaddit":4392,"agina":4393,"Ġdii":4394,"atura":4395,"irem":4396,"Ġscis":4397,"Ġabiit":4398,"Ġamant":4399,"Ġdixisset":4400,"Ġscribit":4401,"Ġmors":4402,"ĠArch":4403,"Ġsanctum":4404,"Ġsaeculi":4405,"Ġpertinent":4406,"Ġadmitt":4407,"Ġdispos":4408,"ĠKal":4409,"Ġspero":4410,"Ġcrud":4411,"ĠĠĠĠĠĠĠĠĠĠĠĠĠĠĠĠĠĠĠĠĠĠĠĠĠĠĠĠĠĠĠĠ":4412,"Ġquadr":4413,"Ġexpedita":4414,"ĠItal":4415,"oen":4416,"usque":4417,"Ġdat":4418,"Ġmend":4419,"Ġinius":4420,"Ġinsign":4421,"Ġvulg":4422,"ariam":4423,"ides":4424,"entio":4425,"ĠSem":4426,"ĠNos":4427,"undo":4428,"Ġerud":4429,"Ġerga":4430,"Ġamat":4431,"ĠRep":4432,"Ġconsist":4433,"Ġliberis":4434,"ĠOm":4435,"Ġ38":4436,"Ġcuiusquam":4437,"ĠRoma":4438,"Ġconfus":4439,"Ġpraeteritum":4440,"Ġprovident":4441,"Ġnegleg":4442,"Ġformae":4443,"Ġjam":4444,"ĠGraeciae":4445,"ĠAmeric":4446,"Ġcontraria":4447,"Ġoperibus":4448,"Ġmirum":4449,"Ġliceat":4450,"Ġprofectus":4451,"Ġcreatura":4452,"Ġdexter":4453,"eorg":4454,"Ġconcupisc":4455,"Ġhodiern":4456,"hem":4457,"Ãª":4458,"esimo":4459,"acta":4460,"elis":4461,"ĠIbi":4462,"Ġpoterat":4463,"ĠMe":4464,"Ġnef":4465,"Ġquadam":4466,"Ġ190":4467,"ĠOb":4468,"Ġoeconom":4469,"ressa":4470,"Ġtribus":4471,"Ġsancta":4472,"Ġamicos":4473,"Ġamicitiam":4474,"Ġcuique":4475,"rammat":4476,"Ġinfirm":4477,"Ġpraecl":4478,"Ġvisus":4479,"ĠLatin":4480,"ĠLatinam":4481,"Ð¾Ð»":4482,"Ġimperium":4483,"Ġplurimum":4484,"Ġlaudantium":4485,"Ġaudivit":4486,"Ġalienum":4487,"Ġsuccess":4488,"Ġauxilium":4489,"ĠIpsum":4490,"ĠUrbs":4491,"42":4492,"iepiscop":4493,"var":4494,"ï¼":4495,"Ġ=":4496,"erre":4497,"Ġsort":4498,"Ġdidic":4499,"Ġinn":4500,"ĠEv":4501,"Ġperhib":4502,"Ġpraepar":4503,"Ġuis":4504,"ĠTex":4505,"Ġcommemor":4506,"Ġrege":4507,"Ġreges":4508,"atoribus":4509,"Ġmagnific":4510,"Ġcompet":4511,"Ġ2006":4512,"Ġpraeclar":4513,"Ġcaritas":4514,"Ġsummo":4515,"Ġsummam":4516,"Ġintellegere":4517,"Ġstudium":4518,"Ġstatu":4519,"Â».":4520,"Ġferre":4521,"Ġsecunda":4522,"Ġdifficult":4523,"erusalem":4524,"Ġaspernatur":4525,"ĠAlpibus":4526,"lu":4527,"Î»":4528,"Ġpess":4529,"Ġnimis":4530,"Ġda":4531,"Ġinm":4532,"Ġviae":4533,"Ġhora":4534,"una":4535,"Ġlaus":4536,"Ġcondem":4537,"Ġquamdiu":4538,"estig":4539,"Ġfacio":4540,"ebas":4541,"Ġvoluit":4542,"Ġrespic":4543,"Ġarm":4544,"Ġsemel":4545,"pex":4546,"Ġdivitiae":4547,"Ġapparet":4548,"Ġconfit":4549,"ĠÐ²":4550,"Ġnamque":4551,"Ġprinceps":4552,"Ġ2016":4553,"Ġgrad":4554,"ĠJes":4555,"Ġdoloremque":4556,"Ġaccusantium":4557,"Ġscientiam":4558,"Ġpaucis":4559,"Ġcognovit":4560,"ĠFebruarii":4561,"Al":4562,"Ego":4563,"sed":4564,"Ãł":4565,"Ġec":4566,"Ġaer":4567,"Ġpap":4568,"Ġfinis":4569,"imam":4570,"Ġdeos":4571,"alt":4572,"ĠSit":4573,"Ġdicas":4574,"ĠQuibus":4575,"Ġsciam":4576,"Ġero":4577,"Ġtemporum":4578,"Ġesses":4579,"Ġfiliam":4580,"Ġduplic":4581,"ponere":4582,"ĠRomanum":4583,"Ġfrig":4584,"Ġingredi":4585,"Ġexercitum":4586,"Ġtradit":4587,"Ġgloriae":4588,"Ġmetu":4589,"Ġalicui":4590,"Ġpedes":4591,"ĠSeptembris":4592,"Ġpretium":4593,"Ġnimium":4594,"Ch":4595,"Claritas":4596,"Ġaurum":4597,"ins":4598,"Ġmisi":4599,"orqu":4600,"Ġvad":4601,"Ġib":4602,"lid":4603,"Ġhinc":4604,"anem":4605,"ĠEl":4606,"endas":4607,"Ġfacias":4608,"iturus":4609,"ĠNorm":4610,"Ġuerb":4611,"Ġregno":4612,"issimae":4613,"Ġtrium":4614,"Ġ45":4615,"Ġ46":4616,"Ġflag":4617,"Ġperfectum":4618,"Ġdonec":4619,"Ġtertium":4620,"Ġincipit":4621,"Ġtestamentum":4622,"Franc":4623,"VII":4624,"],":4625,"tio":4626,"Ð²":4627,"inia":4628,"Ġnut":4629,"Ġnig":4630,"Ġetc":4631,"Ġioc":4632,"ommod":4633,"ido":4634,"ĠSum":4635,"Ġdiut":4636,"ĠDuc":4637,"aturum":4638,"Ġincred":4639,"Ġlegere":4640,"Ġvirg":4641,"Ġiura":4642,"Ġ47":4643,"Ġ48":4644,"Ġservit":4645,"Ġsanctific":4646,"Ġordo":4647,"Ġmulieres":4648,"Ġimmo":4649,"Ġdubium":4650,"ĠMaxim":4651,"ĠIoh":4652,"Ġrefert":4653,"Ġclaram":4654,"Ġdifficile":4655,"Ġutilitatem":4656,"Ġcontingit":4657,"ĠPontificatus":4658,"Ġcontempl":4659,"Ġanimadvert":4660,"Ġinterrete":4661,"Pr":4662,"Res":4663,"duc":4664,"mum":4665,"ns":4666,"erer":4667,"Ġnupt":4668,"Ġvinum":4669,"Ġtalem":4670,"reicae":4671,"Ġfun":4672,"Ġrevers":4673,"itatio":4674,"Ġpraestant":4675,"iturum":4676,"Ġhabebit":4677,"Ġattin":4678,"Ġpotestas":4679,"Ġregio":4680,"Ġlegatum":4681,"Ġfecisset":4682,"Ġcurae":4683,"Ġexpugn":4684,"Ġiustum":4685,"Ġcaro":4686,"Ġcarnis":4687,"Ġubique":4688,"Ġvirtutes":4689,"Ġappellantur":4690,"Ġmemoriam":4691,"ĠIulius":4692,"Ġmandata":4693,"Ġauctoritatem":4694,"Ġhonestum":4695,"Ġeffectus":4696,"Ġlumine":4697,"ĠNostri":4698,"å¸Ĥ":4699,"hop":4700,"Ã¼":4701,"ÉĻ":4702,"Ġ}":4703,"Ġcit":4704,"Ġiud":4705,"olo":4706,"elicet":4707,"otum":4708,"ĠSex":4709,"tavit":4710,"Ġperg":4711,"Ġgr":4712,"undus":4713,"andus":4714,"Ġeram":4715,"Ġtex":4716,"Ġintu":4717,"Ġpropinqu":4718,"Ġloca":4719,"Ġobtin":4720,"Ġcuiusque":4721,"Ġdebere":4722,"Ġdebemus":4723,"Ġmortuum":4724,"raece":4725,"Ġlatine":4726,"Ġpuella":4727,"ĠAugusti":4728,"Ġcibum":4729,",'":4730,"ak":4731,"din":4732,"ek":4733,"nes":4734,"pat":4735,"yl":4736,"Ġæ":4737,"stin":4738,"enc":4739,"Ġadopt":4740,"actus":4741,"Ġdicant":4742,"ipsum":4743,"Ġfacis":4744,"Ġgentibus":4745,"ĠQuin":4746,"ĠLab":4747,"Ġamoris":4748,"isci":4749,"Ġconsent":4750,"ĠVest":4751,"ĠBor":4752,"Ġresist":4753,"iente":4754,"Ġveniunt":4755,"Ġdebetur":4756,"Ġexprim":4757,"Ġdesign":4758,"Ġcognitionem":4759,"Ġreceperunt":4760,"Ġmaiora":4761,"Ġcler":4762,"Ð°Ð½":4763,"Ġvestri":4764,"Ġofficio":4765,"Ġfamilia":4766,"Ġsenect":4767,"Ġdubio":4768,"ĠCaesarem":4769,"Ġoppida":4770,"ĠApostol":4771,"Ġmetus":4772,"ĠThreicae":4773,"ĠReges":4774,"Ġpermitt":4775,"ĠNovembris":4776,"Ġtenebris":4777,"PDF":4778,"Ġrecusandae":4779,"Ġomitt":4780,"ĠNormann":4781,"?'":4782,"ai":4783,"á½":4784,"Ġeundem":4785,"erae":4786,"inn":4787,"onam":4788,"Ġdatum":4789,"Ġtene":4790,"utione":4791,"Ġfav":4792,"Ġfons":4793,"och":4794,"Ġsuus":4795,"Ġconcip":4796,"ĠSocrat":4797,"Ġsiue":4798,"Ġhabita":4799,"Ġposuit":4800,"ivis":4801,"Ġpotentiam":4802,"Ġvideretur":4803,"Ġnequit":4804,"ĠTe":4805,"Ġorationis":4806,"Ġ31":4807,"Ġobliv":4808,"Ġprimam":4809,"Ġinduc":4810,"Ġceteri":4811,"Ġtransl":4812,"ĠPraeterea":4813,"Ġlibertatem":4814,"Ġquarto":4815,"ĠHelv":4816,"ĠRhodano":4817,"Ġarchitecto":4818,"Ġrepudiandae":4819,"82":4820,"Prim":4821,"burg":4822,"Ã´":4823,"Ġ*":4824,"Ġago":4825,"Ġpasc":4826,"entorum":4827,"olest":4828,"antiam":4829,"ĠSyr":4830,"ĠCunt":4831,"Ġdicebat":4832,"Ġaliena":4833,"Ġgentium":4834,"Ġincid":4835,"Ġconsult":4836,"Ġsolis":4837,"Ġcresc":4838,"Ġsubt":4839,"Ġmanet":4840,"Ġmancip":4841,"Ġistius":4842,"ernia":4843,"ograph":4844,"Ġcredunt":4845,"Ġnegat":4846,"Ġpast":4847,"Ġintellego":4848,"ectare":4849,"Ġdiscipulos":4850,"arentur":4851,"Ġcruc":4852,"ĠSeptentr":4853,"Ġrap":4854,"ĠNumquid":4855,"Ġconstructio":4856,"Ġneminem":4857,"Ġsuffrag":4858,"Ġquocumque":4859,"67":4860,"Con":4861,"nic":4862,"pagina":4863,"va":4864,"Ġinh":4865,"Ġtanquam":4866,"Ġexst":4867,"Ġtuos":4868,"ĠVer":4869,"Ġtemplum":4870,"Ġresurre":4871,"Ġdomest":4872,"Ġactione":4873,"Ġtenere":4874,"Ġmatrim":4875,"ĠGraece":4876,"Ġsensum":4877,"ÐµÐ½":4878,"Ġhumana":4879,"Ġcognoscit":4880,"Ġdiscipulis":4881,"Ġmilitum":4882,"ĠCaesare":4883,"Ġaeterna":4884,"Ġtertia":4885,"Ġnegotium":4886,"Ġcustodi":4887,"Ġschol":4888,"ĠStoici":4889,"ĠPiso":4890,"Ġduodecim":4891,"ER":4892,"for":4893,"man":4894,"rom":4895,"ze":4896,"Ø§":4897,"Ġaiunt":4898,"item":4899,"aemon":4900,"oria":4901,"Ġvan":4902,"Ġvari":4903,"Ġtali":4904,"ose":4905,"Ġnonnull":4906,"anto":4907,"undia":4908,"ubi":4909,"Ġinfra":4910,"Ġclaus":4911,"Ġfieret":4912,"Ġreduc":4913,"annis":4914,"Ġalteri":4915,"Ġaltero":4916,"Ġvirtutibus":4917,"Ġmedia":4918,"Ġpatriae":4919,"Ġsupplic":4920,"Ġconstitu":4921,"Ġempt":4922,"Ġostendit":4923,"ardia":4924,"Ġspiritu":4925,"Ġmagistrat":4926,"Ġproximo":4927,"Ġfoedus":4928,"Ġpronunt":4929,"Ġloquebatur":4930,"ĠÂ»Â»Â»":4931,"Ab":4932,"Iacob":4933,"aur":4934,"rupt":4935,"Äģ":4936,"Ġeae":4937,"itionis":4938,"inium":4939,"Ġpud":4940,"Ġpas":4941,"ictus":4942,"aro":4943,"able":4944,"asi":4945,"ions":4946,"ĠDel":4947,"Ġdicendi":4948,"ipot":4949,"ominus":4950,"ĠQuot":4951,"ĠMal":4952,"Ġvellet":4953,"Ġsolent":4954,"Ġintro":4955,"ĠEtenim":4956,"Ġspon":4957,"Ġduxit":4958,"Ġvitia":4959,"Ġreman":4960,"Ġdesin":4961,"Ġreced":4962,"ĠRomanorum":4963,"ĠÐ¸":4964,"ĠÐ½":4965,"Ġcollig":4966,"Ġcredere":4967,"Ġdocet":4968,"illae":4969,"Ġegestas":4970,"Ġnecessarium":4971,"Ġdignissimos":4972,"Ġaquas":4973,"Ġmulierem":4974,"Ġpersona":4975,"ĠAegypto":4976,"Ġdescend":4977,"ĠHispanicum":4978,"Ġnascitur":4979,"ohn":4980,"ĠTheod":4981,"Ġconsumm":4982,"Ġvuln":4983,"Ġfrequenter":4984,"ĠTurc":4985,"Cur":4986,"val":4987,"Ġaus":4988,"isque":4989,"Ġpict":4990,"onio":4991,"Ġdulc":4992,"Ġinstr":4993,"odum":4994,"unque":4995,"abus":4996,"ĠSax":4997,"ĠDi":4998,"undi":4999,"Ġui":5000,"Ġimb":5001,"Ġlibros":5002,"Ġcord":5003,"ĠOp":5004,"Ġpartic":5005,"Ġcuiquam":5006,"Ġintellex":5007,"ĠArv":5008,"Ġsanctorum":5009,"Ġaccipi":5010,"Ġconstituta":5011,"Ġproced":5012,"Ġadmirat":5013,"Ġviol":5014,"Ġquanti":5015,"ĠIlla":5016,"Ġsimpliciter":5017,"Ġdifferentia":5018,"Ġfelic":5019,"ãĢģ":5020,"ĠMartii":5021,"ĠTexiae":5022,".(":5023,"60":5024,"Ali":5025,"Hispan":5026,"Rom":5027,"risti":5028,"Ġ+":5029,"Ġpell":5030,"anorum":5031,"ole":5032,"Ġutuntur":5033,"anta":5034,"Ġdestr":5035,"allic":5036,"ĠAustr":5037,"ĠIV":5038,"Ġvidelicet":5039,"ĠLectura":5040,"ĠTusc":5041,"ĠVos":5042,"ĠVide":5043,"Ġsole":5044,"ĠGeorg":5045,"Ġcontent":5046,"Ġnaturalis":5047,"Ġcommunic":5048,"Ġacta":5049,"Ġpartim":5050,"Ġnominatus":5051,"Ġdeclin":5052,"Ġcompl":5053,"Ġpuerum":5054,"ĠÐº":5055,"Ġvideamus":5056,"ĠGraecis":5057,"Ġiussit":5058,"Ġtestis":5059,"ĠJud":5060,"Ġignis":5061,"Ġpeti":5062,"Ġreliquum":5063,"ĠPhil":5064,"Ġquaestionem":5065,"ĠThom":5066,"quiesc":5067,"Ð¾Ð²":5068,"Ġtenebrae":5069,"ĠLibero":5070,"Ġsoror":5071,"Ġpenitus":5072,"\"\\\"\\\"\\\"\\\"\\\"\\\"\\\"\\\"\\\"\\\"\\\"\\\"\\\"\\\"\\\"\\\"\\\"\\\"\\\"\\\"\\\"\\\"\\\"\\\"\\\"\\\"\\\"\\\"\\\"\\\"\\\"\\":5073,"Ġadministrat":5074,".]":5075,"Nunc":5076,"uf":5077,"aen":5078,"olum":5079,"Ġconst":5080,"ĠErat":5081,"ĠSen":5082,"ĠSent":5083,"ĠCamp":5084,"Ġbr":5085,"Ġpotentiae":5086,"ĠHen":5087,"ĠFret":5088,"Ġanimalia":5089,"Ġlegi":5090,"Ġincolae":5091,"ada":5092,"ĠRomanis":5093,"Ġexcus":5094,"Ġvoluntatis":5095,"Ġvirtutum":5096,"Ġconiung":5097,"Ġprocul":5098,"ĠSicut":5099,"Ġproduc":5100,"Ġcolloqu":5101,"Ġdilectus":5102,"Ġdimitt":5103,"own":5104,"ĠVidetur":5105,"Ġiniuriam":5106,"ĠCicero":5107,"Ġcotidie":5108,"Saint":5109,"70":5110,"Sic":5111,"][":5112,"hor":5113,"me":5114,"rium":5115,"Ġquandam":5116,"atium":5117,"Ġcaec":5118,"Ġmatur":5119,"orium":5120,"Ġtalia":5121,"Ġhunt":5122,"ecerunt":5123,"entissime":5124,"Ġutile":5125,"ĠAene":5126,"ĠIdem":5127,"ips":5128,"Ġfacto":5129,"ĠPor":5130,"Ġgign":5131,"ivae":5132,"ĠMC":5133,"Ġvelut":5134,"Ġnex":5135,"Ġessentiae":5136,"ĠBal":5137,"Ġcommut":5138,"Ġfecimus":5139,"ogen":5140,"Ġ188":5141,"sequi":5142,"Ġintellectum":5143,"Ġsaltem":5144,"Ġuxores":5145,"Ġintellegi":5146,"ĠPatrem":5147,"ĠAbrah":5148,"ĠSanctus":5149,"ationi":5150,"Ġargumentum":5151,"ĠOctobris":5152,"Ġiudex":5153,"ST":5154,"bo":5155,"cis":5156,"lav":5157,"mata":5158,"pot":5159,"sal":5160,"uers":5161,"yri":5162,"Ġeandem":5163,"Ġpun":5164,"icas":5165,"Ġvicus":5166,"esper":5167,"aribus":5168,"ĠCras":5169,"Ġperfer":5170,"Ġbarb":5171,"Ġgrammat":5172,"Ġpoteris":5173,"ĠMont":5174,"ĠLingu":5175,"ĠBel":5176,"Ġnumer":5177,"Ġoculus":5178,"Ġoctav":5179,"Ġcausas":5180,"Ġcapere":5181,"Ġamicorum":5182,"Ġactiones":5183,"Ġinform":5184,"Ġ50":5185,"Ġcredimus":5186,"Ġnovam":5187,"iensis":5188,"itiarum":5189,"poss":5190,"Ġconstituit":5191,"ĠPatre":5192,"ĠIesum":5193,"Ġcontinentur":5194,"Ġporno":5195,"Ġforo":5196,"Ġcelerit":5197,"ĠPraes":5198,"Ġpalam":5199,"ĠMoses":5200,"Ġpaupert":5201,"Ġpoliticarum":5202,"Ġcarnem":5203,"Ġsodalis":5204,"Ġsimilique":5205,"Ġappareat":5206,"Ġcondemn":5207,"ĠArvernia":5208,"Lib":5209,"ba":5210,"àµ":5211,"ity":5212,"itos":5213,"Ġpe":5214,"atia":5215,"atius":5216,"Ġcav":5217,"Ġnud":5218,"ĠSac":5219,"ĠSab":5220,"Ġpercus":5221,"Ġfaciant":5222,"Ġger":5223,"Ġposita":5224,"Ġscand":5225,"Ġeiusmodi":5226,"Ġpotuerunt":5227,"ebunt":5228,"ĠLoth":5229,"ĠHuic":5230,"Ġcontend":5231,"Ġsecus":5232,"Ġregi":5233,"Ġveniat":5234,"Ġimpos":5235,"Ġimport":5236,"Ġillumin":5237,"Ġbenevol":5238,"Ġdomini":5239,"Ð¾ÑĤ":5240,"Ġmunere":5241,"Ġsingulis":5242,"Ġprodest":5243,"Ġcolloc":5244,"Ġeffug":5245,"Ġpericulum":5246,"Ġexcepturi":5247,"Ġinstrum":5248,"Ġdemonstrat":5249,"ĠPicardia":5250,"?[":5251,"ail":5252,"hon":5253,"uerat":5254,"Ã¤":5255,"ÏĢ":5256,"Ġquint":5257,"ono":5258,"ster":5259,"Ġdile":5260,"Ġfiant":5261,"uniae":5262,"antiae":5263,"ĠAem":5264,"ĠCan":5265,"itata":5266,"Ġpossem":5267,"Ġrogo":5268,"ĠLud":5269,"Ġamitt":5270,"Ġvoluerunt":5271,"ĠĠĠ":5272,"ĠBe":5273,"Ġregionem":5274,"Ġmans":5275,"Ġnosse":5276,"Ġrationes":5277,"Ġurbibus":5278,"Ġmaled":5279,"ĠNonne":5280,"Ġconcord":5281,"ĠAtqui":5282,"Ġinsula":5283,"Ġresponsum":5284,"Ġmedium":5285,"Ġprocur":5286,"Ġmenses":5287,"Ġsacram":5288,"Ġpace":5289,"Ġmira":5290,"Ġlacrim":5291,"Ġnarrat":5292,"Ġperfecta":5293,"Ġfiguras":5294,"Ġsempiternum":5295,"ĠRespon":5296,"ĠNoe":5297,"Ġmultiplic":5298,"Ġattinet":5299,"John":5300,"ah":5301,"tam":5302,"xerunt":5303,"Åį":5304,"á»":5305,"erno":5306,"Ġso":5307,"ory":5308,"Ġinest":5309,"Ġfat":5310,"entior":5311,"Ġnonn":5312,"Ġlo":5313,"ĠAquit":5314,"ĠSin":5315,"Ġmeas":5316,"ĠDum":5317,"raverunt":5318,"ivid":5319,"Ġpotui":5320,"ĠRerum":5321,"ĠFT":5322,"ĠFuit":5323,"ĠTunc":5324,"Ġmaj":5325,"Ġorig":5326,"epi":5327,"Ġarma":5328,"uliel":5329,"ires":5330,"Ġdolere":5331,"Ġspe":5332,"Ġocto":5333,"iatio":5334,"Ġration":5335,"Ġurbes":5336,"Ġsuperb":5337,"Ġapplic":5338,"Ġpuero":5339,"Ġinsid":5340,"Ġdefunct":5341,"Ġnescit":5342,"ĠGraecos":5343,"Ġiusta":5344,"Ġtranse":5345,"Ġignosc":5346,"Ġoportere":5347,"numer":5348,"Ġvixit":5349,"ĠApoll":5350,"Ġfluv":5351,"Ġevangeli":5352,"Ġaudivimus":5353,"Ġlicebit":5354,"Ġdescrip":5355,"Ġlacus":5356,"Ġtemper":5357,"Ġá¼":5358,"ĠBoruss":5359,"ĠNormannia":5360,"Hispanice":5361,"56":5362,"57":5363,"@Ą":5364,"ca":5365,"do":5366,"mitt":5367,"nde":5368,"oec":5369,"ä»":5370,"Ġnulli":5371,"Ġmox":5372,"Ġmonte":5373,"Ġfine":5374,"olv":5375,"Ġleo":5376,"aci":5377,"actum":5378,"abimus":5379,"illi":5380,"ĠEum":5381,"ĠCirc":5382,"ĠDiet":5383,"itatur":5384,"ĠPap":5385,"Ġsedis":5386,"andis":5387,"Ġvideat":5388,"ĠHodie":5389,"iscus":5390,"Ġplant":5391,"Ġfui":5392,"Ġliberum":5393,"Ġdixisse":5394,"Ġviris":5395,"Ġlocuti":5396,"Ġaudac":5397,"ĠAnd":5398,"Ġsemet":5399,"Ġpraesentia":5400,"Ġvocant":5401,"Ġputant":5402,"Ġdivitias":5403,"Ġdesiderat":5404,"Ġdoct":5405,"sitan":5406,"Ġcerto":5407,"Ġimperii":5408,"Ġsusp":5409,"Ġhonorem":5410,"ĠJo":5411,"Ġconiug":5412,"Ġ179":5413,"ĠAliter":5414,"Ġnoct":5415,"Ġthes":5416,"Ġtribu":5417,"Ġpactum":5418,"Ġvetust":5419,"Ġmotu":5420,"Ġnolite":5421,"ĠPlat":5422,"Ġpraestare":5423,"Ġsimilitudinem":5424,"Ġbenign":5425,"Ġmanifestum":5426,"Ġvulgo":5427,"à«¨":5428,"Ġfiducia":5429,"Ġmomenti":5430,"ĠAprilis":5431,"byter":5432,"Ġcrudel":5433,"Ġceleriter":5434,"51":5435,"Ecce":5436,"dom":5437,"lend":5438,"pa":5439,"pta":5440,"uos":5441,"yc":5442,"yn":5443,"ÂŃ":5444,"ÌĦ":5445,"ÙĪ":5446,"atto":5447,"Ġcito":5448,"Ġmentis":5449,"iculum":5450,"Ġetenim":5451,"ibilia":5452,"ock":5453,"ĠCae":5454,"ĠCumque":5455,"Ġcoeperunt":5456,"Ġhabitavit":5457,"ĠNesc":5458,"unde":5459,"ebamus":5460,"Ġverbi":5461,"Ġipsae":5462,"ĠHuius":5463,"Ġattrib":5464,"Ġplena":5465,"ove":5466,"Ġfeceris":5467,"Ġviros":5468,"Ġvenisset":5469,"ĠOcc":5470,"Ġmanere":5471,"Ġvocavit":5472,"Ġputa":5473,"Ġexpect":5474,"Ġcomput":5475,"ĠRomanos":5476,"Ġdoctor":5477,"Ġabsur":5478,"Ġhonore":5479,"Ġmedioc":5480,"Ġstudia":5481,"Ġwith":5482,"Ġlongius":5483,"Ġintelligi":5484,"Ġintelligere":5485,"numquam":5486,"Ġpeccata":5487,"Ġimmort":5488,"ĠApp":5489,"Ġhabeam":5490,"ĠPetrus":5491,"Ġnuntia":5492,"Ġcasus":5493,"Ġgesta":5494,"Ġnavig":5495,"ropter":5496,"Ġaffectus":5497,"Ġbaptiz":5498,"ĠMCM":5499,"79":5500,"AT":5501,"ton":5502,"vid":5503,"Åĵ":5504,"Îº":5505,"Ð¿":5506,"äº":5507,"Ġcentes":5508,"Ġdabo":5509,"orsum":5510,"Ġfauc":5511,"esiae":5512,"unae":5513,"ĠQuir":5514,"ensem":5515,"Ġ(-":5516,"elle":5517,"Ġcujus":5518,"Ġregionis":5519,"rans":5520,"erisque":5521,"Ġloquimur":5522,"Ġmagnae":5523,"Ġmagnitudo":5524,"Ġputat":5525,"Ġcursus":5526,"Ġcivium":5527,"Ġecclesiis":5528,"ĠFrancicus":5529,"Ġsentire":5530,"Ġpersuas":5531,"Ġoppugn":5532,"Ġfrustra":5533,"Ġordinis":5534,"Ġdisplic":5535,"Ġrectum":5536,"Ġdemum":5537,"Ġdistingu":5538,"Ġporta":5539,"Ġmonst":5540,"Ġavar":5541,"Ġhostes":5542,"ĠCatala":5543,"Ġconviv":5544,"Ġaccepimus":5545,"ĠPaulus":5546,"Ġarchiepiscop":5547,"Ġdemonstr":5548,"Ġnatos":5549,"Ġascend":5550,"ĠEnn":5551,"Ġsubsist":5552,"Ġextremum":5553,"Ġdoctrina":5554,"Act":5555,"Sc":5556,"ien":5557,"iatis":5558,"mp":5559,"uerint":5560,"yd":5561,"Ä«":5562,"Ð´":5563,"Ð¼":5564,"ĠÄ":5565,"Ġé":5566,"Ġumb":5567,"umentum":5568,"Ġfrum":5569,"ars":5570,"Ġadsum":5571,"ack":5572,"Ġutinam":5573,"Ġomnipot":5574,"Ġmeos":5575,"Ġdicendo":5576,"Ġverius":5577,"Ġeris":5578,"Ġamo":5579,"ĠTamen":5580,"Ġunquam":5581,"issimam":5582,"Ġobt":5583,"onto":5584,"Ġgratis":5585,"Ġinvoc":5586,"Ġclass":5587,"Ġprobare":5588,"Ġfru":5589,"rehens":5590,"Ġimperio":5591,"Ġsanctus":5592,"olia":5593,"Ġdignitate":5594,"pectum":5595,"Ġliberos":5596,"Ġcupio":5597,"Ġmateriae":5598,"ĠPhara":5599,"ĠPhaed":5600,"ĠApud":5601,"ĠIulia":5602,"Ġtradidit":5603,"ĠAntioc":5604,"ĠImmo":5605,"Ġrevoc":5606,"ĠSpiritum":5607,"Ġfeminae":5608,"Ġmeridi":5609,"Ġadulter":5610,"ÑģÑĤÐ¸":5611,"Ġinfinitum":5612,"ĠSecundum":5613,"Inter":5614,"ĠCatalauniae":5615,"53":5616,"Dixit":5617,"den":5618,"rica":5619,"Ñħ":5620,"itorum":5621,"amentum":5622,"Ġcat":5623,"orp":5624,"Ġfra":5625,"ĠhÃ¦c":5626,"iderit":5627,"ularum":5628,"edi":5629,"Ġlen":5630,"ĠEz":5631,"ĠSoc":5632,"ĠCui":5633,"Ġmeorum":5634,"ĠDom":5635,"ĠDioecesis":5636,"tax":5637,"Ġpraedi":5638,"ilior":5639,"Ġpossibile":5640,"Ġvelis":5641,"ĠHeb":5642,"ĠBen":5643,"ineat":5644,"Ġvenerit":5645,"Ġsimilia":5646,"Ġsimplex":5647,"ĠAnglic":5648,"ĠÐļ":5649,"iosi":5650,"Ġmaioris":5651,"Ġpraeceptum":5652,"Ġlinguis":5653,"Ð¾ÑĢ":5654,"Ġingressi":5655,"Ġexercitu":5656,"Etiam":5657,"Ġtantae":5658,"ĠConf":5659,"Ġconvenire":5660,"Ġpulchr":5661,"Ġfamiliar":5662,"Ġpersonam":5663,"Ġperman":5664,"Ġbibendum":5665,"Ġgaudio":5666,"Ġcalam":5667,"Ġconsuetudo":5668,"Ġopinor":5669,"price":5670,"Ġrevel":5671,"Ġimaginem":5672,"rinsec":5673,"ĠFoederalis":5674,"Ġfaucibus":5675,"IC":5676,"Mag":5677,"Nec":5678,"uer":5679,"vel":5680,"Ġpiet":5681,"Ġnit":5682,"Ġnuper":5683,"Ġinquis":5684,"utrum":5685,"Ġiunct":5686,"arer":5687,"aring":5688,"anter":5689,"ĠPraec":5690,"issemus":5691,"ĠLae":5692,"Ġvolut":5693,"Ġaccur":5694,"ĠBest":5695,"Ġcontum":5696,"Ġsplend":5697,"Ġobiit":5698,"Ġpraesum":5699,"Ġvocari":5700,"stitit":5701,"Ġsicuti":5702,"Ġpopulos":5703,"Ġservos":5704,"Ġfratri":5705,"Ġdocuit":5706,"ĠLatinae":5707,"Ġ70":5708,"Ġsaecula":5709,"ÐµÑĤ":5710,"Ġlongum":5711,"Ġtanti":5712,"Ġpoeta":5713,"Ġmovetur":5714,"Ġefficitur":5715,"Ġmandatum":5716,"Ġreddere":5717,"Ġchristi":5718,"Ġnegotio":5719,"Ġconsuetudinem":5720,"Ġcopia":5721,"Ġinimic":5722,"Ġpuellae":5723,"Ġambig":5724,"Ġcontemn":5725,"ÑĩÐ°":5726,"Ġcaelorum":5727,"Ġproportio":5728,"@Ąą":5729,"St":5730,"UN":5731,"mae":5732,"son":5733,"Ġ$":5734,"Ġaffic":5735,"Ġster":5736,"Ġcam":5737,"Ġcod":5738,"Ġinop":5739,"Ġvas":5740,"ilitate":5741,"otae":5742,"Ġbore":5743,"ectio":5744,"ĠPublic":5745,"Ġtuorum":5746,"ĠMaria":5747,"Ġveluti":5748,"Ġvidimus":5749,"arios":5750,"esset":5751,"ĠBer":5752,"Ġcomment":5753,"Ġcommitt":5754,"ientiae":5755,"Ġprimogen":5756,"Ġmane":5757,"ĠAnnis":5758,"Ġpraesentem":5759,"Ġvoces":5760,"Ġiudicare":5761,"Ġdesid":5762,"Ġsentio":5763,"Ġservo":5764,"Ġgratum":5765,"Ġscribo":5766,"Ġvivunt":5767,"Ġcarne":5768,"Ġdefens":5769,"Ġtrah":5770,"Ġpropriam":5771,"Ġadmir":5772,"ĠPatris":5773,"Ġthat":5774,"Ġaudierit":5775,"Ġpulcherrim":5776,"Ġphilosophus":5777,"Ġexemplar":5778,"ationum":5779,"Ġgaudium":5780,"Ġdisser":5781,"Ġepistula":5782,"Ð¾Ð¼":5783,"ĠPostea":5784,"Ð°Ð¿":5785,"prod":5786,"Ġcognov":5787,"Ġradic":5788,"Ġirr":5789,"ĠCaput":5790,"Ġpossibilia":5791,"Ġobiectum":5792,"Ġmunicipium":5793,"Ġmendac":5794,"Tor":5795,"US":5796,"eus":5797,"urn":5798,"Ġferm":5799,"Ġhave":5800,"osa":5801,"ĠAch":5802,"ĠCel":5803,"Ġdiceretur":5804,"endos":5805,"ĠQuorum":5806,"ĠQuando":5807,"Ġhaberi":5808,"Ġru":5809,"eritas":5810,"Ġvoluerit":5811,"Ġplan":5812,"Ġnosti":5813,"Ġsubl":5814,"Ġagendum":5815,"Ġcives":5816,"ĠRomano":5817,"Ġingressus":5818,"Ġaccipit":5819,"Ġsubiecta":5820,"Ġaequum":5821,"Ġlucet":5822,"Ġfornic":5823,"Ġantiqua":5824,"Ġphilosophiae":5825,"Ġdissensio":5826,"ĠAegyptum":5827,"Ġhoneste":5828,"Ġ//":5829,"Ġnarr":5830,"Ġiucundum":5831,"Ġfigura":5832,"Ġbeneficium":5833,"ĠMoys":5834,"ĠImperii":5835,"Ġantepon":5836,"Ġquadraginta":5837,"ĠOmne":5838,"ĠEzech":5839,"Gen":5840,"guis":5841,"Î·":5842,"âĨ":5843,"erter":5844,"invent":5845,"Ġquicumque":5846,"Ġpign":5847,"Ġcent":5848,"Ġna":5849,"empt":5850,"Ġfont":5851,"Ġhercule":5852,"Ġrede":5853,"sel":5854,"Ġquodcumque":5855,"ĠSaepe":5856,"ĠCam":5857,"Ġsig":5858,"ĠNisi":5859,"ivo":5860,"ebis":5861,"Ġuide":5862,"Ġuiu":5863,"Ġrid":5864,"Ġconson":5865,"ĠVis":5866,"Ġuni":5867,"Ġnostros":5868,"Ġsimiles":5869,"Ġpraesenti":5870,"Ġputet":5871,"uxerunt":5872,"Ġdivin":5873,"ogallic":5874,"Ġcorpora":5875,"remo":5876,"Ġmaioribus":5877,"Ġresponde":5878,"Ġuxoris":5879,"Ġduce":5880,"Ġdigna":5881,"Ġpetere":5882,"Ġindivid":5883,"Ġfals":5884,"Ġbeati":5885,"Ġveteres":5886,"Ġpossessio":5887,"Ġartis":5888,"ĠGalli":5889,"Ġattend":5890,"Ġalieno":5891,"Ġ1946":5892,"Ġsinist":5893,"Ġmerced":5894,"ologiae":5895,"Ġnascuntur":5896,"Ġsocietatem":5897,"Ġiniuria":5898,"Ġpoenam":5899,"ĠAfric":5900,"Ġperegrin":5901,".:":5902,"80":5903,"Graece":5904,"cit":5905,"ef":5906,"hn":5907,"ik":5908,"rici":5909,"ĠÅ":5910,"Ġï¿½":5911,"Ġstare":5912,"isiones":5913,"Ġcand":5914,"Ġcerta":5915,"Ġdid":5916,"oram":5917,"Ġvade":5918,"Ġprodi":5919,"Ġadeptus":5920,"ilitatis":5921,"ĠServ":5922,"ĠCant":5923,"Ġfacerem":5924,"Ġbis":5925,"ĠPort":5926,"omine":5927,"nov":5928,"ĠMulta":5929,"Ġquoquo":5930,"Ġversus":5931,"Ġvellem":5932,"Ġvidisset":5933,"Ġrob":5934,"Ġaliqui":5935,"Ġconsiderat":5936,"ĠGuliel":5937,"Ġintent":5938,"Ġbonae":5939,"Ġvenen":5940,"Ġmultas":5941,"Ġduabus":5942,"dict":5943,"Ġistae":5944,"Ġmaximam":5945,"entesimo":5946,"elium":5947,"ĠÐ´":5948,"Ġtenet":5949,"Ġ2013":5950,"Ġopprim":5951,"Ġexcel":5952,"Ġprincipia":5953,"Ġsancto":5954,"Ġnecessario":5955,"Ġlaudem":5956,"Ġlonga":5957,"Ġmunera":5958,"Ġdonum":5959,"Ġefficit":5960,"Ġforsitan":5961,"Ġfinibus":5962,"Ġcanon":5963,"Ġdefinitio":5964,"renae":5965,"Ġcastra":5966,"Ġdisper":5967,"Ġlaetitia":5968,"ĠEpicuri":5969,"Ġnouit":5970,"ĠAristot":5971,"riusque":5972,"ĠInferiori":5973,"ĠAquitania":5974,"Iam":5975,"Page":5976,"cere":5977,"ruc":5978,"ricus":5979,"Ġë":5980,"ĠÃ¦":5981,"Ġsect":5982,"itiones":5983,"Ġpontific":5984,"Ġtang":5985,"real":5986,"Ġfung":5987,"lix":5988,"imini":5989,"Ġhom":5990,"entiis":5991,"Ġredem":5992,"acula":5993,"ilitas":5994,"Ġexaud":5995,"ĠCerte":5996,"Quo":5997,"Ġperse":5998,"Ġilluc":5999,"Ġsciat":6000,"Ġquidd":6001,"issis":6002,"ĠFab":6003,"Ġmaiorum":6004,"Ġintus":6005,"ĠBurg":6006,"âĢĵ":6007,"ight":6008,"Ġinteresse":6009,"incip":6010,"Ġpatres":6011,"Ġdoloris":6012,"Ġ32":6013,"Ġcommunem":6014,"Ġurbicula":6015,"Ġcivis":6016,"Ġdecern":6017,"Ġconfess":6018,"ĠÐ¾":6019,"Ġ57":6020,"Ġpersec":6021,"Ġpraeterita":6022,"Ġvideor":6023,"Ġconsequi":6024,"Ġducere":6025,"Ġgradus":6026,"Ġullum":6027,"Ġsenatu":6028,"Ġconstitutum":6029,"Ġproprio":6030,"ĠConc":6031,"Ġpraedicatur":6032,"Ġfaciatis":6033,"Ġfaciebat":6034,"Ġquinqu":6035,"ãģ®":6036,"Ġaequo":6037,"ĠPhili":6038,"ĠGermania":6039,"Ġsingula":6040,"Ġperfectio":6041,"Ġexemplo":6042,"Ġrespondens":6043,"Ġcorrig":6044,"Ġquartum":6045,"Ġcelebr":6046,"Ġperturb":6047,"Quamquam":6048,"ĠEbor":6049,"ĠPhaedrum":6050,"product":6051,"89":6052,"Id":6053,"Lat":6054,"Temp":6055,"best":6056,"sic":6057,"ym":6058,"Ġurg":6059,"Ġeb":6060,"Ġsimus":6061,"Ġsati":6062,"onii":6063,"onensi":6064,"Ġvar":6065,"Ġtol":6066,"arr":6067,"Ġadt":6068,"Ġlectus":6069,"abar":6070,"ĠIap":6071,"itatione":6072,"Ġbl":6073,"Ġcoh":6074,"Ġhabitus":6075,"Ġpoterunt":6076,"ĠMus":6077,"Ġapt":6078,"ĠRhen":6079,"Ġprofer":6080,"Ġincon":6081,"ĠTorqu":6082,"ĠBeat":6083,"Ġorta":6084,"Ġliberat":6085,"Ġresid":6086,"Ġrescrip":6087,"eriis":6088,"Ġfecerat":6089,"Ġterm":6090,"Ġ--":6091,"Ġmansit":6092,"Ġ49":6093,"ugiat":6094,"Ġcomplect":6095,"Ġ56":6096,"Ġpraefectus":6097,"Ġmemini":6098,"Ġsalus":6099,"ĠConsequ":6100,"Ġcontrario":6101,"Ġepiscopi":6102,"quisque":6103,"Ġturpe":6104,"Ġluxur":6105,"Ġbrevi":6106,"âĢĻ.":6107,"ĠAss":6108,"Ġdiversa":6109,"âĢ¦]":6110,"Ġorbem":6111,"Ġdevor":6112,"Montreal":6113,"ĠJesus":6114,"possibile":6115,"Ġvolutpat":6116,"UNIT":6117,"Toronto":6118,"Ill":6119,"Man":6120,"ge":6121,"ymn":6122,"Ð±":6123,"Ġol":6124,"Ġsag":6125,"Ġsurg":6126,"etum":6127,"idae":6128,"Ġlorem":6129,"acti":6130,"Ġutriusque":6131,"ilitatem":6132,"ĠSel":6133,"Ġdicebant":6134,"ĠPal":6135,"Ġgem":6136,"nox":6137,"Ġhabentur":6138,"Ġpotissimum":6139,"ĠMaced":6140,"Ġvert":6141,"Ġerip":6142,"ĠHer":6143,"Ġproi":6144,"Ġconsens":6145,"ĠVic":6146,"ariorum":6147,"Ġmaximus":6148,"Ġintrod":6149,"Ġminorem":6150,"Ġmultitudinem":6151,"raesent":6152,"Ġcivibus":6153,"Ġnominibus":6154,"Ġinvestig":6155,"Ġfratris":6156,"Ġinsulae":6157,"Ġ69":6158,"Ġaetatem":6159,"Ġsatisfac":6160,"Ġsensibus":6161,"Ġphys":6162,"Ġdiscipulus":6163,"Ġdisciplin":6164,"Ġmateriam":6165,"Ġrespondere":6166,"Ġfines":6167,"ĠGalliae":6168,"ulgate":6169,"Ġyour":6170,"Ġcongue":6171,"Ġfemina":6172,"Ġquaesitum":6173,"Ġministrorum":6174,"ĠMichig":6175,"ĠAbraham":6176,"ĠLotharing":6177,"ĠLudov":6178,"Null":6179,"Nisi":6180,"Pl":6181,"Per":6182,"alibus":6183,"eu":6184,"ujus":6185,"vm":6186,"á¿":6187,"quot":6188,"Ġaere":6189,"Ġpurg":6190,"Ġpeperit":6191,"Ġcm":6192,"Ġcen":6193,"Ġmari":6194,"Ġflor":6195,"Ġheb":6196,"idium":6197,"ecc":6198,"entu":6199,"Ġutero":6200,"ila":6201,"oto":6202,"Ġpotens":6203,"Ġcompon":6204,"Ġconsilia":6205,"Ġcontig":6206,"Ġcorrum":6207,"ĠOpt":6208,"Ġnumeri":6209,"Ġ34":6210,"Ġagam":6211,"Ġhabetis":6212,"Ġexpos":6213,"Ġdisced":6214,"Ġfortitudo":6215,"Ġconfid":6216,"Ġiustific":6217,"Ġcolor":6218,"Ġcertus":6219,"Ġformas":6220,"Ġalteram":6221,"Ġnecessitate":6222,"Ġgravis":6223,"Ġreliquerunt":6224,"Ġsupp":6225,"Ġdisciplina":6226,"Ġintelligit":6227,"ĠCivitatum":6228,"ĠUnivers":6229,"load":6230,"Ġcontinet":6231,"Ġpacto":6232,"Ġobsec":6233,"Ġobscur":6234,"ĠPlac":6235,"Ġparvulus":6236,"Ġangust":6237,"iretur":6238,"Ġaccidens":6239,"Ġaccepi":6240,"Ġaugue":6241,"ĠIpse":6242,"Ġvaletud":6243,"Ġcrimen":6244,"Ġaufer":6245,"Ġantepos":6246,"Ġoccidentalis":6247,"ĠVirg":6248,"ĠQuirites":6249,"Ġcontumeli":6250,"âĨĳ":6251,"Dol":6252,"German":6253,"of":6254,"san":6255,"Ġlim":6256,"sti":6257,"Ġdabit":6258,"Ġmores":6259,"orta":6260,"Ġtard":6261,"Ġira":6262,"arus":6263,"Ġrequ":6264,"ĠAud":6265,"ĠIgitur":6266,"ĠCet":6267,"Ġdicemus":6268,"ipso":6269,"Ġperi":6270,"Ġby":6271,"Ġgessit":6272,"ego":6273,"Ġeiusque":6274,"ĠMil":6275,"ĠMerc":6276,"ĠMolest":6277,"Ġoperis":6278,"averat":6279,"Ġamorem":6280,"ĠFal":6281,"Ġpariter":6282,"Ġparoec":6283,"iscip":6284,"ĠEadem":6285,"Ġaccessit":6286,"Ġartem":6287,"Ġlegimus":6288,"Ġdolo":6289,"Ġsemin":6290,"Ġpup":6291,"Ġconfer":6292,"ĠÐĹ":6293,"Ġmathem":6294,"Ġdocere":6295,"Ġvale":6296,"Ġpax":6297,"Ġsanctae":6298,"Ġtransi":6299,"Ġmutare":6300,"ĠMarcus":6301,"Ġconiuncta":6302,"Ġglori":6303,"Ġtransf":6304,"Ð½Ñĭ":6305,"thag":6306,"Ġvultis":6307,"Ġampli":6308,"Ġcopiae":6309,"Ġcongru":6310,"Ġequum":6311,"ĠHier":6312,"Ġauxili":6313,"Ġmilites":6314,"ĠEpicurus":6315,"Ġcontempt":6316,"Ġflumen":6317,"Ġpraetorem":6318,"Ġcaelest":6319,"Ġabscond":6320,"Ġtyran":6321,"Ġpresbyter":6322,"ĠAcademiae":6323,"Ġsyllab":6324,"varic":6325,"ĠMCML":6326,"Am":6327,"ET":6328,"ON":6329,"ase":6330,"co":6331,"sk":6332,"yp":6333,"æľ":6334,"Ġaustr":6335,"Ġpeper":6336,"Ġcave":6337,"Ġmo":6338,"ures":6339,"Ġirac":6340,"Ġiratus":6341,"ligo":6342,"ulch":6343,"ibili":6344,"olit":6345,"ĠSa":6346,"ĠCre":6347,"ĠCato":6348,"orumque":6349,"Ġfacimus":6350,"Ġhabitum":6351,"Ġhabebant":6352,"arumque":6353,"ĠMiss":6354,"Ġvident":6355,"Ġidone":6356,"Ġimit":6357,"ĠVI":6358,"Ġpotestis":6359,"ĠGa":6360,"ĠGu":6361,"ĠGrat":6362,"ĠBene":6363,"Ġinterc":6364,"Ġloquetur":6365,"Ġterris":6366,"Ġsubito":6367,"Ġmultarum":6368,"Ġnomini":6369,"ĠâĢĿ":6370,"enex":6371,"Ġdecess":6372,"Ġcomplex":6373,"Ġdesert":6374,"Ġoccur":6375,"Ġpublice":6376,"Ġquosdam":6377,"Ġ2014":6378,"Ġconsequens":6379,"Ġinvenit":6380,"ĠArd":6381,"Ġingred":6382,"Ġdignitatis":6383,"ĠMariae":6384,"Ġstudiis":6385,"Ġstudebat":6386,"Ġexistimo":6387,"Ġspeciem":6388,"Ġfamilias":6389,"Ġpraesto":6390,"Ġatting":6391,"Ġmagistratus":6392,"Ġingenio":6393,"Ġscriptis":6394,"Ġdiversis":6395,"Ġsocietas":6396,"Ġpervenit":6397,"Ġdext":6398,"ĠInsula":6399,"Ġcontroversia":6400,"ĠHelvet":6401,"Ġfraud":6402,"Ġmathemat":6403,"('":6404,"Hodie":6405,"con":6406,"cuius":6407,"iatum":6408,"vae":6409,"xi":6410,"Äĵ":6411,"çļ":6412,"Ġum":6413,"Ĭ¤":6414,"inos":6415,"Ġpanem":6416,"Ġnorm":6417,"Ġinnumer":6418,"Ġvine":6419,"Ġvici":6420,"Ġtales":6421,"Ġforum":6422,"Ġfundum":6423,"etus":6424,"unicip":6425,"Ġutitur":6426,"Ġexpon":6427,"ĠSus":6428,"Ġdicti":6429,"Ġperdit":6430,"Ġillust":6431,"itura":6432,"aturus":6433,"Ġhabui":6434,"ĠNap":6435,"Ġverae":6436,"Ġincomm":6437,"Ġmaiore":6438,"Ġaccepta":6439,"ĠBon":6440,"ĠBas":6441,"Ġregiones":6442,"Ġstup":6443,"Ġars":6444,"apropter":6445,"Ġoculorum":6446,"Ġsubd":6447,"Ġmultitudo":6448,"Ġmortis":6449,"Ġdomibus":6450,"Ġagunt":6451,"Ġ[âĢ¦]":6452,"Ġdiscern":6453,"Ġrepugn":6454,"Ġdedic":6455,"Ġmortuo":6456,"Ġcognitione":6457,"entesque":6458,"Ġinfam":6459,"ĠAtl":6460,"Ġmiserum":6461,"isprud":6462,"Ġvestig":6463,"ĠGraecia":6464,"Ġsensit":6465,"ĠJos":6466,"Ġpeto":6467,"ĠConstant":6468,"Ġsacra":6469,"Ġcontinuo":6470,"Ġmonast":6471,"Ġmanduc":6472,"Ġepistulae":6473,"Ġfaciamus":6474,"Ġaffirm":6475,"Ġperpetuum":6476,"Ġnimirum":6477,"Ġbenedic":6478,"Ġdioecesis":6479,"ĠEsse":6480,"Ġeditae":6481,"Ġproelio":6482,"ÑĩÐ°ÑģÑĤÐ¸":6483,"ĠÐĹÐ°Ð¿":6484,"):":6485,"Cor":6486,"IN":6487,"OR":6488,"her":6489,"vs":6490,"za":6491,"²ł":6492,"åħ":6493,"ìĬ¤":6494,"íĬ":6495,"Ġç":6496,"ated":6497,"Ġmeret":6498,"urp":6499,"omp":6500,"ary":6501,"queb":6502,"abiliter":6503,"ĠEph":6504,"ĠIup":6505,"ĠSil":6506,"Ġdictus":6507,"estus":6508,"Ġpersequ":6509,"Ġpraevaric":6510,"Ġgraec":6511,"Ġcoeper":6512,"ivus":6513,"Ġquiddam":6514,"ebar":6515,"Ġual":6516,"Ġopponitur":6517,"avis":6518,"Ġinclud":6519,"ĠVII":6520,"inceps":6521,"Ġregibus":6522,"Ġarti":6523,"Ġloqueris":6524,"Ġtermin":6525,"ĠInde":6526,"Ġalbus":6527,"escit":6528,"Ġpartis":6529,"Ġputes":6530,"erna":6531,"Ġdivinum":6532,"Ġrepraesent":6533,"Ġdesper":6534,"Ġplacere":6535,"Ġvisa":6536,"...]":6537,"Ð¾Ð½":6538,"Ġnesciebat":6539,"ĠGraecorum":6540,"Ġegreg":6541,"Ġplurima":6542,"Ġdignus":6543,"ĠPrimus":6544,"Ġaccipiat":6545,"Ġmedic":6546,"Ġwe":6547,"actenus":6548,"Ġ||":6549,"Ġprovinciam":6550,"athed":6551,"Ġponit":6552,"ĠQuisque":6553,"Ġultimum":6554,"Ġcondimentum":6555,"Ġgravius":6556,"Ġampl":6557,"Ġexempla":6558,"Ġnegotia":6559,"Ġonus":6560,"Ġpauca":6561,"Ġcognovi":6562,"ĠMosellae":6563,"Ġaccedere":6564,"Ġancilla":6565,"ĠAthenis":6566,"Ġperegr":6567,"ĠPyrenae":6568,"ĠEvangeli":6569,"ĠÐĹÐ°Ð¿ÑĩÐ°ÑģÑĤÐ¸":6570,"²łìĬ¤":6571,"íĬ¸":6572,"²łìĬ¤íĬ¸":6573,"52":6574,"63":6575,"64":6576,"Ap":6577,"Lu":6578,"Ph":6579,"The":6580,"Ñİ":6581,"å®":6582,"umentis":6583,"Ġsel":6584,"itibus":6585,"itle":6586,"Ġqualem":6587,"Ġcras":6588,"Ġcamp":6589,"Ġvent":6590,"Ġvesc":6591,"Ġiact":6592,"idia":6593,"Ġnonnumquam":6594,"oca":6595,"ocr":6596,"Ġredi":6597,"alitas":6598,"Ġconl":6599,"Ġscito":6600,"Ġsev":6601,"ĠRec":6602,"ĠTert":6603,"ĠEaUNIT":6604,"Ġintern":6605,"Ġornam":6606,"Ġlibera":6607,"oquin":6608,"Ġregionum":6609,"Ġcreata":6610,"Ġarte":6611,"Ġvenerat":6612,"ĠOffic":6613,"Ġvitio":6614,"Ġcapi":6615,"Ġdederit":6616,"Ġcorpor":6617,"Ġ59":6618,"Ġcaritate":6619,"Ġnovit":6620,"Ġprovid":6621,"Ð°ÑĤ":6622,"Ġdiligentia":6623,"Ġpluris":6624,"ÐµÑĢ":6625,"Ġ98":6626,"Ġintelligitur":6627,"Ġemend":6628,"Ġtransfer":6629,"Ġfall":6630,"Ġtimere":6631,"Ġsermones":6632,"Ġdifferunt":6633,"ĠSicilia":6634,"Ġproduct":6635,"othec":6636,"Ġhabeatur":6637,"Ġprofess":6638,"Ġbibere":6639,"Ġvigil":6640,"Ġquotidie":6641,"Ġingenium":6642,"Ġorientali":6643,"Ġhistoriae":6644,"Ġdiab":6645,"ĠAttico":6646,"Ġlinea":6647,"Ġoccidentali":6648,"ĠLigeris":6649,"Ġlignum":6650,"Ġinnoc":6651,"Ġprodierunt":6652,"Ġë²łìĬ¤íĬ¸":6653,"ĠLotharingia":6654,"Ġaustralis":6655,"55":6656,"68":6657,"Car":6658,"Er":6659,"Ma":6660,"Vol":6661,"ez":6662,"sunt":6663,"Ã²":6664,"Î¼":6665,"ÑĨ":6666,"Ø±":6667,"áº":6668,"Ġul":6669,"Ġced":6670,"Ġnullius":6671,"Ġinu":6672,"Ġinut":6673,"Ġvesper":6674,"Ġiun":6675,"aremus":6676,"ĠEius":6677,"ĠEodem":6678,"ĠAdam":6679,"ratur":6680,"istae":6681,"ĠNaz":6682,"uch":6683,"Ġpotero":6684,"ĠMis":6685,"ĠMon":6686,"ĠMor":6687,"Ġabb":6688,"Ġvidentes":6689,"Ġuera":6690,"ĠLond":6691,"ĠHom":6692,"ĠRem":6693,"ĠRub":6694,"Ġpariet":6695,"Ġconsue":6696,"Ġmoderat":6697,"003":6698,"Ġvirorum":6699,"Ġprimae":6700,"lev":6701,"Ġmagnitudine":6702,"ĠUr":6703,"Ġduorum":6704,"ressum":6705,"Ġdebeo":6706,"Ġagrum":6707,"Ġsanguis":6708,"Ġiurisprud":6709,"itudines":6710,"Ġdesertum":6711,"Ġ2005":6712,"Ġnovem":6713,"Ġ79":6714,"Ġfama":6715,"Ġindustr":6716,"Ġwh":6717,"Ġwas":6718,"Ġpraedicantur":6719,"Ġlatinam":6720,"ĠCaesari":6721,"ĠFoederatarum":6722,"Ġthis":6723,"Ġperfectionem":6724,"Ġquaestiones":6725,"Ġefficere":6726,"Ġconsules":6727,"Ġgaudeo":6728,"Ġunusquisque":6729,"Ġlaboravit":6730,"Ġseptu":6731,"Ġauxilio":6732,"Ġvidebitur":6733,"Ġpossidet":6734,"Atque":6735,"ãĢĤ":6736,"Ġtestamento":6737,"Ġangelus":6738,"2015":6739,"ĠEpiscopus":6740,"Ġrelicta":6741,"Ġmembra":6742,"ĠQuintus":6743,"Ġpraeclare":6744,"Ġpapa":6745,"Ġthesa":6746,"Il":6747,"UM":6748,"Vulgate":6749,"huc":6750,"ler":6751,"psit":6752,"tt":6753,"Â°":6754,"ÑĪ":6755,"à¤":6756,"Ġsursum":6757,"Ġsenex":6758,"inorum":6759,"Ġpunct":6760,"ony":6761,"Ġcare":6762,"Ġdari":6763,"Ġinan":6764,"Ġvias":6765,"Ġvariis":6766,"uth":6767,"Ġiuli":6768,"enas":6769,"esima":6770,"untia":6771,"arit":6772,"osse":6773,"eci":6774,"ulatus":6775,"Ġprem":6776,"Ġprol":6777,"Ġredit":6778,"Ġquaesumus":6779,"ĠAqu":6780,"ĠIov":6781,"ĠDes":6782,"Ġbas":6783,"rati":6784,"quamur":6785,"Ġhaberem":6786,"ivam":6787,"Ġpoterant":6788,"undis":6789,"ebitur":6790,"Ġviderit":6791,"Ġvidetis":6792,"Ġoperi":6793,"avimus":6794,"Ġconsid":6795,"Ġconspic":6796,"Ġcontentus":6797,"Ġcommov":6798,"Ġpatitur":6799,"Ġstatum":6800,"Ġspons":6801,"ĠInd":6802,"Ġoct":6803,"Ġimpon":6804,"Ġcuiusdam":6805,"Ġaspic":6806,"diet":6807,"Ġoptimus":6808,"Ġinvenerunt":6809,"Ġdignitatem":6810,"Ġaccipiunt":6811,"Ġpertinuit":6812,"Ġapert":6813,"Ġcontrarium":6814,"ĠSancto":6815,"Ġmovet":6816,"ardin":6817,"Ġphilosophi":6818,"Ġaeternitate":6819,"ulpa":6820,"Ġartic":6821,"Ġnolo":6822,"Ġclaritatem":6823,"Ġproximum":6824,"Ġingenii":6825,"Ġinimici":6826,"Ġ1945":6827,"Ġ1999":6828,"Ġmart":6829,"Ġfortunae":6830,"Ġasperiores":6831,"Ġmentionem":6832,"Ġplenum":6833,"Ġconsecutus":6834,"Ġorbis":6835,"comp":6836,"ï¼Į":6837,"Ġgradu":6838,"Respon":6839,"ownload":6840,"Ġaccurate":6841,"ĠAtlant":6842,"77":6843,"Io":6844,"Pater":6845,"iani":6846,"uia":6847,"åı":6848,"Ġà«¨":6849,"ema":6850,"Ġmass":6851,"ork":6852,"Ġinesse":6853,"icia":6854,"Ġvulp":6855,"utionis":6856,"rev":6857,"Ġfas":6858,"liane":6859,"eni":6860,"Ġlarg":6861,"Ġexitum":6862,"ĠElis":6863,"ĠEquidem":6864,"Ġperv":6865,"iliam":6866,"Ġsedul":6867,"Ġhabentes":6868,"Ġsci":6869,"ĠMel":6870,"ĠHis":6871,"Ġcali":6872,"ĠReli":6873,"ĠForm":6874,"ĠFilium":6875,"ĠTub":6876,"Ġtempest":6877,"Ġaccommod":6878,"Ġmodis":6879,"Ġsecutus":6880,"Ġstell":6881,"ienter":6882,"Ġvenio":6883,"Ġloquere":6884,"Ġaudio":6885,"Ġdebuit":6886,"Ġrationibus":6887,"Ġistuc":6888,"Ġcurr":6889,"Ġiudicii":6890,"Ġdivinae":6891,"Ġ43":6892,"Ġcognitio":6893,"Ġpublicum":6894,"Ġvivendum":6895,"Ġdicitis":6896,"Ġmoritur":6897,"Ġfix":6898,"Ġcaeter":6899,"ĠArg":6900,"Ġjuxta":6901,"Ġegressus":6902,"Ġimperdiet":6903,"Ġnecessitas":6904,"Ġvirtuti":6905,"Ġpulv":6906,"Ġoperatus":6907,"true":6908,"Ġvultus":6909,"Ġhabeamus":6910,"ĠGallia":6911,"Ġhostium":6912,"Ġsimilitudo":6913,"Ġpugna":6914,"ĠCarolus":6915,"Ġacciderit":6916,"âĢĻ,":6917,"Ġuidetur":6918,"Ġsonum":6919,"Ġscriptores":6920,"Ġschola":6921,"Ġscelere":6922,"Ġvacua":6923,"Ġbestiis":6924,"Ġecclesiasticae":6925,"Ġauf":6926,"Ġapparuit":6927,"Ġconclusio":6928,"Ġuirtut":6929,"Ġpercipi":6930,"ĠInferioris":6931,"Ġmisericordiam":6932,"????":6933,"Ġdexteram":6934,"Ġperhiberet":6935,"Ġmatrimonium":6936,"Ġcordis":6937,"Ġarchiepiscopus":6938,"inventory":6939,"ĠBurgundia":6940,"çļĦ":6941,",[":6942,".Â»":6943,"84":6944,"Ant":6945,"aut":6946,"iata":6947,"lat":6948,"ng":6949,"ous":6950,"post":6951,"rid":6952,"sur":6953,"Ã±":6954,"Ġ`":6955,"ervi":6956,"Ġsab":6957,"ama":6958,"amenta":6959,"Ġdimis":6960,"Ġmob":6961,"Ġtel":6962,"Ġiung":6963,"Ġfil":6964,"enae":6965,"Ġher":6966,"Ġhactenus":6967,"old":6968,"Ġadept":6969,"ionys":6970,"Ġsuad":6971,"ĠEsa":6972,"ĠSub":6973,"ĠSap":6974,"ĠDie":6975,"Ġdices":6976,"Ġdicetur":6977,"Ġaliarum":6978,"Quia":6979,"Ġ118":6980,"Ġfacillim":6981,"Ġgess":6982,"ĠMer":6983,"Ġabomin":6984,"Ġerub":6985,"Ġaliquos":6986,"iscere":6987,"ĠGo":6988,"Ġinterdic":6989,"Ġregula":6990,"ront":6991,"venit":6992,"abula":6993,"Ġprimi":6994,"Ġnosmet":6995,"Ġagi":6996,"Ġpraesc":6997,"Ġvocat":6998,"Ġputare":6999,"Ġtabular":7000,"Ġcapiunt":7001,"Ġexpl":7002,"Ġcivili":7003,"Ġecclesie":7004,"Ġnominavi":7005,"Ġ44":7006,"Ġinventa":7007,"Ġnotitia":7008,"Ġcredid":7009,"Ġpraeterito":7010,"Ġopport":7011,"Ġvalere":7012,"Ġvestibulum":7013,"Ġ60":7014,"illus":7015,"Ġceter":7016,"Ġconiun":7017,"Ġodium":7018,"Ġadiung":7019,"rices":7020,"evo":7021,"angu":7022,"Ġantiquae":7023,"Ġbeatam":7024,"Ġexplicat":7025,"ĠPostquam":7026,"Deus":7027,"prop":7028,"Ġaures":7029,"Ġlevis":7030,"Ġmilitibus":7031,"ĠVenet":7032,"Ġtribunalis":7033,"ĠScipio":7034,"Ġimagines":7035,"ognosc":7036,"Ġderel":7037,"ĠPropter":7038,"Ġcompetit":7039,"rinsecus":7040,"Ġiurisprudentiae":7041,"69":7042,"Dic":7043,"Ea":7044,"Lingu":7045,"Th":7046,"fex":7047,"haec":7048,"iÃ¦":7049,"line":7050,"ner":7051,"roc":7052,"uatur":7053,"ÙĦ":7054,"åĪ":7055,"Ġeunt":7056,"quia":7057,"ink":7058,"inii":7059,"aet":7060,"aequ":7061,"Ġvect":7062,"Ġtellus":7063,"ecerit":7064,"ularis":7065,"Ġrenunt":7066,"Ġlus":7067,"Ġexitus":7068,"ĠCa":7069,"ĠColl":7070,"Ġ100":7071,"Ġfacite":7072,"egit":7073,"issae":7074,"ortuus":7075,"Ġveram":7076,"Ġvidens":7077,"Ġvideris":7078,"Ġvidendum":7079,"Ġris":7080,"Ġrust":7081,"Ġnepot":7082,"ĠFr":7083,"Ġconsu":7084,"Ġconscrip":7085,"Ġplor":7086,"ĠBab":7087,"Ġinterfect":7088,"Ġorator":7089,"eries":7090,"ĠOc":7091,"Ġmultorum":7092,"Ġposter":7093,"Ġagimus":7094,"Ġagri":7095,"Ġsuperius":7096,"aliz":7097,"Ġisdem":7098,"Ġconclud":7099,"Ġdiei":7100,"Ġ52":7101,"Ġ54":7102,"Ġdicite":7103,"Ġexcog":7104,"ĠItaliam":7105,"Ġuxori":7106,"ĠGraeca":7107,"Ġaetas":7108,"Ġextran":7109,"Ġofficii":7110,"erba":7111,"Ġexercit":7112,"Ġfuturi":7113,"Ġreliquis":7114,"Ġ129":7115,"Ġspecia":7116,"Ġfallac":7117,"Ġbeate":7118,"ĠGermanicus":7119,"Ġtribul":7120,"ĠRegnum":7121,"Ġauctoritas":7122,"ĠÃł":7123,"Ġcalc":7124,"Ġhumanitas":7125,"ĠIosue":7126,"Ġproxime":7127,"Ġmeliorem":7128,"ĠCatil":7129,"ĠSpiritu":7130,"Ġutilitatis":7131,"ĠHierusalem":7132,"Ġscripsisse":7133,"Ġsustent":7134,"Ġreferre":7135,"Ġsaepissime":7136,"Ġrett":7137,"Ġturpis":7138,"ĠIosephus":7139,"ĠClaud":7140,"Ġfacultatem":7141,"Ġdaturus":7142,"Ġperspicere":7143,"Ġabscon":7144,"dixitque":7145,"Ġinterfuit":7146,"ĠIohannes":7147,"Ġscholam":7148,"ĠFreto":7149,"àµį":7150,"ĠAntioch":7151,"ĠPhilipp":7152,"Ġartifex":7153,"54":7154,"61":7155,"78":7156,"Cap":7157,"Ent":7158,"Sal":7159,"des":7160,"ment":7161,"pit":7162,"sch":7163,"ville":7164,"éĭ":7165,"Ġae":7166,"Ġsta":7167,"Ġquicum":7168,"Ġpom":7169,"Ġpend":7170,"Ġpurus":7171,"onec":7172,"Ġnationes":7173,"aeque":7174,"ement":7175,"icere":7176,"enique":7177,"Ġheri":7178,"idis":7179,"acum":7180,"Ġquamuis":7181,"ĠCast":7182,"terum":7183,"Ġpraetere":7184,"iturg":7185,"raque":7186,"Ġposuere":7187,"ebuntur":7188,"Ġvidete":7189,"itavi":7190,"Ġrisus":7191,"Ġrhon":7192,"Ġsitus":7193,"ava":7194,"ĠLong":7195,"ĠFlor":7196,"ĠFilio":7197,"ĠFinn":7198,"Ġsolebat":7199,"Ġbonam":7200,"Ġregim":7201,"Ġnostrorum":7202,"Ġlego":7203,"Ġlegata":7204,"Ġ1918":7205,"Ġmanuum":7206,"Ġannus":7207,"ĠUnum":7208,"entias":7209,"Ġvocatum":7210,"Ġcuram":7211,"Ġexplor":7212,"Ġexpedit":7213,"Ġecclesiarum":7214,"Ġ42":7215,"Ġdecimo":7216,"Ġtotus":7217,"elix":7218,"Ġinventum":7219,"Ġmaiori":7220,"Ġpraeceper":7221,"Ġcarm":7222,"Ġsignis":7223,"Ġvideos":7224,"Ġprobarent":7225,"Ġfrom":7226,"Ġdiligentissime":7227,"Ġvictus":7228,"ĠAdm":7229,"Ġbella":7230,"Ġsacri":7231,"Ġmulieris":7232,"Ġimmut":7233,"ĠSanctae":7234,"Ġepiscopo":7235,"Ġmoveri":7236,"Ġultima":7237,"Ġconveniat":7238,"Ġsingulos":7239,"Ġpulchrum":7240,"Ġaeternam":7241,"Ġreferuntur":7242,"Ġreddet":7243,"ĠPlanc":7244,"ĠPlato":7245,"Ġpromitt":7246,"Ġbrevis":7247,"Ġaccidere":7248,"Ġdescrib":7249,"Ġlacinia":7250,"Ġiacet":7251,"Ġfoederis":7252,"ĠPompon":7253,"option":7254,"Ġmentitum":7255,"ĠClod":7256,"ĠBritannia":7257,"Ġprudentia":7258,"Italiane":7259,"Ġsanguine":7260,"Ġmyster":7261,"Ġaegrot":7262,"Ġvictoria":7263,"Ġdiscessimus":7264,"eunte":7265,"Ġnexus":7266,"Ġperferendis":7267,"Ġquinto":7268,"attoos":7269,"ĠEnnius":7270,"AR":7271,"Dec":7272,"Municip":7273,"Sec":7274,"bum":7275,"nec":7276,"niae":7277,"nunc":7278,"uat":7279,"verit":7280,"Î¯":7281,"Ġosc":7282,"Ġ\\/":7283,"Ġequit":7284,"itetur":7285,"inati":7286,"Ġquales":7287,"atas":7288,"Ġmedit":7289,"utate":7290,"Ġferunt":7291,"Ġfert":7292,"Ġforis":7293,"ĠEo":7294,"ĠAv":7295,"ĠSat":7296,"ĠSint":7297,"ĠCaec":7298,"ipat":7299,"Ġperp":7300,"ĠPos":7301,"ostoli":7302,"Ġpotuerit":7303,"issus":7304,"Ġquolibet":7305,"Ġpossemus":7306,"Ġabest":7307,"Ġopes":7308,"averis":7309,"ultur":7310,"empe":7311,"Ġaliquae":7312,"Ġvolui":7313,"ĠTibi":7314,"ĠVIII":7315,"Ġacceperit":7316,"ĠBav":7317,"Ġoritur":7318,"erique":7319,"Ġlegati":7320,"Ġterre":7321,"irent":7322,"Ġauditum":7323,"Ġscribendi":7324,"tinam":7325,"Ġinsulam":7326,"Ġmatre":7327,"Ġmatris":7328,"Ġ2015":7329,"upid":7330,"Ġinveniuntur":7331,"Ġreddit":7332,"Ġduces":7333,"illis":7334,"Ġdiligere":7335,"Ġ80":7336,"Ġvict":7337,"Ġcognoscitur":7338,"Ġmille":7339,"Ġfacturum":7340,"Ġhabeas":7341,"ĠIdus":7342,"Ġdeprec":7343,"Ġcopiis":7344,"Ġpauci":7345,"Ġopinione":7346,"ĠIudaei":7347,"Ġpueros":7348,"ĠHispaniae":7349,"Ġiaculis":7350,"Ġoffend":7351,"Ġrelati":7352,"Ġirasc":7353,"Itaque":7354,"Ġortus":7355,"Ġoves":7356,"Ġoccasionem":7357,"ĠZenonem":7358,"ĠÐ¿ÑĢ":7359,"ĠIusto":7360,"Ġinsipiens":7361,"Ġdiutius":7362,"Ġmendacium":7363,"Ġredempt":7364,"ĠâĢĿ.":7365,"Ġvulputate":7366,"87":7367,"AN":7368,"EN":7369,"Mihi":7370,"Sunt":7371,"disc":7372,"ood":7373,"tol":7374,"Ãİ":7375,"Ð·":7376,"Ùħ":7377,"æĹ":7378,"Ġsurre":7379,"usta":7380,"inius":7381,"inio":7382,"Ġpare":7383,"onice":7384,"Ġcepit":7385,"Ġnou":7386,"Ġdiam":7387,"Ġmos":7388,"orio":7389,"Ġinitium":7390,"Ġtw":7391,"Ġtet":7392,"Ġtulit":7393,"utam":7394,"enum":7395,"esis":7396,"idam":7397,"Ġadim":7398,"Ġadol":7399,"Ġlug":7400,"ileg":7401,"otam":7402,"opere":7403,"alitatem":7404,"Ġexcip":7405,"Ġexilium":7406,"ĠDan":7407,"ĠDionys":7408,"Ġge":7409,"Ġgens":7410,"Ġcoel":7411,"Ġhaberent":7412,"ĠNor":7413,"Ġpotuisse":7414,"Ġveri":7415,"Ġverec":7416,"Ġridic":7417,"Ġambit":7418,"Ġmaer":7419,"ĠBellum":7420,"Ġconturb":7421,"Ġcommerc":7422,"Ġinterim":7423,"Ġfuimus":7424,"Ġstatus":7425,"ientium":7426,"Ġloquatur":7427,"Ġquisquis":7428,"Ġaudita":7429,"ĠUs":7430,"Ġputem":7431,"aliae":7432,"Ġ41":7433,"Ġsentiat":7434,"ĠChal":7435,"Ġ51":7436,"Ð°Ð»":7437,"ĠLatinum":7438,"Ġvestris":7439,"entiarum":7440,"rehendi":7441,"ĠIsa":7442,"Ġiussu":7443,"Ġtransit":7444,"Ġdiligentius":7445,"ĠQuaedam":7446,"Ġintellegit":7447,"Ġsaeculorum":7448,"Ġaccipe":7449,"ÐµÐ»":7450,"Ġ120":7451,"Ġconstitui":7452,"ĠExerc":7453,"Ġpropriae":7454,"astis":7455,"âĢĿ,":7456,"Ġpond":7457,"criptum":7458,"Ġexsp":7459,"Ġuniversis":7460,"Ġantiquis":7461,"Ġantiquos":7462,"Ġaudierunt":7463,"ĠAntonius":7464,"Ġconsuetudine":7465,"Ġopinio":7466,"ĠLiber":7467,"Ġexspecto":7468,"Ġiniquitatem":7469,"Ġquatenus":7470,"Ġfelis":7471,"ĠUrbes":7472,"Ġhaeret":7473,"Ġdialect":7474,"Ġdepositum":7475,"Ġbenedict":7476,"Ġprosunt":7477,"Ġspectat":7478,"Ġextrema":7479,"Omnes":7480,"Ġmisericordia":7481,"ĠIste":7482,"ĠCommun":7483,"Ġoccurrit":7484,"Ġpraeceptis":7485,"Ġincredibile":7486,"ĠSocrates":7487,"ĠThomas":7488,"Ġmiraretur":7489,"ĠBerol":7490,"ĠGulielmus":7491,"Ġexcels":7492,"ĠSelectae":7493,"Ġsedulitatem":7494,"Ġrhoncus":7495,"'s":7496,"Neque":7497,"Pro":7498,"auit":7499,"berg":7500,"hoc":7501,"xerit":7502,"Ãº":7503,"erium":7504,"Ġseg":7505,"amin":7506,"amini":7507,"Ġcense":7508,"Ġdisi":7509,"Ġtul":7510,"Ġiei":7511,"imos":7512,"Ġhii":7513,"osum":7514,"ulpt":7515,"ulari":7516,"olite":7517,"Ġadesse":7518,"elop":7519,"Ġdeest":7520,"Ġexh":7521,"ĠAur":7522,"ĠCali":7523,"Ġdicenda":7524,"Ġillas":7525,"ĠPont":7526,"Ġcoerc":7527,"Ġscitis":7528,"Ġvidisti":7529,"ellis":7530,"ĠHinc":7531,"Ġamis":7532,"Ġpaginam":7533,"ĠFilii":7534,"ĠTre":7535,"ĠTri":7536,"ĠVerg":7537,"ĠVultur":7538,"Ġsolemus":7539,"Ġacceperunt":7540,"Ġcommodo":7541,"Ġsecret":7542,"Ġregionibus":7543,"Ġcrede":7544,"lesimo":7545,"Ġloquendi":7546,"Ġloquaris":7547,"Ġmagnis":7548,"eretis":7549,"Ġquemque":7550,"Ġagric":7551,"Ġacquir":7552,"Ġeamque":7553,"Ġremitt":7554,"Ġmalorum":7555,"Ġdives":7556,"Ġpopulorum":7557,"Ġservare":7558,"Ġmiseri":7559,"...)":7560,"Ġrespondi":7561,"ĠArab":7562,"Ġquaereremus":7563,"Ġplurimi":7564,"Ġdigni":7565,"Ġlaude":7566,"Ġfactis":7567,"\":[":7568,"ify":7569,"Ġadmodum":7570,"ĠPhilosoph":7571,"Ġsermonis":7572,"Ġexsist":7573,"Ġconveniunt":7574,"Ġeffici":7575,"ember":7576,"Ġobsc":7577,"Ġsecundam":7578,"Ġparvum":7579,"Ġindicia":7580,"ĠNovi":7581,"Ġequus":7582,"Ġinimicus":7583,"ĠMagni":7584,"ĠAutem":7585,"Ġmaritus":7586,"Ġgestarum":7587,"ĠPaulo":7588,"Ġsororem":7589,"Ġaffectum":7590,"Ġvereor":7591,"Ġparentibus":7592,"Ġtempt":7593,"Ġpraesidio":7594,"Ġmusicae":7595,"ĠEpiscopi":7596,"Ġgenerationes":7597,"ĠPompeius":7598,"ĠInterrog":7599,"Ġhabebis":7600,"Ġitinere":7601,"ĠDixitque":7602,"Ġibidem":7603,"Ġnigrum":7604,"ĠHenricus":7605,"Ġomnipotens":7606,"Ġfermentum":7607,"Ġsatiet":7608,"Ġmeretric":7609,"Ġieiun":7610,"58":7611,"Im":7612,"gypt":7613,"hel":7614,"ierit":7615,"out":7616,"we":7617,"Ð³":7618,"Øª":7619,"Ġeun":7620,"Ġeuis":7621,"itare":7622,"usa":7623,"ondam":7624,"Ġciu":7625,"oro":7626,"Ġtent":7627,"Ġif":7628,"retum":7629,"Ġfunct":7630,"idus":7631,"Ġpridem":7632,"Ġlep":7633,"aculo":7634,"Ġconj":7635,"Ġexim":7636,"ĠEos":7637,"ĠSar":7638,"ĠSPD":7639,"Ġdirig":7640,"Ġfacinus":7641,"Ġsedem":7642,"Ġcomedit":7643,"ĠHa":7644,"ĠHanno":7645,"ultum":7646,"oreet":7647,"Ġaliquibus":7648,"isce":7649,"ĠTra":7650,"Ġessemus":7651,"ĠGab":7652,"Ġintr":7653,"ĠBa":7654,"Ġoro":7655,"rang":7656,"Ġantec":7657,"Ġmultitudinis":7658,"Ġimple":7659,"Ġcuiuscumque":7660,"Ġdebes":7661,"Ġtrin":7662,"Ġdesunt":7663,"Ġ2002":7664,"Ġconfund":7665,"ĠChana":7666,"Ġpublico":7667,"Ġ53":7668,"Ġtenu":7669,"Ġplacerat":7670,"Ġmisera":7671,"Ġnovae":7672,"Ġsapere":7673,"upta":7674,"Ġpaulum":7675,"Ġprincipibus":7676,"Ġintellegitur":7677,"ĠEcclesiam":7678,"Ġstudiorum":7679,"Ġsuppon":7680,"actio":7681,"Ġglorific":7682,"Ġaquarum":7683,"Ġquinta":7684,"Ġdispens":7685,"Ġoperatur":7686,"Ġponere":7687,"Ġponitur":7688,"Ġnoctem":7689,"Ġdona":7690,"Ġvultum":7691,"Ġcondidit":7692,"Ġargentum":7693,"Ġmiseros":7694,"Ġreddidit":7695,"ĠGallic":7696,"Ġincipiunt":7697,"Ġopinionem":7698,"Ð°Ð·":7699,"Ġscriptura":7700,"Ġarbitrium":7701,"Ġauribus":7702,"Ġperduc":7703,"rentur":7704,"Ġmulieribus":7705,"Ġpraemium":7706,"Ġhistoria":7707,"Ġpoenit":7708,"Ġsufficit":7709,"ĠOrdin":7710,"Ġoperationem":7711,"Ġconcessum":7712,"Ġimperatoris":7713,"Ġsanguinem":7714,"ĠPotest":7715,"Ġpraeposita":7716,"Ġinquantum":7717,"Ġuita":7718,"Ġmerito":7719,"Ġstipul":7720,"Ġedictum":7721,"ĠTarrac":7722,"ĠAmericanus":7723,"Ġcitius":7724,"Ġresurrect":7725,"ĠÐ½Ð°":7726,"ĠPorro":7727,"Ġtranseunt":7728,"Ġcentesimae":7729,"Ġdidici":7730,"Germanice":7731,"ĠBabyl":7732,"Ġeuismod":7733,"73":7734,"Aut":7735,"Co":7736,"Cic":7737,"fuit":7738,"pere":7739,"pro":7740,"piter":7741,"prae":7742,"Ġcathed":7743,"aeus":7744,"emin":7745,"Ġvarius":7746,"Ġtort":7747,"Ġestis":7748,"ome":7749,"oman":7750,"esne":7751,"Ġhend":7752,"ode":7753,"anct":7754,"anne":7755,"Ġadj":7756,"Ġlup":7757,"ild":7758,"Ġdeg":7759,"Ġdepon":7760,"ĠCass":7761,"Ġdiis":7762,"Ġmeh":7763,"ectis":7764,"Ġquidque":7765,"Ġabst":7766,"Ġrub":7767,"Ġrhet":7768,"ĠLam":7769,"ellam":7770,"ĠHort":7771,"Ġamen":7772,"ĠRex":7773,"Ġprout":7774,"Ġproinde":7775,"Ġincom":7776,"Ġincend":7777,"Ġvolebat":7778,"Ġconsilii":7779,"Ġpotestatis":7780,"Ġpropius":7781,"Ġeoque":7782,"Ġanimarum":7783,"Ġcreavit":7784,"ientis":7785,"Ġcorda":7786,"Ġlegitur":7787,"Ġloqueretur":7788,"Ġsubj":7789,"escere":7790,"Ġimprim":7791,"Ġcommuniter":7792,"Ġagat":7793,"Ġvocibus":7794,"Ġremiss":7795,"Ġcivem":7796,"Ġcivile":7797,"Ġ[...]":7798,"Ġiuri":7799,"Ġmortuis":7800,"Ġcognita":7801,"Ġsentiam":7802,"Ġsententiis":7803,"Ġfortis":7804,"Ġoccidit":7805,"Ġscriberem":7806,"Ġcorporibus":7807,"iosis":7808,"retiva":7809,"Ġclaud":7810,"Ġinsc":7811,"Ġvideamur":7812,"Ġmolestum":7813,"Ġprobatur":7814,"Ġvestram":7815,"Ġdignitas":7816,"ĠPrincip":7817,"Ġsapientem":7818,"Ġappellant":7819,"Ġsenator":7820,"Ġlongus":7821,"Ġprocess":7822,"Ġintelligentia":7823,"Ġmensa":7824,"Ġpeccato":7825,"Ġtransm":7826,"Ġostium":7827,"ĠIoach":7828,"Ġdistrib":7829,"Ġluce":7830,"Ġprodesse":7831,"ĠRegni":7832,"Ġresponderunt":7833,"Ġreform":7834,"letum":7835,"Ġhumanae":7836,"Ġsimilem":7837,"Ġmagistri":7838,"Ġsuccessor":7839,"Ġconval":7840,"Ġquodammodo":7841,"Ġpedibus":7842,"Ġevenit":7843,"ĠIacobus":7844,"Ġpretio":7845,"Ġvincit":7846,"Ġdifferentiae":7847,"ĠPrimo":7848,"ĠPompei":7849,"Ġtabernaculum":7850,"Ġdoctrinam":7851,"Ġnemini":7852,"ĀĀĀĀ":7853,"ĠSuec":7854,"Ġservitutem":7855,"ĠDietae":7856,"Ġboreali":7857,"ĠAristoteles":7858,"Ġanteposuerit":7859,"Ġseptuaginta":7860,"Municipia":7861,"discretiva":7862,"ĠChanaan":7863,"Die":7864,"OL":7865,"Or":7866,"Tum":7867,"Ubi":7868,"br":7869,"eff":7870,"fl":7871,"hinc":7872,"kr":7873,"rist":7874,"sam":7875,"variant":7876,"Ïħ":7877,"åľ":7878,"Ġ!":7879,"Ġeidem":7880,"Ġsax":7881,"inter":7882,"Ġpoll":7883,"onibus":7884,"Ġnatae":7885,"aev":7886,"rept":7887,"imenta":7888,"iare":7889,"acc":7890,"ĠEli":7891,"esta":7892,"ĠPop":7893,"ensus":7894,"Ġhabuerit":7895,"ĠNob":7896,"ĠMess":7897,"Ġcomper":7898,"Ġvelint":7899,"Ġvidero":7900,"Ġuere":7901,"Ġeros":7902,"ĠLic":7903,"ĠHeli":7904,"ĠHung":7905,"ĠTen":7906,"ĠTim":7907,"ĠGad":7908,"Ġsecuri":7909,"Ġarmis":7910,"isii":7911,"Ġveniret":7912,"ĠOst":7913,"escunt":7914,"Ġnaturale":7915,"Ġcommunibus":7916,"Ġrationis":7917,"Ġpartium":7918,"cipit":7919,"Ġmalitiae":7920,"Ġreput":7921,"Ġmaximo":7922,"Ġmagisque":7923,"Ġsentit":7924,"Ġoccisus":7925,"Ġgratissimum":7926,"Ġinferos":7927,"Ġfidel":7928,"Ġpersonis":7929,"Ġmiserunt":7930,"Ġmoriens":7931,"ienses":7932,"Ġvaleat":7933,"ĠGraecae":7934,"Ġ68":7935,"Ġegit":7936,"Ġegressi":7937,"Ġquandoque":7938,"Ġ89":7939,"Ġsaeculis":7940,"Ġfuturo":7941,"Ġweb":7942,"actis":7943,"Ġsenatum":7944,"Ġmiles":7945,"ĠBrutus":7946,"Ġpeccare":7947,"ãģĦ":7948,"Ġsignificant":7949,"Ġsignificatur":7950,"ĠXen":7951,"Ġsociis":7952,"ÑģÐº":7953,"Ð½Ð¾":7954,"Ġadiunct":7955,"ĠIoas":7956,"Ġluctus":7957,"Ġdonavit":7958,"Ġferendum":7959,"Ġexplicari":7960,"Ġchar":7961,"Ġseptentr":7962,"Ġdelectat":7963,"Ġvigesima":7964,"Ġquotiens":7965,"Ġfuror":7966,"Ġfurtum":7967,"ĠIudaeos":7968,"Ġmitto":7969,"Ġaccepisse":7970,"Ġterritor":7971,"Ġsonus":7972,"Ġcenses":7973,"ĠMosen":7974,"Ġfacilisis":7975,"Ġhiem":7976,"Ġfestin":7977,"Ġhabitatores":7978,"Ġpraetore":7979,"ĠImperium":7980,"Ġcomprehenderunt":7981,"Ġvocabulum":7982,"Ġcecidit":7983,"Ġcoepi":7984,"Ġsustinere":7985,"Praeterea":7986,"Postquam":7987,"Ġelev":7988,"ĠFortasse":7989,"Ġtriumph":7990,"Ġflagit":7991,"ĠVestibulum":7992,"ĠBelg":7993,"Ġnonnulli":7994,"Ġabsurdum":7995,"Ġobsecro":7996,"Ġincommut":7997,"Volupt":7998,"ĠEsau":7999,"ipatet":8000,"ĠHannover":8001,"ĠTarraconensi":8002,"65":8003,"71":8004,"Cont":8005,"OX":8006,"ber":8007,"hab":8008,"nia":8009,"rerit":8010,"Ã§":8011,"ä½":8012,"æĪ":8013,"æĸ":8014,"Ġ~":8015,"eramus":8016,"Ġastr":8017,"Ġsord":8018,"Ġquendam":8019,"Ġquondam":8020,"Ġpest":8021,"ĠcÃ¦":8022,"Ġdant":8023,"Ġdaemon":8024,"iciam":8025,"Ġtend":8026,"esque":8027,"eti":8028,"aram":8029,"anas":8030,"ecun":8031,"ibiles":8032,"oct":8033,"Ġuter":8034,"ionalis":8035,"Ġconuen":8036,"Ġexstitit":8037,"ĠAct":8038,"ĠSatis":8039,"Ġmearum":8040,"Ġdicet":8041,"Ġdicerem":8042,"Ġ119":8043,"Ġbo":8044,"ĠQuos":8045,"ensium":8046,"Ġhabuerunt":8047,"uchi":8048,"ĠMD":8049,"ĠMass":8050,"Ġapta":8051,"Ġveris":8052,"Ġuult":8053,"ĠLaced":8054,"ĠHunc":8055,"ĠFrat":8056,"Ġincogn":8057,"Ġplerique":8058,"ĠGre":8059,"Ġlibentius":8060,"ienti":8061,"Ġspoli":8062,"Ġusquam":8063,"Ġincolum":8064,"Ġaguntur":8065,"Ġacquis":8066,"Ġpraesentibus":8067,"Ġvocantur":8068,"Ġexpul":8069,"Ġdiscrim":8070,"Ġiurid":8071,"Ġappos":8072,"ĠQuidquid":8073,"ĠÐ¼":8074,"Ġeisdem":8075,"Ġpraetermitt":8076,"Ġnovissimo":8077,"Ġnegare":8078,"Ġsumme":8079,"Ġfugere":8080,"Ġ75":8081,"ĠArt":8082,"1088":8083,"Ġ63":8084,"Ġimperatore":8085,"Ġ86":8086,"Ġhumani":8087,"Ġfuturus":8088,"Ġignem":8089,"Ġceteros":8090,"Â»,":8091,"Ġmuneribus":8092,"Ġlatina":8093,"ifend":8094,"Ġostendere":8095,"Ġtheolog":8096,"ĠIoannis":8097,"Ġconditum":8098,"Ġceler":8099,"ationalis":8100,"Ġprofessor":8101,"Ġdissol":8102,"Ġnegotii":8103,"Ġdictae":8104,"ĠCurabitur":8105,"Ġhostibus":8106,"erebat":8107,"Ġsalutis":8108,"Ġmittere":8109,"Ġsucced":8110,"ĠMagna":8111,"ĠPeripatet":8112,"Ġsinu":8113,"Ġscripsisti":8114,"ĠAugustus":8115,"Ġheredem":8116,"Ġpropheta":8117,"Ġdifferentiam":8118,"Ġtalibus":8119,"ĠCorne":8120,"Ġjusto":8121,"Ġstultus":8122,"Ġambo":8123,"Ġsepultus":8124,"Ġancillam":8125,"Ġancillae":8126,"ÏĦÎ¿":8127,"Ġxx":8128,"Ġortum":8129,"Ġcadere":8130,"Ġurna":8131,"ĠSuperioris":8132,"ĠVoluptatem":8133,"Ġfiduciam":8134,"Ġeleifend":8135,"Ġligula":8136,"Ġfructu":8137,"Ġconsistit":8138,"Ġgrand":8139,"Aliquam":8140,"ogallice":8141,"Ġsinistram":8142,"Ioannes":8143,"Ġhendrerit":8144,"ĠLacedaemon":8145,"AC":8146,"AL":8147,"DU":8148,"bl":8149,"cem":8150,"cunque":8151,"form":8152,"ja":8153,"oz":8154,"rarum":8155,"sil":8156,"title":8157,"uad":8158,"vam":8159,"Ġ#":8160,"Ġcanc":8161,"aei":8162,"aeter":8163,"emiae":8164,"Ġmit":8165,"Ġmaris":8166,"orus":8167,"Ġinj":8168,"Ġinl":8169,"iculo":8170,"urarum":8171,"Ġvendit":8172,"Ġiug":8173,"Ġfict":8174,"omach":8175,"aron":8176,"ĠprÃ¦":8177,"Ġadp":8178,"acumque":8179,"Ġutendum":8180,"Ġdeinceps":8181,"ĠEm":8182,"ĠSer":8183,"Ġdirect":8184,"Ġperag":8185,"Ġcoha":8186,"ĠQuapropter":8187,"iro":8188,"ĠNic":8189,"ĠNobis":8190,"isso":8191,"ĠHe":8192,"Ġpara":8193,"Ġparem":8194,"Ġparata":8195,"isco":8196,"Ġconsoc":8197,"Ġplag":8198,"âĢº":8199,"igit":8200,"Ġlibid":8201,"Ġbonos":8202,"Ġstir":8203,"Ġstrep":8204,"Ġminores":8205,"Ġminimum":8206,"Ġlegato":8207,"Ġaudiunt":8208,"Ġcausarum":8209,"iii":8210,"Ġdebeant":8211,"Ġvituper":8212,"Ġputandum":8213,"Ġistorum":8214,"Ġtabularum":8215,"Ġremot":8216,"Ġcapta":8217,"uxi":8218,"Ġdivinam":8219,"tores":8220,"Ġdecima":8221,"Ġscribas":8222,"Ġsequatur":8223,"Ġcarere":8224,"Ġpraeteritis":8225,"Ġcaelis":8226,"Ġrespons":8227,"inoesiae":8228,"Ġsummi":8229,"Ġsalvi":8230,"Ġnescimus":8231,"Ġquaerenda":8232,"ĠGraeco":8233,"Ġ61":8234,"ĠIsra":8235,"Ġdiligat":8236,"Ġdiligunt":8237,"Ġreiecta":8238,"ÐµÐº":8239,"Ġ99":8240,"Ġmensibus":8241,"Ġ150":8242,"Ġpuls":8243,"ĠQuisquam":8244,"Ġ149":8245,"Ġregnavit":8246,"Ġmetrop":8247,"Ġdeter":8248,"Ġpossessione":8249,"ĠRegione":8250,"Ġauctores":8251,"Ġphilosophorum":8252,"Ġinstitutum":8253,"Ġartes":8254,"Ġexempl":8255,"Ġexemplis":8256,"Ġcogitationes":8257,"Ġhumanis":8258,"Ġhumanitatis":8259,"Ġcanis":8260,"Ġdictis":8261,"Ġerrore":8262,"Ġsexto":8263,"Ġdifficillim":8264,"Ð¾Ð¹":8265,"ĠIllinoesiae":8266,"ĠIosiae":8267,"Ġmeliora":8268,"Ġlibertate":8269,"Ġequo":8270,"ĠAsia":8271,"ĠHispania":8272,"Ġsono":8273,"Ġcastris":8274,"Ġsyn":8275,"Ġturpius":8276,"Ġcreaturae":8277,"Ġprophetae":8278,"Ġcaptus":8279,"Ġsuscepit":8280,"Ġadventum":8281,"Ġbestiae":8282,"ĠDolor":8283,"Ġbeneficio":8284,"Ġotium":8285,"Ġquaeritis":8286,"Ġinfinita":8287,"Ġbreviter":8288,"Ġiuvent":8289,"ustrali":8290,"Omnia":8291,"ĠDemocr":8292,"Ġpisces":8293,"ĠSequanae":8294,"Ġspeciei":8295,"Ġauctore":8296,"ĠContra":8297,"ĠCiceronem":8298,"Ġpassus":8299,"ĠAustriae":8300,"ĠAssyri":8301,"ĠIuppiter":8302,"Ġcalidum":8303,"Entabul":8304,"Ġeunuchi":8305,"108836":8306,".ï¿½":8307,"62":8308,"==":8309,"Eccles":8310,"Nov":8311,"OV":8312,"be":8313,"hac":8314,"lt":8315,"yth":8316,"zi":8317,"Ã¥":8318,"ÏĨ":8319,"çĶ":8320,"Ġ>":8321,"Ĩgypt":8322,"eria":8323,"Ġsinc":8324,"ame":8325,"Ġnis":8326,"stem":8327,"Ġdere":8328,"emini":8329,"Ġmorem":8330,"Ġmenti":8331,"ick":8332,"urs":8333,"Ġtor":8334,"utiones":8335,"Ġfus":8336,"liothec":8337,"enis":8338,"Ġhist":8339,"ett":8340,"Ġprior":8341,"Ġaduers":8342,"Ġreus":8343,"Ġrest":8344,"Ġutraque":8345,"ĠAet":8346,"ĠCy":8347,"ĠDiv":8348,"Ġalibi":8349,"Ġfaciens":8350,"Ġpraepon":8351,"ratio":8352,"ensibus":8353,"Ġposui":8354,"uitu":8355,"Ġsculpt":8356,"aecenas":8357,"ĠMur":8358,"Ġ(...)":8359,"Ġviderentur":8360,"ĠLus":8361,"eruntque":8362,"ĠHae":8363,"ĠHomin":8364,"ĠHerm":8365,"Ġprou":8366,"Ġparatus":8367,"Ġincor":8368,"Ġincertum":8369,"Ġincommod":8370,"ĠTib":8371,"Ġquaerunt":8372,"ĠVt":8373,"Ġsoles":8374,"ĠBOX":8375,"Ġcontul":8376,"Ġfilias":8377,"Ġintersit":8378,"Ġrespectu":8379,"rii":8380,"iren":8381,"Ġallig":8382,"ĠUtinam":8383,"Ġdup":8384,"Ġdebit":8385,"Ġnullae":8386,"Ġvocati":8387,"Ġtrip":8388,"Ġremed":8389,"Ġremov":8390,"Ġmalus":8391,"Ġamicitiis":8392,"iciendis":8393,"Ġrecessit":8394,"Ġrecognosc":8395,"Ġmollis":8396,"Ġgrata":8397,"Ġconfite":8398,"Ġdeleta":8399,"Ġ58":8400,"Ġlaborem":8401,"Ġprovoc":8402,"Ġ77":8403,"illo":8404,"Ġsanctis":8405,"assem":8406,"Ġaccipitur":8407,"Ġignomin":8408,"Ġreliqui":8409,"Ġ90":8410,"actae":8411,"Ġ159":8412,"Ġsubstantiis":8413,"Ġpraedicta":8414,"Ġlatere":8415,"ãģ§":8416,"Ġtimore":8417,"Ġ140":8418,"Ġadiut":8419,"Ġultrici":8420,"Ġconsulatum":8421,"Ġphilosophia":8422,"ĠÃĨgypt":8423,"Ġmix":8424,"Ġdeput":8425,"Ġrecipiunt":8426,"ĠPraesent":8427,"Ġmagistrum":8428,"Ġiurisdict":8429,"ĠScio":8430,"Ġpropriis":8431,"Ġaccidentia":8432,"Ġlibertatis":8433,"Ġdefinit":8434,"Ġmarit":8435,"Ġconiunctio":8436,"yrr":8437,"Ġreligionis":8438,"Ġvidebantur":8439,"Ġsocietate":8440,"Ġquaesita":8441,"Ġgenerale":8442,"Ġjustitiam":8443,"ĠAngliae":8444,"Ġvendidit":8445,"Ġrelictum":8446,"Ġiucundius":8447,"ĠSimiliter":8448,"icesimo":8449,"Ġceciderunt":8450,"Ġturba":8451,"Ġventura":8452,"Ġtristitiam":8453,"Ġauctorem":8454,"Ġdifficultate":8455,"hopify":8456,"Primum":8457,"ĠCampania":8458,"Ġbrach":8459,"Ġmeridiem":8460,"Ġsagitt":8461,"ĠPyrenaeorum":8462,"ĠAtlanticorum":8463,"éĭ¼":8464,"Ġultricies":8465,"Acc":8466,"Iron":8467,"Mat":8468,"Sim":8469,"iur":8470,"public":8471,"´ì":8472,"Î¬":8473,"ÑĦ":8474,"atenus":8475,"Ġcerv":8476,"Ġmig":8477,"ictum":8478,"Ġvillam":8479,"Ġvires":8480,"uter":8481,"Ġful":8482,"esi":8483,"Ġherb":8484,"etiam":8485,"arias":8486,"idio":8487,"ibilem":8488,"Ġadnunt":8489,"ede":8490,"Ġren":8491,"Ġles":8492,"Ġluna":8493,"abitis":8494,"Ġutilia":8495,"eluia":8496,"Ġdea":8497,"Ġdeesse":8498,"Ġdeorsum":8499,"ĠIudic":8500,"ĠSatur":8501,"ĠScript":8502,"ĠCred":8503,"ĠCaus":8504,"omne":8505,"Ġdiceres":8506,"Quoniam":8507,"Ġ112":8508,"Ġbov":8509,"aturae":8510,"ĠNa":8511,"ĠMater":8512,"Ġipsas":8513,"Ġoppon":8514,"Ġcadit":8515,"Ġplerisque":8516,"erti":8517,"Ġaccedit":8518,"ĠBonum":8519,"Ġcommor":8520,"Ġlibere":8521,"incta":8522,"Ġdixerimus":8523,"rique":8524,"Ġnostras":8525,"abulum":8526,"Ġlocorum":8527,"ĠOri":8528,"Ġaltare":8529,"Ġsubic":8530,"Ġsublim":8531,"Ġdomic":8532,"Ġcommunes":8533,"Ġdeberet":8534,"Ġputatur":8535,"Ġurbana":8536,"Ġcapita":8537,"Ġapprob":8538,"itudini":8539,"Ġdeced":8540,"Ġactis":8541,"Ġinvas":8542,"Ġlitteram":8543,"Ġcredidit":8544,"Ġcrediderunt":8545,"Ġpraeterquam":8546,"Ġ2017":8547,"Ġ2018":8548,"Ġoptima":8549,"Ġprobari":8550,"Ġprincipiis":8551,"Ġ66":8552,"Ġdiligentiam":8553,"ĠChrys":8554,"Ġ85":8555,"Ġsapientis":8556,"Ġmutari":8557,"Ġhonoribus":8558,"Ġaedibus":8559,"Ð¸ÑĤ":8560,"posuit":8561,"ĠExc":8562,"Ġeman":8563,"Ġmillesimo":8564,"Ġaperta":8565,"ĠXI":8566,"Ġliberorum":8567,"Ġaequalis":8568,"Ġaedificia":8569,"Ġaedificavit":8570,"Ġadiuncta":8571,"cripta":8572,"Ġpraecipio":8573,"Ġefficiunt":8574,"Ġtraditum":8575,"Ġconsulem":8576,"Ġsciret":8577,"Ġphilosophis":8578,"Ġaeternitas":8579,"Ġspirit":8580,"Ġrefertur":8581,"Ġcalum":8582,"Ġhumanitate":8583,"Ġdiluv":8584,"Ġhostem":8585,"Ġreperiuntur":8586,"Ġproximi":8587,"Ġlibertas":8588,"Ġ1947":8589,"Ġhabitare":8590,"Ġsententias":8591,"ĠHierem":8592,"Ġhereditatem":8593,"Ġfabulae":8594,"Ġtutel":8595,"Ġlaoreet":8596,"Ġtemere":8597,"Ġargumenta":8598,"Ġcaptiv":8599,"Ġcondicio":8600,"Ġpraesidium":8601,"ĠCorp":8602,"Ġfrequent":8603,"Ġpertineat":8604,"Ġascendit":8605,"oks":8606,"ĠSalom":8607,"Ġconcessa":8608,"Ġoblitus":8609,"Ġvocabula":8610,"itteret":8611,"Ġcotidi":8612,"Ġpaenitentiam":8613,"Francogallice":8614,"encia":8615,"ĠSaxoniae":8616,"Ġilluminat":8617,"ĠMoyses":8618,"ĠMolestiae":8619,"Ġnormam":8620,"Ġsacrific":8621,"Ġadolesc":8622,"\";":8623,"';":8624,"1000":8625,"Ac":8626,"DP":8627,"HX":8628,"Idem":8629,"Sit":8630,"XII":8631,"bis":8632,"div":8633,"eamus":8634,"efac":8635,"mag":8636,"riae":8637,"sh":8638,"vo":8639,"vimus":8640,"ww":8641,"Ã¹":8642,"ÄĻ":8643,"Ùĩ":8644,"ĠÑĤ":8645,"Ġequis":8646,"itet":8647,"Ġpus":8648,"Ġpanis":8649,"atque":8650,"onias":8651,"Ġnox":8652,"Ġnau":8653,"stor":8654,"Ġinsequ":8655,"Ġteg":8656,"Ġianu":8657,"rex":8658,"Ġfov":8659,"Ġfate":8660,"oma":8661,"imas":8662,"Ġhil":8663,"uld":8664,"ulare":8665,"Ġprist":8666,"Ġprav":8667,"udum":8668,"elunc":8669,"ott":8670,"Ġdestit":8671,"agog":8672,"ĠCas":8673,"ĠCain":8674,"ĠDrus":8675,"estatis":8676,"Ġaliunde":8677,"Ġalioquin":8678,"Qua":8679,"Ġ115":8680,"ĠPu":8681,"ĠPac":8682,"ĠPoss":8683,"Ġposuerunt":8684,"Ġsciunt":8685,"inavit":8686,"Ġuest":8687,"ĠLitter":8688,"ĠHistor":8689,"Ġamari":8690,"ĠRob":8691,"ĠRect":8692,"Ġinclin":8693,"Ġsoleo":8694,".....":8695,"Ġaccum":8696,"Ġresc":8697,"Ġregina":8698,"Ġfecerim":8699,"Ġvirgo":8700,"Ġ1919":8701,"ĠOI":8702,"ĠOl":8703,"Ġspelunc":8704,"Ġmultitudine":8705,"Ġaudisset":8706,"Ġobv":8707,"Ġmagnitudinis":8708,"Ġcuiuslibet":8709,"Ġnaturaliter":8710,"Ġdebitum":8711,"Ġagas":8712,"Ġvocum":8713,"Ġvocas":8714,"Ġpecora":8715,"Ġcursum":8716,"Ġdivitiarum":8717,"ogle":8718,"Ġdecret":8719,"Ġdeclina":8720,"Ġservis":8721,"Ġelabor":8722,"Ġnotitiam":8723,"Ġ55":8724,"Ġcredibile":8725,"Ġdefendere":8726,"Ġoptimi":8727,"Ġpraefectura":8728,"Ġmolestus":8729,"Ġprobata":8730,"Ġinveniri":8731,"Ġredire":8732,"Ġvestro":8733,"Ġ76":8734,"ĠArc":8735,"ĠGraecus":8736,"Ġtestes":8737,"Ġcognosci":8738,"Ġappellavit":8739,"Ġundev":8740,"Ġconiur":8741,"Ġ94":8742,"Ġstatua":8743,"Ġpraedicatum":8744,"ĠBrute":8745,"ĠXII":8746,"Ġmoveatur":8747,"Ġ169":8748,"Ġ109":8749,"Ġveterum":8750,"Ġhabeatis":8751,"Ġinstituta":8752,"Ġnoluit":8753,"Ġpersonarum":8754,"Ġbibit":8755,"Ġclara":8756,"Ġangeli":8757,"Ġsexaginta":8758,"Ġcopias":8759,"Ð¾Ð´":8760,"Ġ</":8761,"ronae":8762,"Ġhabitant":8763,"rens":8764,"Ġinterrogavit":8765,"Ġvehicula":8766,"Ġdamnum":8767,"Ġfabulam":8768,"urrit":8769,"Ġpervenire":8770,"Ġtuto":8771,"Ġscholae":8772,"lack":8773,"Ġarcam":8774,"Ġperpetuo":8775,"ĠNullam":8776,"Ġpostulat":8777,"Ġitemque":8778,"ÐµÐ¼":8779,"Ġcantus":8780,"ĠCalv":8781,"Ġapostolici":8782,"ĠAfrica":8783,"Ġsomno":8784,"Ġindignum":8785,"Ġdecretum":8786,"Ġpeculio":8787,"Ã«l":8788,"Ġdividitur":8789,"ĠLingua":8790,"Ġoctavo":8791,"Ġirritum":8792,"Ġpignus":8793,"Ġmercedem":8794,"ĠArduen":8795,"cuiusque":8796,"ĠIovis":8797,"Ġconsulibus":8798,"Ġrelatiue":8799,"ĠBerolini":8800,"ĠIsraÃ«l":8801,".;":8802,"Ki":8803,"Sp":8804,"Variant":8805,"cre":8806,"cid":8807,"ey":8808,"hic":8809,"ieri":8810,"ienda":8811,"lent":8812,"piam":8813,"pectus":8814,"Ã»":8815,"ç´":8816,"Ġè":8817,"umenta":8818,"erio":8819,"erra":8820,"Ġaem":8821,"Ġaustrali":8822,"aeum":8823,"Ġdarem":8824,"emper":8825,"Ġmur":8826,"Ġmasc":8827,"Ġmach":8828,"uria":8829,"Ġvali":8830,"Ġvaria":8831,"Ġvariant":8832,"Ġtun":8833,"Ġiri":8834,"Ġfertur":8835,"Ġfront":8836,"Ġhe":8837,"arat":8838,"Ġaditus":8839,"edo":8840,"Ġliter":8841,"Ġlunae":8842,"Ġexor":8843,"Ġexire":8844,"ĠEd":8845,"ĠAx":8846,"ĠIdeo":8847,"ĠSov":8848,"agor":8849,"ĠDa":8850,"Ġdicantur":8851,"Ġdicerent":8852,"Quare":8853,"Ġfacerent":8854,"Ġpraestit":8855,"ĠPtol":8856,"peret":8857,"Ġgymn":8858,"Ġcoeperit":8859,"Ġhabenda":8860,"Ġtuarum":8861,"ĠNeg":8862,"Ġsciendum":8863,"ucta":8864,"Ġpotu":8865,"issi":8866,"Ġabduc":8867,"Ġabstin":8868,"Ġrum":8869,"Ġrursum":8870,"Ġidest":8871,"Ġnequam":8872,"ĠRei":8873,"ĠTol":8874,"Ġnihilum":8875,"Ġsolam":8876,"ĠGer":8877,"ĠBar":8878,"igi":8879,"ientur":8880,"Ġlegat":8881,"Ġlegionibus":8882,"Ġspatio":8883,"Ġincolunt":8884,"Ġpostulo":8885,"Ġobnox":8886,"Ġimpud":8887,"ades":8888,"Ġgenerum":8889,"Ġagis":8890,"Ġacies":8891,"Ġnuncup":8892,"pexit":8893,"Ġcapiat":8894,"ernum":8895,"Ġcivitatum":8896,"Ġdecet":8897,"Ġasinum":8898,"Ġcomprob":8899,"Ġservire":8900,"Ġconcub":8901,"Ġrecept":8902,"Ġvivific":8903,"Ġsequens":8904,"Ġcaritatem":8905,"Ġcardin":8906,"Ġinscript":8907,"Ġtenuit":8908,"Ġcredentes":8909,"Ġoppress":8910,"Ġexclud":8911,"ance":8912,"Ġprobatum":8913,"Ġprobationem":8914,"Ð°ÑĢ":8915,"Ġ78":8916,"rehensum":8917,"Ġ65":8918,"Ġegredi":8919,"Ġtranqu":8920,"Ġnecessitatem":8921,"Ġmediae":8922,"Ġpatron":8923,"ĠExemp":8924,"Ġaccusare":8925,"ifex":8926,"Ġtransg":8927,"Ġostendam":8928,"Ġtimor":8929,"ideas":8930,"Ġaedificata":8931,"Ġadiun":8932,"Ġepiscopum":8933,"Ã©n":8934,"Ġdetest":8935,"Ġpraecipua":8936,"Ġvetus":8937,"Ġdumtax":8938,"Ġartibus":8939,"Ġfinita":8940,"Ġbreve":8941,"Ġdiuers":8942,"Ġindicat":8943,"ĠIudaeis":8944,"Ġmittam":8945,"ĠAliquid":8946,"Ġpraedia":8947,"Ġoffens":8948,"ĠAugustinus":8949,"Ġcompositum":8950,"Ġreligionem":8951,"Ġarcu":8952,"Î¿Î½":8953,"Ġcrimine":8954,"ocraticae":8955,"ĠDolab":8956,"Ġbenedixit":8957,"Ġdubitamus":8958,"Ġtollitur":8959,"Ġindigentia":8960,"Ġperspicuum":8961,"ĠColosse":8962,"Ġurbi":8963,"Ġretinere":8964,"Ġpaenitet":8965,"ĠMulti":8966,"Ġabundantia":8967,"Ġcatholica":8968,"Ġfabric":8969,"Ġpoetae":8970,"Ġuerba":8971,"Ġmagistratibus":8972,"Ġpercussit":8973,"Ġbenevolentiae":8974,"ĠAemilia":8975,"Ġoriginem":8976,"ĠPharao":8977,"Ġsigno":8978,"ĠCalifor":8979,"Ġtortor":8980,"Ġincorrupt":8981,"Ġdumtaxat":8982,"72":8983,"?Â»":8984,"AP":8985,"Cons":8986,"ES":8987,"La":8988,"Reg":8989,"Sum":8990,"Tu":8991,"eae":8992,"ietur":8993,"rari":8994,"veg":8995,"ysi":8996,"{\"":8997,"Ã¬":8998,"Äĥ":8999,"Î³":9000,"Î´":9001,"ĠÑĢ":9002,"Ġpel":9003,"Ġpub":9004,"Ġpress":9005,"ativa":9006,"Ġcarum":9007,"Ġcith":9008,"Ġdot":9009,"org":9010,"Ġvt":9011,"Ġtib":9012,"Ġtal":9013,"Ġtag":9014,"Ġhujus":9015,"odus":9016,"ids":9017,"osi":9018,"Ġnono":9019,"Ġadl":9020,"Ġadest":9021,"elus":9022,"Ġdestin":9023,"Ġconatus":9024,"ĠSine":9025,"ages":9026,"Ġ117":9027,"Ġbut":9028,"istit":9029,"ĠPod":9030,"ivoc":9031,"ucius":9032,"uctum":9033,"Ġseipsum":9034,"Ġerimus":9035,"ĠLoc":9036,"Ġparlam":9037,"Ġincho":9038,"ĠVoc":9039,"Ġtemplo":9040,"Ġmodest":9041,"igh":9042,"ineant":9043,"Ġinterfectus":9044,"Ġpatrum":9045,"Ġpatef":9046,"Ġanimos":9047,"Ġveneris":9048,"Ġvenientem":9049,"issimas":9050,"Ġloquens":9051,"Ġ1920":9052,"Ġ1933":9053,"Ġoculo":9054,"Ġmultus":9055,"Ġpostremo":9056,"Ġscripto":9057,"Ġdui":9058,"Ġagg":9059,"Ġagenda":9060,"ĠAnsel":9061,"Ġacerb":9062,"Ġtabulam":9063,"Ġmalitiam":9064,"Ġecclesias":9065,"Ġrepper":9066,"Ġassign":9067,"Ġpuerit":9068,"Ġcognitum":9069,"ĠFrancicae":9070,"Ġconcept":9071,"Ġrecuper":9072,"Ġgratul":9073,"ĠRomaniae":9074,"Ġcorpori":9075,"Ġconfec":9076,"rema":9077,"ĠQuodsi":9078,"ĠChar":9079,"iosae":9080,"Ġvivi":9081,"Ġvivat":9082,"Ġnotandum":9083,"Ġclari":9084,"Ġteneri":9085,"Ġplacitum":9086,"Ġpersuad":9087,"Ġlaboris":9088,"Ġdefl":9089,"Ġmorta":9090,"Ġnovo":9091,"Ġnovus":9092,"Ġvaleas":9093,"Ġinvenimus":9094,"Ġinveniat":9095,"Ġfrug":9096,"ĠArmen":9097,"Ġnesci":9098,"Ġducem":9099,"Ġiuss":9100,"Ġplurimis":9101,"Ġcogito":9102,"Ġreliquos":9103,"ĠAdhuc":9104,"ĠUtrum":9105,"Ġaquis":9106,"Ġaperte":9107,"Ġpeccatorum":9108,"Ġcontrist":9109,"ãģ«":9110,"Ġsignificare":9111,"Ġponam":9112,"Ġaequales":9113,"Ġdiffin":9114,"Ġdiffert":9115,"Ġevac":9116,"ardus":9117,"Ġinstitutus":9118,"Ġinstitutis":9119,"ĠEstne":9120,"ĠAnte":9121,"Ġcogitatur":9122,"Ġprompt":9123,"Ġpromotus":9124,"Ġerrorem":9125,"Ġseptimo":9126,"Ġrecipit":9127,"Ġreperire":9128,"ĠPetro":9129,"Ġuideri":9130,"Ġdisputare":9131,"atuor":9132,"Ġludum":9133,"Ġambulare":9134,"Ġmerces":9135,"Ġignorat":9136,"Ġversantur":9137,"Ġfabula":9138,"Ġfabulas":9139,"Ġmeruit":9140,"Ġfestum":9141,"ĠEnim":9142,"Ġsufficere":9143,"Ġflumine":9144,"Ġfluminis":9145,"Ġuniuscuiusque":9146,"ĠEuropa":9147,"ĠPersarum":9148,"Ġdecreta":9149,"Ġtitulum":9150,"Ġgubernator":9151,"Marcus":9152,"aphat":9153,"aphys":9154,"ĠIncolae":9155,"ĠĠĠĠĠĠĠĠĠĠĠĠĠĠĠĠĠĠĠĠĠĠĠĠĠĠĠĠĠĠĠĠĠĠĠĠĠĠĠĠĠĠĠĠĠĠĠĠĠĠĠĠĠĠĠĠĠĠĠĠĠĠĠĠ":9156,"ĠSemper":9157,"Ġdextera":9158,"Ġoeconomiae":9159,"ĠLatinos":9160,"Ġomittam":9161,"\"\\\"\\\"\\\"\\\"\\\"\\\"\\\"\\\"\\\"\\\"\\\"\\\"\\\"\\\"\\\"\\\"\\\"\\\"\\\"\\\"\\\"\\\"\\\"\\\"\\\"\\\"\\\"\\\"\\\"\\\"\\\"\\\"\\\"\\\"\\\"\\\"\\\"\\\"\\\"\\\"\\\"\\\"\\\"\\\"\\\"\\\"\\\"\\\"\\\"\\\"\\\"\\\"\\\"\\\"\\\"\\\"\\\"\\\"\\\"\\\"\\\"\\\"\\\"\\":9162,"Ġdilexit":9163,"ĠBeatus":9164,"Ġdefunctus":9165,"ĠCirca":9166,"Dixitque":9167,"ĠSociet":9168,"ĠJoseph":9169,"Apud":9170,"compare":9171,"Ġmassa":9172,"cemodi":9173,"ĠSoviet":9174,"74":9175,"76":9176,"?âĢĿ":9177,"CL":9178,"Eodem":9179,"IO":9180,"IS":9181,"Mult":9182,"Ne":9183,"Om":9184,"cor":9185,"iol":9186,"mer":9187,"nihil":9188,"pg":9189,"ricae":9190,"set":9191,"tamen":9192,"ual":9193,"vide":9194,"ÅĻ":9195,"áĥ":9196,"ĠØ":9197,"ĠÃ©":9198,"Ġeuen":9199,"erentia":9200,"Ġaf":9201,"Ġast":9202,"itania":9203,"usce":9204,"Ġpur":9205,"Ġnatu":9206,"Ġdaret":9207,"Ġtan":9208,"Ġtattoos":9209,"ree":9210,"rexit":9211,"Ġfatum":9212,"Ġfiet":9213,"Ġfoll":9214,"etae":9215,"any":9216,"ecimo":9217,"Ġrenov":9218,"Ġreiciendis":9219,"Ġliturg":9220,"Ġutatur":9221,"Ġutrique":9222,"ĠEam":9223,"ĠEorum":9224,"ĠSull":9225,"ĠSara":9226,"ĠCla":9227,"ĠDico":9228,"esti":9229,"ĠPlin":9230,"ĠPenn":9231,"Ġgentem":9232,"Ġhabitura":9233,"ĠMath":9234,"Ġsei":9235,"ĠHanc":9236,"ĠHÃ¦c":9237,"Ġnequ":9238,"Ġinclus":9239,"Ġaliquet":9240,"ĠTit":9241,"ĠTest":9242,"ĠVnde":9243,"Ġmay":9244,"Ġmauris":9245,"Ġsolitum":9246,"Ġsumitur":9247,"erationem":9248,"Ġbonitatem":9249,"roque":9250,"Ġlegunt":9251,"Ġvenias":9252,"Ġlocup":9253,"Ġloquendo":9254,"Ġspatium":9255,"ĠIndic":9256,"Ġalleg":9257,"Ġusurp":9258,"Ġsubter":9259,"Ġaudeo":9260,"Ġobj":9261,"Ġobsequ":9262,"Ġscriptus":9263,"Ġnullis":9264,"Ġvitiis":9265,"Ġcurare":9266,"Ġsuperiorem":9267,"Ġsuperioribus":9268,"uique":9269,"Ġcivitati":9270,"ĠĠĠĠĠ":9271,"Ġdecip":9272,"Ġdeceat":9273,"Ġdedisse":9274,"Ġmortua":9275,"Ġdeser":9276,"ĠFranciscus":9277,"Ġsentiunt":9278,"Ġconcilium":9279,"Ġrecens":9280,"Ġrecepit":9281,"Ġscribitur":9282,"Ġscribendum":9283,"Ġinventus":9284,"ioso":9285,"Ġiusti":9286,"Ġviventem":9287,"iensi":9288,"Ġfiebat":9289,"Ġmolestie":9290,"Ġcertiorem":9291,"Ġvester":9292,"Ġ73":9293,"Ġquaerendum":9294,"ĠGraeciam":9295,"Ġ62":9296,"Ġaetatibus":9297,"Ġhonores":9298,"Ġtabell":9299,"ĠMartin":9300,"Ġaedes":9301,"Ġemere":9302,"Ġfactio":9303,"ĠXVI":9304,"Ġdubitatio":9305,"ĠAlt":9306,"Ġoppidi":9307,"Ġdetrah":9308,"Ġpacis":9309,"Ġdissent":9310,"Ġalicubi":9311,"Ġnegoti":9312,"Ġlectores":9313,"Ġexistimes":9314,"Ġonline":9315,"ĠIudaeorum":9316,"Ð°Ðº":9317,"Ġpraedest":9318,"Ġdefinitionem":9319,"Ġdefinitione":9320,"Ġaccepisti":9321,"Ġ1991":9322,"Ġpedem":9323,"Ġutilitas":9324,"Ġfoeder":9325,"ÐºÐ°":9326,"ÐºÐ¸":9327,"Ġ1974":9328,"Ġretro":9329,"quaeque":9330,"Ġdiap":9331,"ĠAgrip":9332,"ÐµÐ¹":9333,"Ġprosper":9334,"ĠPompeio":9335,"ĠSalv":9336,"Ġfacultas":9337,"ĠMinore":9338,"Ġoperatio":9339,"ippus":9340,"Ġmontem":9341,"Ġdeliciis":9342,"arnationis":9343,"Ã³n":9344,"Ġitinera":9345,"ĠTerra":9346,"Ġcongregati":9347,"Ġpraeclara":9348,"insula":9349,"Ġanimadverti":9350,"Ġadoptionem":9351,"ĠQuotquot":9352,"Ġausus":9353,"ĠJuda":9354,"Ġmaturitatem":9355,"Ġpeius":9356,"Ġscandaliz":9357,"ailable":9358,"Ġpraediorum":9359,"ĠCantu":9360,"Ġrediit":9361,"ĠLondinii":9362,"Ġsabb":9363,"silv":9364,"Ġstrepitum":9365,"OVE":9366,"//":9367,"Es":9368,"Ip":9369,"Pi":9370,"Prop":9371,"XI":9372,"eis":9373,"ger":9374,"gen":9375,"liter":9376,"nas":9377,"port":9378,"ws":9379,"}}":9380,"Ïī":9381,"ÙĨ":9382,"ÛĮ":9383,"ä¹":9384,"å¤":9385,"åį":9386,"ĠÑĥ":9387,"itionibus":9388,"usae":9389,"inet":9390,"inar":9391,"initatis":9392,"isa":9393,"atiae":9394,"Ġnor":9395,"Ġmac":9396,"Ġinha":9397,"iciae":9398,"Ġtz":9399,"Ġiumentis":9400,"Ġfen":9401,"Ġfast":9402,"enna":9403,"omb":9404,"anensi":9405,"ules":9406,"Ġpra":9407,"ols":9408,"uni":9409,"ederunt":9410,"iamur":9411,"ionali":9412,"Ġquaesi":9413,"Ġsuave":9414,"alitate":9415,"ĠAll":9416,"ĠIb":9417,"ĠIon":9418,"ĠCot":9419,"ĠCong":9420,"Ġmeque":9421,"Ġdicentem":9422,"Ġdicebatur":9423,"Ġperuen":9424,"Ġfacili":9425,"Ġpraedit":9426,"rationem":9427,"ĠPag":9428,"Ġsedere":9429,"Ġsedens":9430,"Ġgent":9431,"Ġhabebam":9432,"Ġscitur":9433,"Ġpotent":9434,"Ġpotuisset":9435,"Ġapostoli":9436,"Ġsever":9437,"andas":9438,"Ġviderat":9439,"Ġrip":9440,"Ġoptin":9441,"Ġerrare":9442,"ĠHam":9443,"Ġcaerim":9444,"ĠRosc":9445,"ĠFin":9446,"Ġvolum":9447,"Ġvolueris":9448,"ĠTrans":9449,"Ġconsuli":9450,"Ġimo":9451,"Ġnihilominus":9452,"essitatibus":9453,"ĠGali":9454,"ĠBulg":9455,"iginti":9456,"Ġfueris":9457,"Ġfuissent":9458,"Ġorci":9459,"Ġpatrim":9460,"Ġregia":9461,"Ġregioni":9462,"Ġminore":9463,"Ġspectare":9464,"eatrum":9465,"Ġvoluptatis":9466,"Ġnosc":9467,"Ġduplex":9468,"Ġagatur":9469,"Ġpraesidem":9470,"Ġputabat":9471,"Ġcursu":9472,"Ġamica":9473,"Ġmaximae":9474,"Ġsuade":9475,"Ġconcepit":9476,"Ġfortuit":9477,"ietis":9478,"Ġiuste":9479,"Ġelecta":9480,"Ġpossitis":9481,"ĠAmor":9482,"Ġcredidi":9483,"Ġeritis":9484,"Ġexclus":9485,"Ġvalent":9486,"Ġnegant":9487,"Ġprobandum":9488,"Ġinvenies":9489,"Ġprincipem":9490,"Ġvestrae":9491,"Ġ71":9492,"Ġjus":9493,"Ġducit":9494,"Ġundique":9495,"Ġnecessitatis":9496,"Ġgradum":9497,"Ġabsente":9498,"Ġintellegatur":9499,"Ġ82":9500,"Ġvicit":9501,"Ġsapientes":9502,"ĠJoh":9503,"Ġhumano":9504,"Ð¸Ñı":9505,"Ġlaudatur":9506,"Ġdiscipl":9507,"Ġdiscipulorum":9508,"ĠExp":9509,"Ġtantam":9510,"Ġoportebat":9511,"Ġmilitiae":9512,"Ġfactam":9513,"Ġsacr":9514,"ĠBrutum":9515,"ĠpoÃ«":9516,"Ġadminister":9517,"Ġimmedi":9518,"ĠXV":9519,"Ġoperari":9520,"Ġostensum":9521,"Ġsermonibus":9522,"ĠIoann":9523,"Ġultrices":9524,"Ġnocere":9525,"Ġdeterr":9526,"Ġflam":9527,"Ġpraecipuum":9528,"Ġaddere":9529,"Ġtribuit":9530,"ĠWest":9531,"Ġevan":9532,"Ġedere":9533,"Ġliceret":9534,"Ġfinit":9535,"Ġprofecti":9536,"Ġlaetus":9537,"Ġdifficilius":9538,"ĠPostum":9539,"robrium":9540,"Ġsperare":9541,"ĠPetri":9542,"Ġequitum":9543,"Ġnuntios":9544,"Ġnavis":9545,"Ġpuellam":9546,"ĠHieros":9547,"Ġadscrib":9548,"Ġdivisit":9549,"ĠPaulum":9550,"ĠIlli":9551,"Ġreferri":9552,"ĠPars":9553,"ennio":9554,"ennium":9555,"Ġargumento":9556,"Ġadvoc":9557,"Ġecclesiastica":9558,"Ġangelo":9559,"Ġsacerdos":9560,"Ġpoenae":9561,"ĠPompeium":9562,"Ġsepulc":9563,"Ġpossibili":9564,"Ġproficiscitur":9565,"Ġproportion":9566,"Ġinterficere":9567,"Ð¸Ð¹":9568,"Ġaegr":9569,"ĠAccius":9570,"Ġconscientia":9571,"Omnis":9572,"Ġgladio":9573,"Ġiuvenis":9574,"Ġiuvenes":9575,"ĠRussiae":9576,"ĠDemocraticae":9577,"Ġelementum":9578,"Ġbaptis":9579,"ĠAlexander":9580,"ĠItalicus":9581,"Ġreversi":9582,"Ġsenectute":9583,"Ġvariet":9584,"Ġintellexi":9585,"ĠTuscul":9586,"ĠBorussiae":9587,"ĠNescio":9588,"Ġ$(":9589,"ĠPublicae":9590,"products":9591,"ĠMichiganiae":9592,"ĠGoogle":9593,"ĠFrider":9594,"ĠAssyriorum":9595,"Ġaccumsan":9596,"!\"":9597,"83":9598,"85":9599,"Domine":9600,"En":9601,"Fac":9602,"Shop":9603,"Unde":9604,"dio":9605,"decim":9606,"fr":9607,"fin":9608,"files":9609,"ka":9610,"lit":9611,"pend":9612,"pote":9613,"tione":9614,"Ð¹":9615,"Ġà´":9616,"Ġsid":9617,"itius":9618,"iniae":9619,"Ġpudic":9620,"atrix":9621,"onc":9622,"Ġnil":9623,"Ġtav":9624,"Ġtri":9625,"Ġfo":9626,"arae":9627,"idisse":9628,"Ġnong":9629,"unum":9630,"Ġlog":9631,"abilius":9632,"Ġesur":9633,"erea":9634,"otr":9635,"Ġsug":9636,"Ġconfect":9637,"ĠAaron":9638,"ĠIan":9639,"ĠSe":9640,"ĠSm":9641,"ĠCle":9642,"ĠCupid":9643,"ĠDo":9644,"ĠDu":9645,"Ġ113":9646,"ector":9647,"Ġsiquidem":9648,"Ġhabentem":9649,"undae":9650,"ĠMosc":9651,"Ġabl":9652,"Ġuobis":9653,"Ġoperum":9654,"ĠHac":9655,"ĠFor":9656,"Ġparatum":9657,"iscons":9658,"Ġvoles":9659,"ĠTam":9660,"Ġsolem":9661,"Ġessendi":9662,"Ġpropin":9663,"ĠBur":9664,"ĠBeth":9665,"Ġcommin":9666,"ovie":9667,"Ġsumatur":9668,"iger":9669,"eratio":9670,"Ġrescrib":9671,"episti":9672,"ĠEtsi":9673,"Ġdixeris":9674,"Ġdixissent":9675,"Ġminoris":9676,"Ġvenisse":9677,"Ġveniens":9678,"ĠOtt":9679,"Ġsubm":9680,"ifica":9681,"Ġobst":9682,"Ġoboed":9683,"Ġdomui":9684,"Ġimput":9685,"adi":9686,"Ġagris":9687,"Ġpraesentes":9688,"Ġpraescrib":9689,"Ġtristis":9690,"Ġiudico":9691,"Ġcivilis":9692,"Ġdivulg":9693,"Ġdiscessit":9694,"Ġreplet":9695,"Ġpueris":9696,"rimi":9697,"Ġconcili":9698,"ircum":9699,"Ġvivo":9700,"Ġvivet":9701,"Ġinflam":9702,"Ġfidelium":9703,"ĠAmen":9704,"Ġmorbo":9705,"Ġhuiuscemodi":9706,"Ġproverb":9707,"Ġexclam":9708,"Ġmoleste":9709,"Ġprobitatis":9710,"Ġcirculi":9711,"Ġinvenio":9712,"ĠLatini":9713,"eremur":9714,"Ġfrui":9715,"Ġcontrah":9716,"Ġ74":9717,"Ġnesciebam":9718,"Ġ64":9719,"Ġducta":9720,"liqua":9721,"ansiae":9722,"Ġextrinsecus":9723,"Ġtestific":9724,"olium":9725,"Ġsatisf":9726,"ĠJacob":9727,"Ġappellat":9728,"Ġappellamus":9729,"Ð¸Ð½":9730,"Ð¸Ð»":9731,"Ġpatronus":9732,"Ġwill":9733,"Ġ97":9734,"Ġlaudes":9735,"ĠAdd":9736,"Ġprovinciarum":9737,"Ġ170":9738,"Ġfacienda":9739,"Ġmuliere":9740,"Ġspecial":9741,"Ġaedificationem":9742,"Ġaedificavi":9743,"ĠGermanici":9744,"Ġsinguli":9745,"Ġantiquorum":9746,"Ġconduc":9747,"Ġquick":9748,"Ġconsule":9749,"Ġgravida":9750,"Ġaudieris":9751,"Ġtertiam":9752,"ĠAntonium":9753,"Ġcogitationem":9754,"Ġgaudere":9755,"Ġdepend":9756,"Ġdictu":9757,"Ġrecipiat":9758,"Ġdelectari":9759,"Ġeffig":9760,"Ġnuntium":9761,"Ġculpam":9762,"ĠMagister":9763,"Ġ1990":9764,"Ġnarrare":9765,"Exo":9766,"Ġiucunda":9767,"Ġdivisionem":9768,"Ġadflic":9769,"Ġquarta":9770,"Ġtutela":9771,"Ġarca":9772,"Ġargument":9773,"Ġangelum":9774,"Ġdesiderium":9775,"htt":9776,"Ġconsolationem":9777,"Ġotio":9778,"Ġsepulch":9779,"Î¹Îº":9780,"ĠLevi":9781,"Ġsacerdotes":9782,"Ġsumptus":9783,"Ġintegr":9784,"Ġintegrum":9785,"Ġoccultum":9786,"Ġagnoscere":9787,"Ġubicumque":9788,"Ġiubet":9789,"Ġproprietas":9790,"Ġfeugiat":9791,"ĠCiceronis":9792,"ĠDucatus":9793,"Ġintuens":9794,"Ġconsummationem":9795,"Ġdilex":9796,"Ġfluvius":9797,"ĠPapa":9798,"ÙĪØ":9799,"Ġsterilis":9800,"Ġpulcherrima":9801,"Ġcandid":9802,"Ġquinquaginta":9803,"ĠEboraci":9804,"Ġtoler":9805,"quebatur":9806,"Luke":9807,"Lingua":9808,"ĠAdminister":9809,"Ġgeomet":9810,"ĠNorveg":9811,"Ġxxx":9812,"Ġnisl":9813,"ĠAxonae":9814,"81":9815,"Comp":9816,"ED":9817,"Mirum":9818,"Ps":9819,"Plac":9820,"Vest":9821,"cd":9822,"get":9823,"jpg":9824,"lr":9825,"mium":9826,"not":9827,"runt":9828,"shopify":9829,"ts":9830,"tur":9831,"uel":9832,"wn":9833,"Ã½":9834,"å±":9835,"å¹":9836,"åĲ":9837,"quoniam":9838,"Ġais":9839,"Ġauri":9840,"Ġquatuor":9841,"Ġpi":9842,"atui":9843,"amento":9844,"Ġdanda":9845,"emet":9846,"Ġinept":9847,"ictor":9848,"Ġtt":9849,"Ġtog":9850,"Ġfini":9851,"uls":9852,"iab":9853,"uns":9854,"unus":9855,"Ġadfer":9856,"Ġrequiesc":9857,"elph":9858,"iloqu":9859,"Ġdelib":9860,"Ġdeven":9861,"ĠEg":9862,"ĠIX":9863,"ĠSina":9864,"ago":9865,"ĠCro":9866,"ĠDam":9867,"Ġdicto":9868,"endorum":9869,"Quomodo":9870,"Ġ110":9871,"Ġfacin":9872,"Ġprael":9873,"Ġpraedam":9874,"Ġbac":9875,"ĠPub":9876,"ĠPyrr":9877,"Ġcoop":9878,"Ġcoeg":9879,"ĠQuantum":9880,"ĠNas":9881,"ĠNunquam":9882,"egoria":9883,"eburg":9884,"Ġueritas":9885,"Ġrutrum":9886,"ĠLu":9887,"ĠLiv":9888,"ĠLaud":9889,"ĠLex":9890,"ĠLXX":9891,"ĠHor":9892,"Ġamantur":9893,"Ġamph":9894,"ultor":9895,"ĠRed":9896,"Ġatqui":9897,"Ġparvis":9898,"Ġvolat":9899,"ĠTerr":9900,"ustum":9901,"ĠGr":9902,"ĠGreg":9903,"Ġorg":9904,"Ġorare":9905,"Ġoratore":9906,"Ġsecur":9907,"erii":9908,"Ġstomach":9909,"riet":9910,"Ġcreatum":9911,"veniet":9912,"Ġpostr":9913,"Ġimpot":9914,"Ġimpend":9915,"Ġagens":9916,"ĠvitÃ¦":9917,"Ġtabulq":9918,"Ġtabulw":9919,"Ġtabulz":9920,"Ġtabulator":9921,"Ġsuperior":9922,"Ġapprehend":9923,"ogis":9924,"Ġ1813":9925,"Ġaspectu":9926,"Ġrecess":9927,"Ġcorporum":9928,"Ġconform":9929,"Ġpublici":9930,"Ġpublicis":9931,"Ġnotam":9932,"Ġclav":9933,"heum":9934,"Ġlinguarum":9935,"Ġexcit":9936,"Ġinvenerit":9937,"Ġreditus":9938,"1082":9939,"Ġimperfect":9940,"Ġgravi":9941,"Ġintellegam":9942,"Ġ84":9943,"Ġexercitatione":9944,"Ġvicesimo":9945,"Ġtabh":9946,"Ġtabj":9947,"Ġtabull":9948,"Ġtabup":9949,"Ġtablu":9950,"Ġhumanum":9951,"Ġcognoscimus":9952,"Ġmedicam":9953,"Ġindulg":9954,"Ġreliquisti":9955,"Ġstudiosus":9956,"1450":9957,"Ġconiectura":9958,"Ġoporteat":9959,"Ġsacrae":9960,"Ġaquil":9961,"ĠBruto":9962,"Ġapertum":9963,"Ġaperire":9964,"Ġaperti":9965,"Ġliberam":9966,"Ġliberius":9967,"Ġsocium":9968,"Ġoperae":9969,"ĠUnionis":9970,"ĠGermani":9971,"Ġmoveat":9972,"angel":9973,"Ġfluct":9974,"Ġanimalibus":9975,"Ġperfectus":9976,"Ġevident":9977,"Ġaudiebamus":9978,"Ġfamiliam":9979,"Ġfamiliaris":9980,"Ġsecundus":9981,"Ġbibam":9982,"Ġpraestat":9983,"Ġhumanitatem":9984,"Ġdicturum":9985,"Ġattul":9986,"Ð¾Ð³":9987,"Ġuidet":9988,"Ġdescendit":9989,"ĠStud":9990,"racch":9991,"Ġaccepisset":9992,"Ġeffectu":9993,"Ġperdidit":9994,"Ġludus":9995,"3216":9996,"Ġfortunam":9997,"Ġconiuncti":9998,"Ġhereditatis":9999,"Ġsorores":10000,"Ġaffectu":10001,"Ġcircums":10002,"ĠMosi":10003,"Ġdispon":10004,"Ġquaesivi":10005,"Ġ1972":10006,"Ġscelerat":10007,"Ġsceleris":10008,"Ġfundus":10009,"Ġplenam":10010,"Ġiniuriae":10011,"Ġtaub":10012,"Ġadventu":10013,"Ġmusica":10014,"Ġangelorum":10015,"ĠDolorem":10016,"Ġbeneficia":10017,"ĠMoab":10018,"Ġorbe":10019,"Ġapostolus":10020,"Ġsilv":10021,"Ġvocabulo":10022,"Ð¸Ð¼":10023,"Ġ1866":10024,"Ġuirtus":10025,"Ġmembrum":10026,"Ġgladium":10027,"Ġmisericordiae":10028,"Ġuitam":10029,"Ġmeritum":10030,"Ġtabuk":10031,"Ġtabual":10032,"ĠVelit":10033,"ĠPythag":10034,"ĠMichae":10035,"Ġconsiliis":10036,"Ã®s":10037,"Ġpollicitus":10038,"Ġplebe":10039,"Ġâľ":10040,"ĠMelius":10041,"Ġnefas":10042,"Ġsenectutem":10043,"Ġinhabit":10044,"Ġvanitas":10045,"Sicut":10046,"ĠCrassus":10047,"ĠDumiatis":10048,"Ġfluvium":10049,"ĠPlatonis":10050,"Ġprimogenitum":10051,"ĠEzechiae":10052,"Ġquidditas":10053,"Ġcohort":10054,"Ġcomplectitur":10055,"Illud":10056,"ĠMercur":10057,"Ġtyrann":10058,"Ergo":10059,"Ġiulianus":10060,"ĠBavariae":10061,"ĠIsaac":10062,"Ġmehercule":10063,"ĠHierosol":10064,"cdn":10065,"**":10066,"66":10067,"</":10068,"?{":10069,"AS":10070,"Autem":10071,"Ep":10072,"His":10073,"Ist":10074,"Le":10075,"Verum":10076,"af":10077,"cui":10078,"doc":10079,"eos":10080,"eantur":10081,"ham":10082,"iel":10083,"king":10084,"lae":10085,"mam":10086,"mihi":10087,"menta":10088,"ruit":10089,"tionem":10090,"uerim":10091,"wa":10092,"Ä±":10093,"ÄĽ":10094,"ÙĬ":10095,"à·":10096,"Ġsob":10097,"Ġsess":10098,"ition":10099,"Ġquom":10100,"Ġquing":10101,"ongo":10102,"Ġnacti":10103,"Ġnempe":10104,"Ġdatus":10105,"Ġdantur":10106,"Ġmel":10107,"Ġmoli":10108,"Ġinstant":10109,"Ġtq":10110,"Ġts":10111,"Ġtrec":10112,"Ġtba":10113,"rest":10114,"Ġferi":10115,"eno":10116,"esop":10117,"etem":10118,"anes":10119,"aniam":10120,"osy":10121,"entina":10122,"olam":10123,"unam":10124,"Ġadrog":10125,"Ġrequi":10126,"Ġlongo":10127,"acia":10128,"Ġutcumque":10129,"ilus":10130,"otis":10131,"ĠEarum":10132,"ĠAlia":10133,"ĠIus":10134,"ĠSaec":10135,"ĠDors":10136,"ĠDolia":10137,"estim":10138,"taor":10139,"iph":10140,"ippe":10141,"Ġpervers":10142,"Ġillarum":10143,"Ġbu":10144,"obrem":10145,"ĠPed":10146,"Ġgabulator":10147,"Ġcoinqu":10148,"Ġcoopt":10149,"Ġcoaeter":10150,"ĠQuasi":10151,"Ġhabitu":10152,"ivamus":10153,"gnosc":10154,"ebatis":10155,"ĠMinister":10156,"Ġsepe":10157,"ptum":10158,"Ġvideret":10159,"Ġrabulator":10160,"Ġidea":10161,"ĠHad":10162,"ĠHomo":10163,"Ġamisit":10164,"ĠFl":10165,"Ġatbulator":10166,"Ġincircum":10167,"Ġaliquas":10168,"Ġpluv":10169,"Ġunic":10170,"Ġfuerant":10171,"Ġoriuntur":10172,"Ġreserv":10173,"episse":10174,"Ġstr":10175,"Ġcrevit":10176,"Ġminim":10177,"Ġlegum":10178,"Ġlegistis":10179,"Ġvener":10180,"Ġvenimus":10181,"Ġnumeros":10182,"Ġmagnopere":10183,"ĠUx":10184,"Ġour":10185,"risque":10186,"resc":10187,"Ġagro":10188,"Ġputavi":10189,"Ġputarem":10190,"Ġtabulstor":10191,"Ġtabulagor":10192,"Ġtabultaor":10193,"Ġcurrent":10194,"Ġexprob":10195,"Ġapprop":10196,"Ġcompell":10197,"ĠQuidam":10198,"Ġservorum":10199,"Ġfortior":10200,"Ġreceptum":10201,"Ġscribendo":10202,"Ġdeleg":10203,"ĠÐ±":10204,"ĠÐ³":10205,"ĠÐ·":10206,"Ġsequenti":10207,"Ġfratrum":10208,"Ġcarmen":10209,"Ġcolore":10210,"Ġmiserat":10211,"Ġdefuit":10212,"Ġvideant":10213,"Ġexced":10214,"Ġvisu":10215,"Ġnegas":10216,"Ġ67":10217,"Ġductus":10218,"Ġmundanum":10219,"Ġtranst":10220,"Ġgrave":10221,"ĠProc":10222,"Ġsapienti":10223,"Ġtabil":10224,"Ġtabuo":10225,"Ġtabbulator":10226,"Ġtabultor":10227,"Ġcognoscat":10228,"Ġreliquae":10229,"Ġ91":10230,"Ġlaudat":10231,"acte":10232,"Ġmilli":10233,"Ġsacc":10234,"atha":10235,"Ġsubiectae":10236,"ãģĮ":10237,"ĠXVIII":10238,"Ġsocius":10239,"Ġdubito":10240,"Ġponi":10241,"Ġponatur":10242,"ĠUna":10243,"ĠQuamvis":10244,"ĠAbram":10245,"Ġaedificare":10246,"ĠSanctorum":10247,"Ġcontineri":10248,"Ġaddita":10249,"Ġantiqui":10250,"Ġtradere":10251,"Ġtraditur":10252,"Ġmirabile":10253,"Ġargu":10254,"Ġevid":10255,"Ġgravitate":10256,"Ġphilosophiam":10257,"Ġtertius":10258,"Ġartium":10259,"Ġrespondet":10260,"Ġclarus":10261,"Ġnegotiorum":10262,"Ġpromisit":10263,"Ġrecipi":10264,"Ġhostis":10265,"Ġtabulatr":10266,"Ġtabulatod":10267,"Ġtabulatir":10268,"Ġtabulatro":10269,"Ġtabulattor":10270,"Ġtabulatpr":10271,"Ġtabulatkr":10272,"Ġtabulatlr":10273,"ĠIosaphat":10274,"Ġsalute":10275,"Ġpaucos":10276,"Ġtabulafor":10277,"Ġtabulaotr":10278,"ĠAsc":10279,"Ġnuntius":10280,"Ġinimicum":10281,"Ġpraeda":10282,"Ġpraedium":10283,"Ġarbitrio":10284,"Ġarbitrantur":10285,"Ġpericulos":10286,"Ġperdere":10287,"Ġhabitet":10288,"Ġmissa":10289,"Ġheredes":10290,"Ġcomposita":10291,"Ġadfirm":10292,"Ġfabulator":10293,"ĠIuno":10294,"ĠIpsa":10295,"ĠVidesne":10296,"ĠProvinciae":10297,"ĠNullus":10298,"Ġcondicione":10299,"ĠMedia":10300,"Ġtah":10301,"Ġtaulator":10302,"Ġtaabulator":10303,"ĠEpicuro":10304,"Ġbestiam":10305,"CCCC":10306,"Ġblandit":10307,"Ġelegant":10308,"iuers":10309,"Ġtabulatof":10310,"Ġtabulatoor":10311,"ĠCapit":10312,"Ġfacultates":10313,"ĠCalisii":10314,"Ġpoliticorum":10315,"errima":10316,"ĠSimon":10317,"Ġabsolute":10318,"Ġlegitime":10319,"Ġcessavit":10320,"Ġquaerebam":10321,"Ġtabuator":10322,"Ġuber":10323,"Ġpeculium":10324,"Ġentia":10325,"Ġacceperis":10326,"Ġimpleri":10327,"Ġfructibus":10328,"ĠArchid":10329,"ĠRepell":10330,"Ġhodierna":10331,"Ġduplicem":10332,"Ġtextus":10333,"Ġconsulto":10334,"ĠSeptentrioni":10335,"ĠTurciae":10336,"ĠFreti":10337,"ĠAenean":10338,"ĠLinguae":10339,"Ġlacrimis":10340,"Ġpulchritudo":10341,"Ġdisserendi":10342,"ĠConsequatur":10343,"Ġsatisfacit":10344,"Ġdisciplinae":10345,"Ġulter":10346,"Ġtabularor":10347,"Ġtwbulator":10348,"Ġcathedr":10349,"Ġuterque":10350,"Ġcancell":10351,"Ġcardinalis":10352,"ĠPodii":10353,"Ġclarific":10354,"ĠPennsilv":10355,"Ġtavulator":10356,"Ġttabulator":10357,"Ġtabulqtor":10358,"Ġtabulwtor":10359,"Ġtabulztor":10360,"Ġtabulatorr":10361,"Ġtabjlator":10362,"Ġtabullator":10363,"Ġtabupator":10364,"Ġtabluator":10365,"Ġtaublator":10366,"Ġtabukator":10367,"Ġtabualtor":10368,"\")":10369,"\"]":10370,",,":10371,"99":10372,"Brit":10373,"Cet":10374,"Comm":10375,"Culpa":10376,"Iuli":10377,"Med":10378,"OM":10379,"Pot":10380,"Tunc":10381,"Urb":10382,"Ven":10383,"XIV":10384,"led":10385,"oy":10386,"riter":10387,"vir":10388,"yor":10389,"ylator":10390,"Ġevers":10391,"Ġpoc":10392,"oniis":10393,"Ġnas":10394,"Ġmess":10395,"Ġinert":10396,"icquid":10397,"uros":10398,"Ġtbulator":10399,"Ġiu":10400,"etsi":10401,"ariter":10402,"eca":10403,"ecce":10404,"iale":10405,"unic":10406,"eder":10407,"Ġlub":10408,"Ġlangu":10409,"Ġutroque":10410,"asa":10411,"ash":10412,"Ġquaelibet":10413,"Ġexeunte":10414,"ĠEu":10415,"ĠIoram":10416,"ĠSpe":10417,"agesimo":10418,"ĠCr":10419,"Ġdirimi":10420,"Ġdicebam":10421,"Ġpern":10422,"Ġperierunt":10423,"Ġ114":10424,"Ġ116":10425,"Ġbal":10426,"rad":10427,"rast":10428,"ectione":10429,"ĠPaen":10430,"Ġhabendi":10431,"Ġtueri":10432,"Ġsciens":10433,"Ġsciant":10434,"ĠMut":10435,"issio":10436,"Ġcomitia":10437,"Ġabulator":10438,"Ġvidisse":10439,"Ġuos":10440,"Ġrost":10441,"ĠLep":10442,"ellentesque":10443,"Ġamandi":10444,"ĠRatio":10445,"ĠFDP":10446,"ĠToll":10447,"Ġquaeri":10448,"Ġtamque":10449,"erto":10450,"Ġsolere":10451,"ings":10452,"ĠBoh":10453,"ĠBrix":10454,"Ġcontex":10455,"Ġsumps":10456,"igen":10457,"Ġstet":10458,"Ġanimalium":10459,"Ġcreb":10460,"Ġcorrect":10461,"ulier":10462,"atori":10463,"Ġterras":10464,"ĠOpp":10465,"Ġdolum":10466,"Ġdolentes":10467,"Ġusi":10468,"Ġusui":10469,"Ġnumm":10470,"Ġmaneat":10471,"Ġimplic":10472,"adis":10473,"ressit":10474,"Ġdebui":10475,"Ġacie":10476,"Ġpraesente":10477,"Ġpraescript":10478,"iew":10479,"Ġcogita":10480,"Ġquasdam":10481,"neque":10482,"Ġcapitis":10483,"Ġmalitia":10484,"Ġmallem":10485,"Ġeique":10486,"Ġ1810":10487,"uga":10488,"Ġmaximis":10489,"Ġdesit":10490,"Ġ2003":10491,"Ġfortem":10492,"Ġscribe":10493,"Ġconfort":10494,"Ġinvis":10495,"Ġviveret":10496,"Ġviverra":10497,"Ġfidelis":10498,"Ġclem":10499,"Ġcrederent":10500,"Ġdoctus":10501,"Ġdocti":10502,"iensium":10503,"Ġpaul":10504,"odox":10505,"ĠLatinis":10506,"ĠLatinus":10507,"Ġvestras":10508,"Ġje":10509,"ĠGraecum":10510,"picere":10511,"Ġvoluntati":10512,"Ġtestibus":10513,"Ġabsunt":10514,"Ġintellegerem":10515,"Ġ87":10516,"Ġmutavit":10517,"Ġtablator":10518,"Ġtabylator":10519,"Ġfuturam":10520,"Ġceterae":10521,"Ġ95":10522,"Ġlonginqu":10523,"Ġstatuam":10524,"Ġconstitutionem":10525,"Ġgloriosum":10526,"erva":10527,"Ġoportuit":10528,"ĠIudas":10529,"ĠBrundis":10530,"ãģ¾":10531,"Ġideoque":10532,"Ġtime":10533,"Ġtimeo":10534,"Ġdemin":10535,"Ġmovens":10536,"Ġcontinetur":10537,"ÑĢÑĥ":10538,"Ġ160":10539,"Ð»Ñĭ":10540,"Ð»Ñı":10541,"Ġbeatiorem":10542,"ĠRegno":10543,"Ġgravior":10544,"Ġinstituit":10545,"ations":10546,"ĠPlus":10547,"Ġparvuli":10548,"Ġgaudet":10549,"Ġcalicem":10550,"Ġepistola":10551,"Ġrecipere":10552,"Ġhoste":10553,"Ġmagistratum":10554,"Ġtabulatot":10555,"Ġsperat":10556,"Ġyabulator":10557,"Ġindicavit":10558,"Ġtabulaor":10559,"Ġtabulaator":10560,"Ġtabulayor":10561,"Ġnobilis":10562,"Ġmitti":10563,"ĠEpist":10564,"Ġequos":10565,"Ð°Ð¼":10566,"Ġrogavit":10567,"Ã¡s":10568,"Ġcasum":10569,"Ġnaves":10570,"Ġadsunt":10571,"Ġnasci":10572,"Ġvidebis":10573,"Ġmanifeste":10574,"Ġliquid":10575,"Ġtutor":10576,"uramentum":10577,"Î¿ÏĤ":10578,"Ġ1961":10579,"Ġfundo":10580,"Ġexpertus":10581,"Ġpenes":10582,"eatured":10583,"Ġcommodum":10584,"ĠAge":10585,"ĠEpiscopo":10586,"Ġtabulatoe":10587,"Ġelectio":10588,"Ġdormivit":10589,"Ġsepult":10590,"Ġiucunde":10591,"Ġcultum":10592,"Ġprohibet":10593,"Ġsanguinibus":10594,"ippiae":10595,"Ġcomprehendit":10596,"Ġtribunus":10597,"Ġsacerdotum":10598,"ĠScipionis":10599,"Ġnubere":10600,"Ġmontes":10601,"Ġperfici":10602,"Ġoccasione":10603,"Ġconvertit":10604,"Ġtabuulator":10605,"Ġhonorific":10606,"Ġá½":10607,"Ġtristitia":10608,"Ġalleluia":10609,"ĠTerrae":10610,"Ġpredic":10611,"ĠMatth":10612,"ĠMatronae":10613,"ĠTarqu":10614,"Ġpraeclarum":10615,"Francice":10616,"Ġnutr":10617,"Ġpastores":10618,"Ġmagistratu":10619,"Ġimbec":10620,"ĠGeorgius":10621,"Liber":10622,"Ġmajor":10623,"Ġimmortales":10624,"Ġpersuasum":10625,"Ġconvivium":10626,"Ġcognovissent":10627,"Ġfontem":10628,"Ġpersev":10629,"Ġconsensu":10630,"ĠLudovicus":10631,"ĠHierony":10632,"ĠSaul":10633,"ĠMississ":10634,"Ġdeserto":10635,"ĠNapole":10636,"Ġpulvinar":10637,"Ġfacillime":10638,"ĠColleg":10639,"Ġexercituum":10640,"ĠCatilina":10641,"Decisiones":10642,"Ġsurrexit":10643,"Ġexspectare":10644,"Ġconvallis":10645,"Ġmetropolit":10646,"Ġdomicilium":10647,"ĠCalvorum":10648,"ĠArduenna":10649,"ĠColosseum":10650,"Ġtagulator":10651,"Ġtanulator":10652,"Ġtzbulator":10653,"Ġimmediate":10654,"Ġtabhlator":10655,"Ġevidentius":10656,"Ġtqbulator":10657,"Ġtsbulator":10658,"Ġtbaulator":10659,"ĠDorsorum":10660,"Ġtabilator":10661,"Ġtabuoator":10662,"Ġtahulator":10663,"');":10664,"As":10665,"Multa":10666,"Nesc":10667,"Rev":10668,"Sanct":10669,"Vir":10670,"bet":10671,"cae":10672,"graph":10673,"hus":10674,"ianum":10675,"los":10676,"loc":10677,"oi":10678,"ative":10679,"onica":10680,"Ġcli":10681,"Ġnib":10682,"Ġdati":10683,"Ġdrac":10684,"Ġdabis":10685,"Ġmaria":10686,"Ġmilibus":10687,"Ġmoen":10688,"orter":10689,"Ġinpossibile":10690,"iculi":10691,"Ġvino":10692,"uturum":10693,"Ġfa":10694,"Ġfasc":10695,"Ġfrang":10696,"lips":10697,"idius":10698,"ecessor":10699,"Ġpridie":10700,"iales":10701,"Ġadquir":10702,"ocinium":10703,"Ġrefic":10704,"Ġretrib":10705,"Ġlav":10706,"Ġquodque":10707,"aces":10708,"abilibus":10709,"Ġutor":10710,"alo":10711,"alog":10712,"ĠIurae":10713,"ĠSper":10714,"ĠSanto":10715,"ĠClaritas":10716,"ĠCardin":10717,"ĠCDU":10718,"Ġomnim":10719,"ĠDE":10720,"ĠDix":10721,"Ġperl":10722,"Ġpraefer":10723,"ratis":10724,"ĠPo":10725,"ĠPecun":10726,"Ġgran":10727,"irst":10728,"iremus":10729,"ĠNoli":10730,"Ġquidvis":10731,"Ġcomes":10732,"ortum":10733,"Ġveritati":10734,"Ġseips":10735,"andos":10736,"Ġvellent":10737,"Ġviderem":10738,"Ġopibus":10739,"Ġsitu":10740,"ĠHS":10741,"Ġneut":10742,"Ġnepos":10743,"Ġcautum":10744,"Ġamatur":10745,"Ġparc":10746,"Ġpari":10747,"Ġincorp":10748,"eritis":10749,"ĠTy":10750,"ĠTantum":10751,"Ġquaque":10752,"Ġqualibet":10753,"ĠVitae":10754,"arie":10755,"Ġsolitudine":10756,"Ġintentio":10757,"Ġscrut":10758,"ĠBat":10759,"ĠBern":10760,"igmata":10761,"Ġorans":10762,"Ġresp":10763,"Ġregul":10764,"rie":10765,"veniens":10766,"Ġnequeunt":10767,"issimorum":10768,"erson":10769,"ĠOrb":10770,"Ġspatia":10771,"Ġusuram":10772,"Ġaudistis":10773,"Ġmagnitudinem":10774,"Ġsimp":10775,"Ġcommunitatis":10776,"Ġpraesent":10777,"che":10778,"Ġiudicatum":10779,"Ġiudicabit":10780,"ĠĠĠĠĠĠĠ":10781,"Ġdiscendi":10782,"Ġrepos":10783,"Ġrepreh":10784,"ĠâĢ¹":10785,"Ġ1815":10786,"Ġ1850":10787,"Ġmortuos":10788,"Ġcomplet":10789,"Ġocculta":10790,"irca":10791,"ext":10792,"Ġinfl":10793,"Ġfideles":10794,"Ġsequetur":10795,"Ġinsuper":10796,"Ġcolumb":10797,"Ġplacent":10798,"Ġcreditur":10799,"Ġpraeterm":10800,"Ġvideam":10801,"Ġconsequat":10802,"Ġopprobrium":10803,"Ġfierent":10804,"Ġvaleant":10805,"Ġmolesta":10806,"Ġneget":10807,"Ġprobarem":10808,"Ġreddi":10809,"Ġcontradic":10810,"Ġquaerens":10811,"Ġnaturalibus":10812,"Ġiusiur":10813,"feram":10814,"Ġabsens":10815,"Ġfamae":10816,"Ġ81":10817,"Ġ83":10818,"Ġmutuo":10819,"Ġcogitamus":10820,"Ġaccipiam":10821,"Ġaccipiens":10822,"Ġsuppos":10823,"Ġlongam":10824,"Ġconstitutione":10825,"Ġoderit":10826,"Ġfacturus":10827,"Ġfaciendi":10828,"Ġlatinae":10829,"Ġsubiecti":10830,"ãģ¦":10831,"ãģĻ":10832,"Ġspeculum":10833,"Ġsignificatione":10834,"Ġostent":10835,"Ġ130":10836,"Ġdifferent":10837,"ĠSiciliae":10838,"Ġlucis":10839,"vertere":10840,"Ġefficiuntur":10841,"Ġantiquum":10842,"Ġantiquitus":10843,"Ð»Ð°":10844,"ĠWh":10845,"Ġvultu":10846,"Ġveteribus":10847,"Ġgraves":10848,"Ġmandavit":10849,"Ġphilosophos":10850,"Ġnolunt":10851,"Ġpersonas":10852,"ĠAntonio":10853,"Ġcogitatio":10854,"Ġlaboro":10855,"Ġdeprehend":10856,"oniz":10857,"ãĥ¼":10858,"Ġavunc":10859,"Ġuidentur":10860,"Ġnobil":10861,"ĠNovum":10862,"ĠCatonem":10863,"ĠIudaea":10864,"ĠAsiae":10865,"Ġinimicorum":10866,"Ġprivatis":10867,"ressed":10868,"ĠMagnus":10869,"Ġproposito":10870,"Ġnavibus":10871,"Ġutilitates":10872,"Ġconiunctum":10873,"Ġscripseram":10874,"Ġdamnatus":10875,"Ġignoro":10876,"Ġhereditate":10877,"Ġcompositae":10878,"Ġreligione":10879,"Ġfabularum":10880,"Ġsocietatis":10881,"Ġiniquitate":10882,"Ġcunctae":10883,"Ġleve":10884,"Ġmilitaris":10885,"Ġgeneribus":10886,"Ġgeneralis":10887,"ĠVeniam":10888,"ocrates":10889,"Ġhaeres":10890,"Ġrestituere":10891,"Ġcommodius":10892,"Ġsingulari":10893,"Ġprudentiam":10894,"Ġprudentiae":10895,"Ġmorietur":10896,"Ġconsiderandum":10897,"Ġsolvere":10898,"Ġ1957":10899,"Ġrepetere":10900,"Ġdoctrinae":10901,"Ġadducam":10902,"à«§":10903,"Ġinterficiam":10904,"Ġimpetus":10905,"Ġconscientiae":10906,"Ã¨s":10907,"Ġjudicium":10908,"ĠVoluptas":10909,"ĠDemet":10910,"Ġsodales":10911,"ĠComment":10912,"Ġdissimilis":10913,"ĠMetellum":10914,"Ġventurum":10915,"Ġoppositum":10916,"ĠTroiam":10917,"Ġligno":10918,"Ġquerela":10919,"Ġpreces":10920,"Ġsyllogis":10921,"Ġdupliciter":10922,"Ġdiutur":10923,"Ã¼r":10924,"Ġteneatur":10925,"ĠHelvetiae":10926,"ĠSyriae":10927,"Ġvulnera":10928,"Ġuiuit":10929,"Ġbarbar":10930,"Ġinstrumentum":10931,"Ġapplicatione":10932,"ĠJoannes":10933,"Ġnuntiavit":10934,"äºº":10935,"Ġcodicem":10936,"Ġvenenatis":10937,"ĠMichiganensi":10938,"Ġinutiles":10939,"Ġvesperum":10940,"ĠRuben":10941,"Ġoctog":10942,"ĠReliqu":10943,"ĠNobeli":10944,"Ġwebsit":10945,"Ġiuridicae":10946,"Ġdereliqu":10947,"Ġianuam":10948,"Ġdetestabili":10949,"ĠCaliforniae":10950,"Ġlocuplet":10951,"ĠquickShop":10952,"Ġcooptatus":10953,"ĠPaeninsula":10954,"ĠMississippiae":10955,"Ġnibh":10956,"112":10957,"90":10958,"Jhn":10959,"Numquam":10960,"Pet":10961,"Sol":10962,"UT":10963,"Un":10964,"Vel":10965,"XL":10966,"]:":10967,"dius":10968,"elius":10969,"lov":10970,"log":10971,"ror":10972,"rio":10973,"ring":10974,"rÃ¦":10975,"ten":10976,"word":10977,"yt":10978,"zy":10979,"Å¼":10980,"Î¸":10981,"Ïĩ":10982,"à¶":10983,"Ġliqu":10984,"itioni":10985,"Ġquestus":10986,"Ġpuncta":10987,"amque":10988,"amina":10989,"Ġcaret":10990,"Ġnoll":10991,"Ġdas":10992,"Ġmou":10993,"Ġinlum":10994,"Ġvae":10995,"Ġvil":10996,"Ġvana":10997,"Ġvilla":10998,"Ġtorqu":10999,"enam":11000,"esp":11001,"Ġhar":11002,"Ġhare":11003,"ank":11004,"idiae":11005,"ulat":11006,"ulisti":11007,"oleo":11008,"unquid":11009,"quest":11010,"Ġadpet":11011,"Ġretr":11012,"Ġluct":11013,"udet":11014,"acem":11015,"Ġuteb":11016,"Ġutimur":11017,"antas":11018,"Ġexalt":11019,"ĠEi":11020,"ĠAT":11021,"ĠAper":11022,"ĠIuven":11023,"agus":11024,"ĠDub":11025,"ĠDiscip":11026,"ipublic":11027,"Ġperit":11028,"Ġ111":11029,"Ġpraeest":11030,"Ġbi":11031,"Ġcoactus":11032,"ĠQuas":11033,"ĠQuÃ¦":11034,"ĠNer":11035,"undiae":11036,"ĠMen":11037,"Ġaptum":11038,"ortium":11039,"ortui":11040,"Ġverus":11041,"ptis":11042,"andarum":11043,"Ġraro":11044,"avisse":11045,"ĠLem":11046,"ĠLeo":11047,"ĠLev":11048,"ĠLang":11049,"ĠHon":11050,"ĠHisp":11051,"Ġcaer":11052,"Ġamas":11053,"Ġamaret":11054,"Ġincidere":11055,"ĠTr":11056,"Ġqualia":11057,"Ġeumque":11058,"Ġmax":11059,"Ġsolebam":11060,"Ġsollem":11061,"Ġunis":11062,"Ġunicum":11063,"Ġuniuers":11064,"Ġtempla":11065,"ĠBuc":11066,"ĠBello":11067,"oviae":11068,"Ġfuissemus":11069,"Ġorat":11070,"eratione":11071,"Ġpatiuntur":11072,"Ġstil":11073,"Ġanimantium":11074,"Ġlegatorum":11075,"apud":11076,"Ġ1929":11077,"Ġmultam":11078,"Ġaudiam":11079,"Ġaudite":11080,"Ġposterius":11081,"Ġmortale":11082,"Ġannunt":11083,"Ġmagnas":11084,"Ġcommunione":11085,"Ġpraesentiam":11086,"Ġvocavitque":11087,"chi":11088,"Ġistic":11089,"Ġtrit":11090,"Ġsuperfic":11091,"Ġamicitias":11092,"Ġdiscord":11093,"Ġrepud":11094,"Ġ1848":11095,"ugh":11096,"ugit":11097,"Ġmaximi":11098,"Ġdederunt":11099,"Ġasinus":11100,"Ġ2004":11101,"Ġoccis":11102,"Ġlitig":11103,"iosorum":11104,"Ġvivendi":11105,"heus":11106,"Ġinsol":11107,"ĠComitatu":11108,"Ġcolorem":11109,"Ġcredendum":11110,"Ġdefer":11111,"Ġdeform":11112,"Ġmoriendum":11113,"Ġnovis":11114,"ĠItali":11115,"Ġprobat":11116,"Ġcaes":11117,"Ġdomina":11118,"Ġredim":11119,"Ġjuramentum":11120,"Ġnescire":11121,"Ġquaereretur":11122,"Ġextit":11123,"Ġextend":11124,"Ġnecessariis":11125,"Ġnecessariam":11126,"Ġfames":11127,"Ġ88":11128,"Ġvices":11129,"Ġfuturis":11130,"Ġpetunt":11131,"Ġreliquo":11132,"Ġwork":11133,"Ġ96":11134,"Ġlaudibus":11135,"Ġconstituitur":11136,"phus":11137,"Ġexistens":11138,"ĠBruns":11139,"Ġpeccatis":11140,"ãģŁ":11141,"ĠXIII":11142,"Ġaequitate":11143,"ĠKansiae":11144,"Ġaedificium":11145,"crips":11146,"Ġcontinu":11147,"Ġperfecte":11148,"Ġmirabilia":11149,"Ġmiraculum":11150,"Ġmonstr":11151,"Ġmonach":11152,"Ġgraviter":11153,"other":11154,"Ġaudiendi":11155,"Ġlicentiam":11156,"Ġnoluerit":11157,"ĠAnton":11158,"ĠAntecessor":11159,"XXI":11160,"Ġepistulas":11161,"Ġhumanam":11162,"Ġdeprav":11163,"Ġsexus":11164,"Ġsexta":11165,"ĠAegyptii":11166,"ãĥ³":11167,"ãĥ»":11168,"Ġdiluc":11169,"Ġexistimare":11170,"Ġpugnare":11171,"Ġmagistro":11172,"erebatur":11173,"Ġsuccessit":11174,"ĠAsper":11175,"Ġlacum":11176,"Ġscripturae":11177,"Ġprivatus":11178,"Ġprivata":11179,"ãĤĭ":11180,"Ġauris":11181,"Ġpuerorum":11182,"Ġreverter":11183,"Ġ1994":11184,"Ġiacere":11185,"Ġgestum":11186,"Ġutilitate":11187,"Ġoffer":11188,"quodque":11189,"Ġscripserunt":11190,"Ġdivisae":11191,"Ġrelinquam":11192,"Ġvidebimus":11193,"ĠIllum":11194,"Ġpossidendam":11195,"Ġsimplicis":11196,"Ġcircumstant":11197,"Ġpassio":11198,"Ġcustodiam":11199,"Ġquaesivit":11200,"ĠDicit":11201,"Ġlaetitiam":11202,"Ġfundamentum":11203,"Ġsalvum":11204,"Ġrelinquitur":11205,"Ġelegit":11206,"Ġsingulare":11207,"ĠAristonem":11208,"Ġconsiderare":11209,"Ġparticipatione":11210,"Ġsomnum":11211,"ĠPolit":11212,"ĠPotius":11213,"Ġmyth":11214,"ĠAccus":11215,"Ġsumptu":11216,"ĠScipionem":11217,"Ġconfici":11218,"Ġnubibus":11219,"Ġossa":11220,"Ġtypi":11221,"Ġimaginibus":11222,"ĠZeno":11223,"Ġcernitur":11224,"ĠLege":11225,"Ġadulescentia":11226,"Ġrequiritur":11227,"Ġueritatem":11228,"Ġelementa":11229,"Ġcontroversiam":11230,"ĠTempus":11231,"Ġprogress":11232,"Ġinsigne":11233,"Ġsorte":11234,"pexi":11235,"Ġuerbo":11236,"Ġsupplicio":11237,"ĠDelph":11238,"Ġsponsus":11239,"ĠTheodisc":11240,"Ġconstet":11241,"Ġpaupertatem":11242,"Ð¾ÑĤÐ»Ñĭ":11243,"Ġevangelium":11244,"ĠBorussiam":11245,"Ġsemetipso":11246,"Acts":11247,"ĠÄĮ":11248,"Ġfrumentum":11249,"ĠÐļÐ¾Ð»":11250,"Ġpietate":11251,"ĠAcha":11252,"ĠMoysen":11253,"Ġuideatur":11254,"Ġperierat":11255,"Ġtransiit":11256,"Ð½ÑĭÐµ":11257,"Ġcongruamus":11258,"Ġoccurrent":11259,"Ġindustria":11260,"Ġerubesc":11261,"Ġexplan":11262,"ĠOctav":11263,"Ġfallaciloqu":11264,"Ġpraeceperat":11265,"Ġemancip":11266,"ĠRecte":11267,"Ġgymnas":11268,"ĠOttoman":11269,"Ġdilexisti":11270,"Ġâľ¿":11271,"Ġunicuique":11272,"ĠPennsilvaniae":11273,"Britonice":11274,"Ġiusiurandum":11275,"Ġfallaciloquae":11276,",.":11277,"75":11278,"97":11279,"Bo":11280,"Eum":11281,"Is":11282,"Nemo":11283,"Se":11284,"XVI":11285,"dia":11286,"ear":11287,"ianus":11288,"je":11289,"kt":11290,"len":11291,"mb":11292,"nor":11293,"nos":11294,"pis":11295,"uada":11296,"Ãĥ":11297,"Å¡":11298,"ÎŃ":11299,"Ð¡":11300,"Ñį":11301,"ä¼":11302,"æĺ":11303,"Ġ000":11304,"ĠÏĢ":11305,"umm":11306,"erantur":11307,"Ġaes":11308,"Ġset":11309,"Ġsentias":11310,"ise":11311,"ista":11312,"atic":11313,"Ġcereb":11314,"Ġnuc":11315,"Ġnupta":11316,"Ġdog":11317,"oriae":11318,"Ġineb":11319,"icit":11320,"icium":11321,"Ġtitio":11322,"Ġie":11323,"Ġfoc":11324,"Ġesto":11325,"omus":11326,"arro":11327,"ibat":11328,"uneburg":11329,"Ġadire":11330,"Ġadsequ":11331,"Ġaddi":11332,"Ġredeo":11333,"aco":11334,"abas":11335,"ellig":11336,"asph":11337,"Ġdefectus":11338,"ĠAliae":11339,"ĠIN":11340,"ĠSh":11341,"ĠCent":11342,"ĠCog":11343,"endite":11344,"Ġ101":11345,"Ġfacitis":11346,"Ġfacientibus":11347,"Ġillinc":11348,"Ġillustr":11349,"ĠPR":11350,"ĠPan":11351,"Ġsede":11352,"Ġgut":11353,"Ġgerere":11354,"Ġhabu":11355,"ĠNim":11356,"ĠNolite":11357,"uitas":11358,"eger":11359,"Ġscirem":11360,"iverunt":11361,"ĠMinus":11362,"issionis":11363,"Ġquovis":11364,"Ġmihique":11365,"avero":11366,"averint":11367,"ĠLac":11368,"ĠLug":11369,"ĠRuf":11370,"Ġpagi":11371,"Ġpaginis":11372,"ĠFat":11373,"ĠFili":11374,"Ġaliquanto":11375,"erito":11376,"Ġvolu":11377,"Ġvoluisse":11378,"ĠVia":11379,"ĠVerba":11380,"Ġmai":11381,"Ġsolutum":11382,"Ġunct":11383,"Ġunitas":11384,"ustae":11385,"ĠBapt":11386,"ĠBarc":11387,"Ġcommis":11388,"Ġmodicum":11389,"Ġsumpta":11390,"Ġsumpsit":11391,"Ġinterval":11392,"Ġora":11393,"Ġsecretum":11394,"Ġbonitas":11395,"Ġstabilis":11396,"Ġcreare":11397,"Ġcreati":11398,"Ġminora":11399,"Ġminori":11400,"Ġlegatis":11401,"Ġviribus":11402,"Ġvenisti":11403,"Ġveniet":11404,"Ġ1922":11405,"Ġ1925":11406,"ĠOper":11407,"Ġseru":11408,"Ġaudimus":11409,"Ġauditor":11410,"Ġposteris":11411,"ificem":11412,"Ġ-,":11413,"Ġquibuscumque":11414,"Ġoliv":11415,"iati":11416,"Ġagetur":11417,"Ġsemit":11418,"Ġvitiorum":11419,"Ġputaverunt":11420,"Ġputabam":11421,"Ġremans":11422,"Ġiudicis":11423,"Ġiudicet":11424,"Ġiudicas":11425,"Ġiudiciis":11426,"Ġdivinis":11427,"Ġdivitiis":11428,"Ġmaximas":11429,"Ġmortuorum":11430,"ĠFrancica":11431,"Ġfortiter":11432,"Ġconfido":11433,"Ġdele":11434,"Ġnotus":11435,"Ġcarc":11436,"Ġtenent":11437,"Ġtenentur":11438,"Ġcolunt":11439,"Ġlabores":11440,"Ġconsequitur":11441,"Ġprobo":11442,"Ġtantummodo":11443,"Ġformid":11444,"Ġfrag":11445,"Ġadha":11446,"Ġducibus":11447,"Ġsanctos":11448,"Ġplurimae":11449,"Ġintellegunt":11450,"Ġdignissim":11451,"Ġfame":11452,"Ġhonoris":11453,"Ġcogitandum":11454,"Ġcogitabam":11455,"Ġunumquodque":11456,"Ġaccipiuntur":11457,"Ġmedius":11458,"ĠMarit":11459,"Ġappellatus":11460,"Ġappellata":11461,"Ġpatroni":11462,"Ġ92":11463,"Ġ93":11464,"Ġsenes":11465,"Ġintelligo":11466,"Ġprocons":11467,"Ġintelligendum":11468,"Ġsubiectus":11469,"Ġquindecim":11470,"ãģĹ":11471,"Ġsignificatio":11472,"Ġsignificationem":11473,"ffectus":11474,"Ġpone":11475,"Ġpondus":11476,"ĠCivitates":11477,"low":11478,"idelibus":11479,"ĠGermaniam":11480,"Ã©s":11481,"ÑĢÐ°":11482,"Ġ103":11483,"Ġuniverso":11484,"Ġmiror":11485,"Ġveteris":11486,"Ġeligere":11487,"Ġaudiebant":11488,"Ġedita":11489,"Ġredditur":11490,"Ġuelut":11491,"Ġfinitum":11492,"Ġprofectum":11493,"ĠGalliam":11494,"Ġdenot":11495,"Ġdenuo":11496,"Ġseptima":11497,"ĠPraeter":11498,"ĠIllo":11499,"landia":11500,"Ġpugnavit":11501,"ĠCarthag":11502,"Ġalienis":11503,"Ġcupiditas":11504,"Ġfurti":11505,"Ġportus":11506,"Ġkal":11507,"Ġtenebras":11508,"Ġconventus":11509,"Ġauro":11510,"Ġaccepistis":11511,"Ġludis":11512,"piciens":11513,"Ġversibus":11514,"Ġhereditas":11515,"Ġsororis":11516,"Ġcensent":11517,"Ġhortum":11518,"Ġhortus":11519,"options":11520,"ally":11521,"ĠTheoph":11522,"Ġcreaturis":11523,"ĠPrima":11524,"ĠNew":11525,"Ġostenditur":11526,"Ġrestitu":11527,"Ġtestamenti":11528,"Ġhistoriam":11529,"Ġdepositi":11530,"Ġcommode":11531,"ĠMoysi":11532,"Ġdesiderio":11533,"Ġascens":11534,"Ġelectionem":11535,"Ġconversi":11536,"Ġconversus":11537,"Ġfirma":11538,"ĠLaod":11539,"ĠSamara":11540,"Ġdefenditur":11541,"Ġcultus":11542,"Ġlegitima":11543,"ĠConsilium":11544,"indob":11545,"Ġmembris":11546,"Ġuenit":11547,"Ġtitulo":11548,"Ġente":11549,"Ġexpetendum":11550,"ĠSyrac":11551,"Ġoccurrunt":11552,"Ġarborum":11553,"Ġdilectionem":11554,"ĠInsulae":11555,"Ġeloquentiam":11556,"Ġconstanter":11557,"Ġdeficit":11558,"Ġmagnifice":11559,"Ġvirgines":11560,"Ġnuptiarum":11561,"Ġ});":11562,"Ġconsentiunt":11563,"Ġoblivisci":11564,"Ġconsultum":11565,"rupti":11566,"Ġremanet":11567,"Ġdesinit":11568,"ĠPhilot":11569,"ĠApollonius":11570,"Ġá¼Ģ":11571,"Ġsubsistens":11572,"ĠÐļÐ¾ÑĤÐ»Ñĭ":11573,"Ġvasa":11574,"Ġintentionem":11575,"ĠRheni":11576,"Ġintroduc":11577,"Ġcontigerit":11578,"Ġsyllaba":11579,"Ġinfamia":11580,"ĠEphra":11581,"Ille":11582,"Ġstellarum":11583,"Ġopportun":11584,"Caput":11585,"Ġregimen":11586,"ĠIoachim":11587,"Ġdiscrimen":11588,"Ecclesia":11589,"Ġbrachium":11590,"Ġsagittis":11591,"ĠCausa":11592,"Ġbovem":11593,"Ġpravae":11594,"Ġappropinqu":11595,"\"],\"":11596,"428":11597,"95":11598,"98":11599,"Donec":11600,"Hab":11601,"Jer":11602,"Leg":11603,"Nos":11604,"Re":11605,"]}":11606,"cra":11607,"ft":11608,"fort":11609,"hes":11610,"hii":11611,"iudic":11612,"ject":11613,"mog":11614,"rui":11615,"torum":11616,"uk":11617,"uert":11618,"Å¾":11619,"ÏĮ":11620,"Ïį":11621,"Ð¶":11622,"åŃ":11623,"Ġ]":11624,"Ġulc":11625,"ĠÏĦ":11626,"Ġä¸":11627,"Ļéĭ¼":11628,"quem":11629,"Ġaevo":11630,"Ġsa":11631,"usus":11632,"Ġpes":11633,"Ġpug":11634,"atii":11635,"amb":11636,"Ġche":11637,"Ġni":11638,"Ġmam":11639,"icy":11640,"icio":11641,"icomm":11642,"Ġviis":11643,"Ġvendere":11644,"Ġtar":11645,"Ġtorm":11646,"Ġtecta":11647,"liorum":11648,"etes":11649,"ark":11650,"iduo":11651,"ecisti":11652,"ecutus":11653,"ularium":11654,"Ġprost":11655,"Ġprosc":11656,"iali":11657,"ibit":11658,"olos":11659,"Ġadsequi":11660,"edic":11661,"Ġrestat":11662,"aciter":11663,"Ġutpote":11664,"als":11665,"Ġconfectum":11666,"Ġexstr":11667,"Ġexha":11668,"ĠEdit":11669,"ĠAit":11670,"ĠAed":11671,"ĠIerusalem":11672,"ĠCli":11673,"ĠCIC":11674,"omnis":11675,"Ġdiurn":11676,"ĠDoc":11677,"ĠDeb":11678,"ĠDenique":11679,"ende":11680,"Ġfacilior":11681,"ilibet":11682,"ĠPla":11683,"Ġgente":11684,"Ġcoqu":11685,"ĠQuippe":11686,"Ġposuisti":11687,"Ġscitum":11688,"ives":11689,"ĠMac":11690,"Ġabys":11691,"Ġabbat":11692,"Ġsite":11693,"ĠHar":11694,"Ġneutrum":11695,"Ġcalig":11696,"Ġcalid":11697,"ĠRatione":11698,"ĠFusce":11699,"Ġvoluisti":11700,"ĠTrin":11701,"ĠTulli":11702,"ĠTrib":11703,"Ġconsurg":11704,"ĠVarr":11705,"Ġintend":11706,"Ġintrat":11707,"Ġscribi":11708,"Ġproph":11709,"ĠBad":11710,"ĠBerg":11711,"Ġcommittere":11712,"Ġsumere":11713,"Ġstigmata":11714,"Ġcorona":11715,"Ġlocuta":11716,"Ġloquantur":11717,"Ġ1914":11718,"Ġ1923":11719,"ĠOn":11720,"ĠOs":11721,"Ġspha":11722,"Ġincolas":11723,"Ġserp":11724,"Ġsubstit":11725,"Ġaudiat":11726,"Ġposterum":11727,"Ġcausatum":11728,"ley":11729,"Ġimpress":11730,"ado":11731,"erog":11732,"ĠUlix":11733,"audiae":11734,"Ġratum":11735,"Ġvitare":11736,"Ġvocis":11737,"Ġputatis":11738,"ffer":11739,"Ġcurrit":11740,"nex":11741,"Ġsuperiore":11742,"Ġmalle":11743,"Ġiudice":11744,"Ġrepente":11745,"Ġnominantur":11746,"Ġdecus":11747,"Ġdederis":11748,"Ġ2001":11749,"eraque":11750,"ĠFrancia":11751,"Ġlitore":11752,"Ġgratuit":11753,"Ġconfug":11754,"Ġconferre":11755,"ĠÐ¡":11756,"Ġinvitus":11757,"Ġinfidelibus":11758,"Ġnotis":11759,"Ġpraecedit":11760,"Ġcarcere":11761,"ĠAmmon":11762,"ĠComp":11763,"Ġcolonia":11764,"Ġmisisti":11765,"Ġpraeterit":11766,"Ġmora":11767,"Ġmoriuntur":11768,"Ġvidear":11769,"Ġcircuitu":11770,"Ġinvenisti":11771,"ĠLatino":11772,"anna":11773,"annib":11774,"Ġprincipatus":11775,"Ġcertis":11776,"Ġsummus":11777,"Ġfugiunt":11778,"Ð¾Ñģ":11779,"Ġducti":11780,"Ġegerit":11781,"Ġextrah":11782,"Ġingressa":11783,"Ġexercitat":11784,"Ġvictum":11785,"Ġvicarius":11786,"Ġsapienter":11787,"Ġital":11788,"Ġcognoscetis":11789,"Ġfutur":11790,"ĠMarci":11791,"Ð¸Ðµ":11792,"Ġword":11793,"Ġiisdem":11794,"Ġstatuit":11795,"Ġprocre":11796,"ĠBrund":11797,"Ġaperit":11798,"Ġmulierum":11799,"Ġcontractum":11800,"Ġquintum":11801,"Ġtransire":11802,"Ġimmin":11803,"Ġimmol":11804,"Ġliberae":11805,"Ġliberatus":11806,"Ġsociorum":11807,"aneum":11808,"Ġaedificatum":11809,"ĠIoab":11810,"Ġmetimur":11811,"Ġdistric":11812,"Ġdetrim":11813,"Ġflu":11814,"Ġpraecipit":11815,"Ġquaestor":11816,"Ġquaestione":11817,"Ġadduxit":11818,"Ġargent":11819,"Ġeventus":11820,"Ġmiserrim":11821,"Ġreddat":11822,"Ġchem":11823,"reditur":11824,"Ġbibas":11825,"Ġbibliothec":11826,"Ġparvam":11827,"ĠNihilo":11828,"uicem":11829,"Ġlaborare":11830,"Ġclariora":11831,"Ġerroribus":11832,"Ġcopul":11833,"Ġcopiam":11834,"Ġcopios":11835,"landiae":11836,"Ġincipere":11837,"erebamus":11838,"ĠImp":11839,"ĠImpossibile":11840,"ipisci":11841,"Deinde":11842,"Ġprivileg":11843,"Ġrogat":11844,"Ġrogatus":11845,"ãĤ¹":11846,"ãĤĴ":11847,"ĠMagnum":11848,"Ġproposita":11849,"Ã¡ria":11850,"Ġaestate":11851,"Ġ1993":11852,"ĠNecessitatibus":11853,"Ġludos":11854,"Ġpuellis":11855,"Ġtestimonia":11856,"erdin":11857,"ology":11858,"Ġversatur":11859,"Ġrapt":11860,"ĠNumerus":11861,"Ġfidelibus":11862,"Ġorientem":11863,"Ġpossidere":11864,"Ġsimplicem":11865,"Ġ1978":11866,"ĠDicendum":11867,"Ġscelus":11868,"echn":11869,"ĠNeap":11870,"Ġadventus":11871,"ĠBritanniae":11872,"ĠDolore":11873,"Ġ1989":11874,"ÐµÐ´":11875,"Ġfacultate":11876,"Ġexceptis":11877,"Ġdioecesi":11878,"ĠOrd":11879,"Ġministri":11880,"ĠSamaria":11881,"Ġhoras":11882,"Ġiuvat":11883,"ĠNostrum":11884,"Ġimpetum":11885,"Ġrecordatio":11886,"Ġsacerdotio":11887,"Ġaccepto":11888,"Ġmeminisse":11889,"Ġproelium":11890,"Ġvictoriam":11891,"ĠRussia":11892,"Ġdeclarat":11893,"Ġinvidia":11894,"ÏģÎ±":11895,"Ġhospit":11896,"Ġdilectio":11897,"Ġplebis":11898,"ĠHabet":11899,"Ġqualitas":11900,"ĠâĹ":11901,"ĠArchiepiscop":11902,"Ġiniust":11903,"Ġconfiteri":11904,"ĠSumma":11905,"Ġreversus":11906,"ĠSext":11907,"ĠLaban":11908,"Ġresistere":11909,"Primo":11910,"Ġcrucem":11911,"Ġresurrexit":11912,"Ġnonnulla":11913,"Ġclausa":11914,"Ġpetierimus":11915,"ĠSententia":11916,"Ġoctava":11917,"ĠRespond":11918,"Ġsuspecta":11919,"Ġnoctes":11920,"attoo":11921,"Ġavaritia":11922,"Ġsublata":11923,"ĠEzechias":11924,"ĠÅ¿":11925,"Ġrobust":11926,"ĠOptio":11927,"Ġparoeciae":11928,"Ġgloriari":11929,"Ġpepercit":11930,"ĠGaius":11931,"Ġattingere":11932,"Ġimponitur":11933,"Respondeo":11934,"Ġadepto":11935,"ĠUsque":11936,"Ġexcelsiores":11937,"Ġimprimis":11938,"ĠHungariae":11939,"ĠGreek":11940,"ç´Ļéĭ¼":11941,"ĠAnselmo":11942,"ĠCantuÃ¡ria":11943,"ĠBrunsv":11944,"!!":11945,"')":11946,"?)":11947,"AM":11948,"Cras":11949,"EC":11950,"LL":11951,"Rep":11952,"SU":11953,"aad":11954,"cont":11955,"iatus":11956,"lorum":11957,"mann":11958,"ny":11959,"nesc":11960,"riam":11961,"rant":11962,"roni":11963,"sae":11964,"tes":11965,"uitatem":11966,"wh":11967,"¤ãĥ":11968,"Äķ":11969,"å¥":11970,"åĮ":11971,"eratus":11972,"Ġax":11973,"Ġseri":11974,"itque":11975,"inxit":11976,"Ġquand":11977,"Ġquacumque":11978,"Ġpens":11979,"atch":11980,"ami":11981,"onicae":11982,"Ġcentur":11983,"Ġcarent":11984,"Ġnerv":11985,"Ġnich":11986,"Ġmere":11987,"Ġmenda":11988,"Ġinnox":11989,"Ġineff":11990,"Ġinuicem":11991,"Ġvag":11992,"rel":11993,"Ġfonte":11994,"Ġficta":11995,"Ġfolia":11996,"imile":11997,"idos":11998,"ulerit":11999,"Ġadop":12000,"Ġreb":12001,"Ġreum":12002,"udens":12003,"abamus":12004,"Ġutrisque":12005,"oti":12006,"otes":12007,"otos":12008,"Ġdeponere":12009,"ĠIure":12010,"ĠIterum":12011,"ĠSeg":12012,"ĠScrib":12013,"ĠCulpa":12014,"ĠDur":12015,"estatem":12016,"Ġpraep":12017,"Ġpraefic":12018,"ratione":12019,"isticae":12020,"ĠPen":12021,"ĠPsal":12022,"ĠPuer":12023,"Ġseduc":12024,"Ġenum":12025,"ĠQuar":12026,"uitus":12027,"Ġquiditas":12028,"Ġpotuimus":12029,"aecumque":12030,"ĠMaecenas":12031,"Ġabut":12032,"Ġabdic":12033,"Ġabsit":12034,"Ġabhor":12035,"Ġuers":12036,"Ġrud":12037,"Ġrot":12038,"Ġoporter":12039,"ĠLicet":12040,"ĠHost":12041,"Ġamavit":12042,"ĠReb":12043,"ĠRusc":12044,"Ġpage":12045,"Ġincumb":12046,"Ġvolebam":12047,"ĠTenn":12048,"Ġpleraque":12049,"Ġnecatus":12050,"Ġnecnon":12051,"ĠVicip":12052,"ĠVivamus":12053,"ĠVindob":12054,"Ġunitate":12055,"Ġacceptum":12056,"ĠBell":12057,"ova":12058,"Ġdixero":12059,"Ġdixerint":12060,"Ġanimas":12061,"Ġlegavit":12062,"Ġveniant":12063,"Ġloquentem":12064,"ĠOx":12065,"ĠOly":12066,"Ġdoleo":12067,"Ġnumerat":12068,"Ġaudiret":12069,"Ġimplet":12070,"Ġquibuscum":12071,"itasse":12072,"Ġduarum":12073,"Ġout":12074,"Ġnaturalem":12075,"Ġcommunitas":12076,"Ġdebeatur":12077,"ĠSedes":12078,"Ġagno":12079,"Ġacquiesc":12080,"Ġurbium":12081,"Ġtrac":12082,"Ġcurat":12083,"Ġremota":12084,"Ġdiscept":12085,"Ġnominatur":12086,"itudin":12087,"ugium":12088,"Ġcognitam":12089,"diffic":12090,"Ġfortes":12091,"Ġrecre":12092,"Ġrecurr":12093,"Ġactionibus":12094,"Ġconfecta":12095,"Ġdelet":12096,"Ġinfantes":12097,"Ġpraecepisti":12098,"Ġ500":12099,"Ġcaritatis":12100,"ĠAmas":12101,"Ġcolum":12102,"Ġmatri":12103,"Ġmattis":12104,"Ġlabeo":12105,"Ġmoreretur":12106,"Ġdoce":12107,"Ġvisit":12108,"Ġneglig":12109,"Ġdominium":12110,"Ġprincipis":12111,"Ġcertamen":12112,"Ġfugerunt":12113,"Ġ72":12114,"ĠAraris":12115,"Ġquaeram":12116,"Ġducitur":12117,"Ġducatus":12118,"Ġfamam":12119,"Ġmutatur":12120,"ordin":12121,"Ġcognosceret":12122,"Ġappellati":12123,"Ġpetit":12124,"Ġpeteret":12125,"Ġceterum":12126,"Ġstudiose":12127,"uctae":12128,"Ġlaudis":12129,"Ġprocedit":12130,"Ġintelligentiae":12131,"Ġmensam":12132,"ĠBras":12133,"Ġaperitur":12134,"Ġpeccat":12135,"Ġcontrariae":12136,"ãģª":12137,"Ġsignificet":12138,"ĠXIV":12139,"ĠMaximus":12140,"Ġaequa":12141,"ÑģÑı":12142,"Ġsimulac":12143,"ricem":12144,"Ġdifferant":12145,"Ġtributa":12146,"Ġadversariis":12147,"Ġbeatissimum":12148,"Ġgravem":12149,"Ġmandavi":12150,"Ġlicitum":12151,"Ġmiseram":12152,"Ġaeternus":12153,"Ġobsid":12154,"Ġsecundae":12155,"Ġinstitu":12156,"Ġpermut":12157,"Ġlaeta":12158,"Ġdicturus":12159,"Ġpugnam":12160,"Ġdelector":12161,"Ġreperio":12162,"Ġpaucorum":12163,"Ġmeliores":12164,"Ġnobili":12165,"ĠAliud":12166,"Ġlacess":12167,"Ð°Ð¹":12168,"Ġcorrip":12169,"Ġrogare":12170,"lement":12171,"Ġpericuli":12172,"Ġ1948":12173,"Ġ1949":12174,"Ġrevera":12175,"Ġmaritum":12176,"Ġmarito":12177,"Ġludo":12178,"Ġnarravit":12179,"Ġfeminarum":12180,"Ġaugur":12181,"Ġmissi":12182,"Ġambulabat":12183,"Ġdivisio":12184,"Ġcastrum":12185,"Ġdiversum":12186,"Ġcomposuit":12187,"Ġsorore":12188,"Ġfideicomm":12189,"Ġpretiosa":12190,"Ġiniquum":12191,"Ġcircumcid":12192,"Ġpassim":12193,"ĠParisi":12194,"Ġintrare":12195,"Ġsystem":12196,"Ġparentum":12197,"Ġvincitur":12198,"Ġindex":12199,"Ġscelera":12200,"Ġnatalis":12201,"Ġnationibus":12202,"Ġfundi":12203,"Ġperpetua":12204,"Ġfeceritis":12205,"Ġfeles":12206,"Ġcondicionem":12207,"ĠMediol":12208,"Ġconcedi":12209,"Ġcrimina":12210,"Ġrelinquere":12211,"Ġcommoda":12212,"Ġsempiternam":12213,"ĠCatholica":12214,"Ġelegantiam":12215,"Ġgeneratio":12216,"Ġindiget":12217,"Ġaltius":12218,"Ġaltitudo":12219,"ĠImperator":12220,"ĠMinime":12221,"Ġ1853":12222,"Ġtabernac":12223,"Ġinstar":12224,"ĠAfricae":12225,"Ġxii":12226,"Ġdeducta":12227,"Ġparticipes":12228,"ourt":12229,"Ġsomnium":12230,"Ġhoram":12231,"Ġcadunt":12232,"Ġproficisci":12233,"ĠProinde":12234,"Ġmunicipia":12235,"Ġsumptum":12236,"Ġaccepti":12237,"Ġ1860":12238,"Ġmeminit":12239,"Ġnubes":12240,"Ġintegra":12241,"Ġdurius":12242,"Ġinquiunt":12243,"Ġdelictum":12244,"Ġquaerebamus":12245,"Ġcapitulo":12246,"Ġgregem":12247,"ĠSequi":12248,"Ġueritate":12249,"Ġinsipientes":12250,"Ġinsipientium":12251,"Ġuoluntate":12252,"Ġpollicetur":12253,"Ġacceperat":12254,"Ġ1806":12255,"Ġpercept":12256,"Ġmultiplex":12257,"ĠMaximum":12258,"Ġpastor":12259,"Ø§ÙĦ":12260,"Ġnonnullis":12261,"Ġremansit":12262,"Ġconsummati":12263,"Ġuiuere":12264,"Ġparticeps":12265,"Ġcontentione":12266,"ĠJudae":12267,"Ġcotidieque":12268,"ĠSabaudiae":12269,"Ġevangeliz":12270,"ience":12271,"Interrog":12272,"ĠPraecl":12273,"Ġprimogenitus":12274,"Ġconsiderata":12275,"Temporibus":12276,"sicut":12277,"Nulla":12278,"Ġcenam":12279,"Ġrequire":12280,"ĠCeterum":12281,"ĠGratias":12282,"Ġdextram":12283,"ĠNapoleo":12284,"Ġvestigia":12285,"Ġegregium":12286,"ĠEvangelium":12287,"Ġabbas":12288,"ĠDeserunt":12289,"Ġbasil":12290,"????????":12291,"Ġabscondit":12292,"Ġabscondi":12293,"Secundum":12294,"ĠAvic":12295,"æĹ¥":12296,"Ġexhered":12297,"ĠTreb":12298,"ĠDemocritus":12299,"10883628":12300,"Ġprouinc":12301,"Ġdiluvii":12302,"Ġcotidiana":12303,"Ġtranquill":12304,"Ġdeterritum":12305,"Ġinflammat":12306,"ĠSaeculo":12307,"Ġpernici":12308,"ipublicae":12309,"ĠSyracus":12310,"Ġoporteret":12311,"!)":12312,"839":12313,"Col":12314,"Grat":12315,"Hac":12316,"Iust":12317,"Tert":12318,"cas":12319,"cons":12320,"dis":12321,"dific":12322,"ford":12323,"ier":12324,"iano":12325,"ker":12326,"ml":12327,"tas":12328,"vus":12329,"veris":12330,"xisse":12331,"ya":12332,"»¿":12333,"Î®":12334,"å½":12335,"åĨ":12336,"è¡":12337,"Ġic":12338,"Ġlius":12339,"Ġ01":12340,"Ġ....":12341,"Ġelic":12342,"eru":12343,"Ġsh":12344,"inone":12345,"Ġpensa":12346,"Ġpsal":12347,"atarum":12348,"onos":12349,"Ġcale":12350,"Ġceperunt":12351,"ĠcÅĵ":12352,"aest":12353,"Ġdate":12354,"Ġdaretur":12355,"Ġindi":12356,"Ġinpr":12357,"Ġinquir":12358,"Ġineptum":12359,"ics":12360,"icul":12361,"ical":12362,"icitur":12363,"Ġvov":12364,"Ġvast":12365,"Ġtarn":12366,"rea":12367,"reta":12368,"Ġferat":12369,"ence":12370,"image":12371,"Ġhel":12372,"idior":12373,"iditas":12374,"Ġpror":12375,"ĠprÃ¦c":12376,"oles":12377,"olvit":12378,"Ġadfic":12379,"ocendi":12380,"Ġlitus":12381,"aca":12382,"Ġutar":12383,"Ġutilis":12384,"Ġuteretur":12385,"ele":12386,"opat":12387,"Ġexstat":12388,"Ġquamque":12389,"ĠSuet":12390,"ĠCen":12391,"ĠDig":12392,"ipiam":12393,"Ġperire":12394,"Ġauth":12395,"ĠPun":12396,"Ġcogitur":12397,"quamquam":12398,"enso":12399,"Ġhabuisse":12400,"ĠNatus":12401,"Ġscias":12402,"Ġsciri":12403,"Ġsciebat":12404,"uctus":12405,"Ġpoteram":12406,"ebor":12407,"ortis":12408,"Ġverso":12409,"Ġipsarum":12410,"ander":12411,"Ġope":12412,"Ġopert":12413,"available":12414,"ĠLo":12415,"Ġamamus":12416,"Ġpaginae":12417,"ĠFerdin":12418,"Ġincepit":12419,"ĠTanta":12420,"Ġplanum":12421,"ĠVbi":12422,"Ġsolitudo":12423,"ingit":12424,"ĠGra":12425,"Ġintest":12426,"Ġcontendere":12427,"Ġcommissa":12428,"Ġinterven":12429,"Ġfuere":12430,"Ġfuisses":12431,"Ġorigin":12432,"Ġlibrorum":12433,"Ġsecuta":12434,"epos":12435,"Ġdixerim":12436,"rane":12437,"ĠOg":12438,"ĠInstit":12439,"Ġsero":12440,"Ġsubdit":12441,"Ġaudeat":12442,"Ġobed":12443,"Ġannuntia":12444,"Ġsimilibus":12445,"resso":12446,"Ġdebebat":12447,"Ġagendi":12448,"Ġputantur":12449,"Ġputavit":12450,"Ġistos":12451,"Ġcures":12452,"Ġdivino":12453,"Ġiuribus":12454,"Ġreprob":12455,"ĠâĢŀ":12456,"Ġdecur":12457,"Ġasino":12458,"Ġdeserta":12459,"iciuntur":12460,"Ġintellecta":12461,"ĠFrancorum":12462,"ĠFrancogallic":12463,"Ġrecent":12464,"Ġgratius":12465,"Ġscribimus":12466,"Ġconferunt":12467,"Ġinvito":12468,"Ġvivus":12469,"height":12470,"Ġfratern":12471,"Ġinsunt":12472,"Ġinscrib":12473,"Ġteneat":12474,"Ġplaceret":12475,"Ġvideas":12476,"Ġprovidere":12477,"Ġfiebant":12478,"Ġvisionem":12479,"Ġprobabis":12480,"Ġsalub":12481,"Ġingem":12482,"Ġtestem":12483,"Ġintellegis":12484,"ĠPros":12485,"ĠProph":12486,"Ġvicem":12487,"Ġmutata":12488,"Ġmutuam":12489,"ĠJerusalem":12490,"Ġaccipiatur":12491,"Ġreliquorum":12492,"Ġceteras":12493,"possumus":12494,"position":12495,"Ġsenectus":12496,"Ġphil":12497,"Ġ121":12498,"Ġ126":12499,"strorum":12500,"Ġstatuta":12501,"Ġstatutum":12502,"inamur":12503,"Ġintelligatur":12504,"Ġmensem":12505,"Ġmillia":12506,"Ġsacris":12507,"ĠSane":12508,"Ġaccusatus":12509,"Ġsubiect":12510,"Ġsubiecit":12511,"Ġsignificantur":12512,"Ġcupit":12513,"Ġrectissime":12514,"ĠMaur":12515,"Ġ133":12516,"Ġ138":12517,"Ġthey":12518,"Ġtheir":12519,"ĠOmnium":12520,"name":12521,"ĠIoanne":12522,"rico":12523,"ricis":12524,"Ġmovent":12525,"Ġultro":12526,"Ġultimo":12527,"Ġnoctu":12528,"Ġconvenerunt":12529,"Ġthem":12530,"Ġperfectiones":12531,"Ġdonata":12532,"Ġquaestionis":12533,"Ġ107":12534,"Ġuniversum":12535,"Ġferri":12536,"ĠWe":12537,"ĠWil":12538,"Ġmirabantur":12539,"Ġargenti":12540,"Ġdebetis":12541,"lay":12542,"Ġexplicare":12543,"Ġfamiliarem":12544,"Ġamput":12545,"oriarum":12546,"Ġchat":12547,"Ġcogitationibus":12548,"Ġpraestet":12549,"Ġcalor":12550,"Ġdelectant":12551,"Ġhonesta":12552,"ĠNova":12553,"Ġcupiditatem":12554,"Ġfuroris":12555,"Ġopiniones":12556,"Deu":12557,"ĠAlii":12558,"Ġnuntiatum":12559,"Ð°Ð²":12560,"Ġprivatae":12561,"Ġcru":12562,"Ġconventum":12563,"Ġpropositio":12564,"ĠIntern":12565,"Ġcasibus":12566,"Ġ1992":12567,"Ġafflic":12568,"ĠHispaniam":12569,"Ġmariti":12570,"Ġimagine":12571,"ixum":12572,"Ġgestorum":12573,"Ġnavium":12574,"Ġconiunctionem":12575,"Ġscripserit":12576,"Ġignorare":12577,"Ġcompositionem":12578,"Ġadhibetur":12579,"Ġscriptoribus":12580,"Ġscholis":12581,"Ġordinatus":12582,"Ġeuangeli":12583,"Ġiniquitas":12584,"Ġcomparatur":12585,"Ġpassiones":12586,"ĠDecisiones":12587,"Ġturpiter":12588,"Ġcreaturam":12589,"Ġconsumere":12590,"Ġ1960":12591,"Ġsuscept":12592,"Ġpauperes":12593,"Ġglob":12594,"ĠCler":12595,"Ġrestitui":12596,"ĠBritannicus":12597,"ĠDolores":12598,"Ġaccedunt":12599,"Ġfesto":12600,"Ġfestiv":12601,"Ġgenerationem":12602,"Ġsingularis":12603,"Ġcibo":12604,"Ġ1858":12605,"Ġconfirmatae":12606,"Ġapostolis":12607,"Ġ1958":12608,"Ġtaberna":12609,"Ġsollicitudin":12610,"errimus":12611,"Ġcommendat":12612,"Ġiuvare":12613,"Ġproportionem":12614,"Ġadiuvat":12615,"ĠEsiae":12616,"Ġcessat":12617,"Ġmyst":12618,"ĠScipione":12619,"Ġsolidum":12620,"ĠSecundo":12621,"Ġtyp":12622,"Ġperficere":12623,"Ġdecrevit":12624,"ventore":12625,"ĠGenesis":12626,"ĠZenonis":12627,"Ġministerium":12628,"Ġadulescens":12629,"Ġaccesseris":12630,"Ġfingunt":12631,"Ġrequirit":12632,"ĠSequitur":12633,"Ġventurus":12634,"Ġproprietates":12635,"ÎµÎ¹":12636,"20000":12637,"Ġcatholicae":12638,"Ġpopularis":12639,"ĠAcademiam":12640,"Ġedicto":12641,"Ġpoetarum":12642,"Ġconfusionem":12643,"Ġconcupisces":12644,"Ġhodiernum":12645,"Ġnutri":12646,"Ġexprimere":12647,"Ġclericus":12648,"Ġpermittitur":12649,"Ġconcipi":12650,"Ġoblivisc":12651,"ĠSyriam":12652,"Ġcrescit":12653,"Ġpictura":12654,"ĠOport":12655,"Ġadmirationis":12656,"Ġnudus":12657,"Ġimportat":12658,"Ġmaledicta":12659,"Ġprocurator":12660,"Ġsacramentum":12661,"Ġlacrimae":12662,"Ġloquamur":12663,"Ġrationalis":12664,"ĠDietam":12665,"Ġnoctibus":12666,"domad":12667,"Ġmediocri":12668,"ackson":12669,"Ġobtulit":12670,"ĠCeltae":12671,"Ġfontes":12672,"Ġredeamus":12673,"Ġpontificatus":12674,"Ġhomic":12675,"ĠÐ¾Ð±":12676,"Ġblasph":12677,"Ġcomplexus":12678,"Ġillustris":12679,"Ġbenedicat":12680,"Ġterminos":12681,"Ġmedicina":12682,"ÑĨÐ¸":12683,"uthrot":12684,"ĠElisatia":12685,"Ġcarmina":12686,"Ġverecund":12687,"Ġmaerore":12688,"Ġcoercendi":12689,"\":[\"":12690,"Ġceleritate":12691,"ĠOrient":12692,"Variants":12693,"Ġadiunxit":12694,"ighly":12695,"ĠCongreg":12696,"ĠFridericus":12697,"Ġnongentesimo":12698,"Ġsugg":12699,"ĠNorvegiae":12700,"ĠHierosoly":12701,"Ġsepeli":12702,"Urbs":12703,"ĠEphraim":12704,"ĠTennesiae":12705,"02":12706,":[":12707,"://":12708,"=\"":12709,"?âĢĿ.":12710,"Aud":12711,"Beat":12712,"Cl":12713,"Cat":12714,"Download":12715,"Edit":12716,"Ius":12717,"Iab":12718,"KG":12719,"Of":12720,"Sub":12721,"Super":12722,"Vid":12723,"aque":12724,"du":12725,"dere":12726,"featured":12727,"ges":12728,"gar":12729,"hum":12730,"ira":12731,"iemus":12732,"sub":12733,"tionis":12734,"uuntur":12735,"vum":12736,"Ã¸":12737,"áŀ":12738,"å°":12739,"åĩ":12740,"æ°":12741,"ï»¿":12742,"ĠÏĥ":12743,"Ġedixit":12744,"ery":12745,"erven":12746,"Ġavers":12747,"Ġses":12748,"inu":12749,"Ġqualiter":12750,"Ġpont":12751,"ntur":12752,"Ġcf":12753,"Ġcari":12754,"Ġcedit":12755,"Ġdetur":12756,"Ġdentes":12757,"Ġdans":12758,"Ġdatam":12759,"Ġmen":12760,"Ġton":12761,"utes":12762,"utas":12763,"utiae":12764,"reliqua":12765,"Ġfato":12766,"Ġfreg":12767,"lixit":12768,"enia":12769,"omi":12770,"imet":12771,"imarum":12772,"etia":12773,"ette":12774,"arm":12775,"eck":12776,"entae":12777,"entos":12778,"Ġnonaginta":12779,"Ġpriori":12780,"iavit":12781,"ialibus":12782,"Ġadaequ":12783,"Ġlatus":12784,"Ġlate":12785,"elo":12786,"asque":12787,"Ġdeae":12788,"ald":12789,"alitatis":12790,"Ġexord":12791,"Ġexinde":12792,"Ġexponere":12793,"Ġexamin":12794,"ĠAug":12795,"ĠAliqu":12796,"ĠSta":12797,"ĠSoph":12798,"agement":12799,"ĠCath":12800,"ĠCity":12801,"omnes":12802,"ĠDor":12803,"ĠDid":12804,"ĠDisc":12805,"ĠDign":12806,"Ġpersequi":12807,"Ġbel":12808,"Ġbeg":12809,"ected":12810,"ĠPisc":12811,"ĠPad":12812,"ĠPKG":12813,"omina":12814,"Ġgal":12815,"Ġgentis":12816,"Ġgeruntur":12817,"now":12818,"Ġcoempt":12819,"ĠQuinct":12820,"ĠQuicquid":12821,"ensam":12822,"ensione":12823,"Ġhabito":12824,"Ġposc":12825,"Ġposit":12826,"Ġsciebam":12827,"Ġpotentes":12828,"undam":12829,"ebimus":12830,"ĠMM":12831,"arest":12832,"ortus":12833,"Ġposses":12834,"Ġabhinc":12835,"Ġup":12836,"Ġerrat":12837,"Ġerog":12838,"ĠHos":12839,"ĠHarum":12840,"Ġcaud":12841,"ĠRa":12842,"ĠRest":12843,"ĠRup":12844,"ĠRursus":12845,"ĠFann":12846,"Ġaliquantum":12847,"ĠTul":12848,"Ġplene":12849,"Ġnecati":12850,"ĠVi":12851,"ĠVil":12852,"ĠVero":12853,"ertatis":12854,"essi":12855,"Ġpotestati":12856,"Ġsolvit":12857,"ingere":12858,"ington":12859,"ĠBy":12860,"Ġcontulit":12861,"ullus":12862,"Ġorationes":12863,"Ġresusc":12864,"Ġsecuti":12865,"Ġsicc":12866,"Ġsto":12867,"Ġstans":12868,"Ġanimis":12869,"Ġminimo":12870,"Ġcorn":12871,"Ġlegiones":12872,"Ġfecissem":12873,"Ġloquente":12874,"Ġ1934":12875,"ĠOce":12876,"Ġaudiamus":12877,"Ġomnesque":12878,"Ġimpii":12879,"Ġmagnos":12880,"Ġmagnarum":12881,"ĠRome":12882,"Ġnaturali":12883,"Ġnaturales":12884,"respon":12885,"Ġdeberi":12886,"Ġnullas":12887,"Ġacadem":12888,"Ġputabant":12889,"Ġsuperv":12890,"ernis":12891,"Ġexpell":12892,"Ġmalit":12893,"Ġiudicibus":12894,"Ġamice":12895,"Ġdiscimus":12896,"Ġnominati":12897,"Ġdedocendi":12898,"Ġdesuper":12899,"Ġtotidem":12900,"Ġactionis":12901,"Ġdelecta":12902,"ĠÐ°":12903,"Ġeludet":12904,"Ġinfans":12905,"Ġclarum":12906,"Ġpraecepi":12907,"Ġcariorem":12908,"Ġcredas":12909,"Ġdefini":12910,"Ġoptimo":12911,"Ġdocendi":12912,"Ġproblem":12913,"Ġprobabantur":12914,"Ġcirculum":12915,"Ġprincipalis":12916,"Ġfugam":12917,"Ġsalt":12918,"ĠGraecam":12919,"Ġaeterno":12920,"Ġtumultus":12921,"eau":12922,"Ġimperfectum":12923,"Ġingress":12924,"Ġofficiorum":12925,"Ġsuspectum":12926,"Ġintellegimus":12927,"Ġsapientium":12928,"Ġhonorum":12929,"Ġcogitet":12930,"Ġaedem":12931,"Ġappellari":12932,"Ġappellatio":12933,"Ġreliquiae":12934,"Ġsuperest":12935,"Ġlaudari":12936,"Ġsenatui":12937,"Ġ122":12938,"Ġconstituere":12939,"Ġgloriose":12940,"Ġgloriatio":12941,"Ġodisse":12942,"Ġdiscipulum":12943,"Ġintelligimus":12944,"Ġmensuram":12945,"Ġsubstantias":12946,"Ġmuneris":12947,"Ġfactionem":12948,"Ġpraedicari":12949,"Ġmulieri":12950,"Ġcontrib":12951,"Ġlatet":12952,"ĠXIX":12953,"Ġsocios":12954,"Ġunaquaeque":12955,"Ġostendi":12956,"Ġ134":12957,"Ġ139":12958,"Ġaequalia":12959,"ĠQuamobrem":12960,"Ġ147":12961,"Ġregna":12962,"cripsit":12963,"Ġsingulae":12964,"Ġperfectionis":12965,"Ġpraecipiendum":12966,"Ġadditum":12967,"Ġ102":12968,"ĠIulio":12969,"Ġearumque":12970,"ĠThem":12971,"Ġconsulere":12972,"Ġmandatis":12973,"Ġmandato":12974,"Ġfamiliari":12975,"Ġinstituti":12976,"Ġreprehendit":12977,"Ġrefell":12978,"Ġeodemque":12979,"ĠAntiqu":12980,"ĠAntoni":12981,"Ġpermulta":12982,"Ġparvo":12983,"ĠGalaad":12984,"ĠIdibus":12985,"Ġpromis":12986,"Ġdictator":12987,"Ġerrores":12988,"Ġdilecta":12989,"Ġpugnat":12990,"Ġdelectet":12991,"Ġreperitur":12992,"Ġlibertus":12993,"Ġdescisc":12994,"Ð°Ð±":12995,"Ġdisputatum":12996,"Ġdisputationibus":12997,"Ġtenebitur":12998,"Ġ1996":12999,"Ġ1997":13000,"Ġnavem":13001,"iction":13002,"Ġsonat":13003,"Ġaugeri":13004,"recta":13005,"Ġfortunas":13006,"Ġcognoverunt":13007,"Ġmercator":13008,"ĠAugusto":13009,"Ġdivisa":13010,"ĠPauli":13011,"Ġmanifesta":13012,"Ġsocietates":13013,"Ġpossideat":13014,"Ġhorto":13015,"Ġreleg":13016,"ĠParth":13017,"Ġmentiri":13018,"Ġagnum":13019,"Ġvinculum":13020,"Ġmerita":13021,"Ġhier":13022,"Ġ1965":13023,"Ġ1966":13024,"Ġ1968":13025,"ĠDicitur":13026,"Ġplenitudinem":13027,"Ġsalva":13028,"ĠUrbis":13029,"Ġpraesides":13030,"ĠÎ¼":13031,"Ġpraemitt":13032,"Ġbestiarum":13033,"ĠLucius":13034,"Ġtacere":13035,"Ġstultitiam":13036,"Ġdeposita":13037,"Ġcomede":13038,"Ġ1982":13039,"ÐµÐ²":13040,"ÑģÑĤÐ²":13041,"Ġtollendam":13042,"ĠAnglia":13043,"Ġmoriar":13044,"Ġclamat":13045,"Ġtabernaculo":13046,"Ġabsolvi":13047,"Ġsuspicio":13048,"Ġsuspicione":13049,"Ġsilentio":13050,"ĠPotes":13051,"Ġimpetu":13052,"Ð¸Ð´":13053,"Ġconscientiam":13054,"Ġturbae":13055,"Arg":13056,"Ġmontibus":13057,"Ġpraepositum":13058,"Ġinquies":13059,"Ġuocatur":13060,"Ġartificio":13061,"Ġquaerebatis":13062,"ĠBooks":13063,"Ġdissimile":13064,"Ġcapitulum":13065,"Ġ1870":13066,"Ġinvidiae":13067,"Ġentis":13068,"Ġgreges":13069,"Ġlapis":13070,"Ġarea":13071,"Ġ1893":13072,"Ġeloquentiae":13073,"Ġpraebet":13074,"Ġ1803":13075,"Ġpopulari":13076,"Ġcubiculum":13077,"ĠFoederalem":13078,"Ġrespicit":13079,"Ãłm":13080,"Prov":13081,"Ġnuptiae":13082,"Ġtext":13083,"ĠApostolus":13084,"Ġhabitaverunt":13085,"burgum":13086,"Ġsuffragio":13087,"Ġsupplicium":13088,"ĠMalmog":13089,"Ġprocedunt":13090,"Ġpellic":13091,"Ġpellentesque":13092,"Ġdestru":13093,"ĠGeorgiae":13094,"Ġcolloquium":13095,"Ġdimitte":13096,"Ġeffugere":13097,"Ġconcordiae":13098,"Ġorigine":13099,"Ġsuperbia":13100,"Ġsuperbiam":13101,"ĠOccitania":13102,"Scio":13103,"Ġinvocabo":13104,"Ġborealis":13105,"Ġinconstant":13106,"Ġinconveniens":13107,"ĠTorquate":13108,"ĠMacedoniam":13109,"ĠHerod":13110,"ĠHerac":13111,"ĠLudovici":13112,"ĠCetera":13113,"æľ¬":13114,"ibiliora":13115,"Ġselectio":13116,"Ġconloqu":13117,"Maxim":13118,"Ġinterdictum":13119,"Ġceterarum":13120,"propter":13121,"Ġploravit":13122,"ĠPomponius":13123,"Ġredditae":13124,"Ġparens":13125,"ĠTriarius":13126,"Ġobscura":13127,"Ġsupponat":13128,"ĠFrater":13129,"Ġpraeponunt":13130,"Ġconfiteor":13131,"ĠSalomon":13132,"Ġhilaretur":13133,"ivoce":13134,"Ġpueritia":13135,"Ġdiapente":13136,"Ġpraediti":13137,"Ġdisciplinam":13138,"Ġspecialiter":13139,"https":13140,"1450839":13141,"Ġuberiora":13142,"Ġulterius":13143,"ĠHieronymus":13144,"ĠOrbis":13145,"ĠNobelianum":13146,"ĠÄĮerven":13147,"Ġinebri":13148,"ĠLugd":13149,"Ġproconsul":13150,"Ġprophetis":13151,"ĠRuscinone":13152,"\").":13153,"':":13154,"').":13155,"();":13156,".*":13157,">,":13158,">.":13159,"Com":13160,"Min":13161,"Molest":13162,"Opt":13163,"Offic":13164,"Par":13165,"Pers":13166,"SPD":13167,"UC":13168,"Vers":13169,"XV":13170,"bur":13171,"ces":13172,"dae":13173,"fit":13174,"fell":13175,"fecit":13176,"frag":13177,"iebant":13178,"mate":13179,"mentum":13180,"pol":13181,"pad":13182,"the":13183,"uj":13184,"viae":13185,"xisset":13186,"Âº":13187,"ÂĹ":13188,"Ã£":13189,"Ãı":13190,"Äĩ":13191,"ÅĤ":13192,"Ñī":13193,"åĽ":13194,"ĠÚ":13195,"Ġone":13196,"Ŀ¼":13197,"quant":13198,"umen":13199,"ument":13200,"erp":13201,"erne":13202,"Ġaerum":13203,"Ġsur":13204,"Ġsud":13205,"usum":13206,"usandae":13207,"inv":13208,"Ġpig":13209,"Ġpendere":13210,"Ġpictor":13211,"ativum":13212,"onas":13213,"Ġcul":13214,"Ġnunquid":13215,"aeo":13216,"stis":13217,"Ġdando":13218,"Ġdurum":13219,"Ġmili":13220,"Ġmost":13221,"Ġmisc":13222,"Ġmavis":13223,"oriam":13224,"uriam":13225,"urrent":13226,"Ġventum":13227,"Ġvini":13228,"Ġtir":13229,"Ġtectum":13230,"Ġtaed":13231,"Ġiv":13232,"Ġivit":13233,"requ":13234,"Ġfulg":13235,"Ġfelix":13236,"Ġhy":13237,"Ġhyp":13238,"anim":13239,"ulares":13240,"Ġpriore":13241,"eden":13242,"Ġreo":13243,"Ġrequis":13244,"Ġlacte":13245,"udit":13246,"ace":13247,"abimur":13248,"elum":13249,"ason":13250,"asch":13251,"ilud":13252,"otograph":13253,"Ġdelig":13254,"Ġsuarum":13255,"alum":13256,"alla":13257,"Ġconantur":13258,"Ġexstit":13259,"Ġextor":13260,"Ġexquir":13261,"ĠAri":13262,"ĠAdi":13263,"Ġanx":13264,"ĠSev":13265,"ĠCed":13266,"ĠCore":13267,"Ġdiligo":13268,"ĠDaniae":13269,"Ġquilibet":13270,"Ġdicent":13271,"estum":13272,"Quaes":13273,"Ġsedebat":13274,"ĠQuarum":13275,"Ġpositus":13276,"Ġposito":13277,"ĠNav":13278,"ĠMic":13279,"ĠMex":13280,"ĠModo":13281,"issam":13282,"ortes":13283,"Ġabout":13284,"Ġvidebam":13285,"Ġviduae":13286,"Ġuic":13287,"Ġuelle":13288,"Ġ218":13289,"Ġeras":13290,"ĠLB":13291,"ĠHo":13292,"ĠHorum":13293,"ĠHir":13294,"ĠHannib":13295,"Ġcaut":13296,"Ġcastrorum":13297,"Ġamissa":13298,"Ġamoen":13299,"ĠRel":13300,"Ġpaginas":13301,"Ġincrem":13302,"Ġcuipiam":13303,"ĠTab":13304,"ĠVers":13305,"essum":13306,"Ġungu":13307,"Ġaccidunt":13308,"ĠGod":13309,"ĠBis":13310,"Ġcontenti":13311,"ullo":13312,"Ġinteritum":13313,"Ġoratores":13314,"Ġpatientiam":13315,"Ġpatienter":13316,"Ġbonitatis":13317,"light":13318,"Ġstatio":13319,"Ġminu":13320,"Ġnostrud":13321,"Ġlocutionem":13322,"Ġloquimini":13323,"Ġ1912":13324,"Ġ1930":13325,"Ġ1932":13326,"ĠOdit":13327,"ĠInf":13328,"Ġquispiam":13329,"Ġincolis":13330,"Ġoblect":13331,"Ġscripti":13332,"Ġimpius":13333,"Ġimpub":13334,"Ġcuiusmodi":13335,"Ġcommunionem":13336,"iationis":13337,"Ġrationi":13338,"Ġvitulum":13339,"Ġvocamus":13340,"Ġistarum":13341,"Ġeamdem":13342,"Ġdivini":13343,"Ġ1814":13344,"Ġ1836":13345,"Ġassequ":13346,"Ġpopulis":13347,"Ġcompreh":13348,"ĠQuidem":13349,"Ġcognomen":13350,"Ġactibus":13351,"Ġconfl":13352,"Ġconfestim":13353,"Ġconferebamus":13354,"Ġvivimus":13355,"Ġpossitne":13356,"Ġsignavit":13357,"ĠAmic":13358,"Ġinsitam":13359,"veh":13360,"Ġnovas":13361,"Ġnoverunt":13362,"Ġoption":13363,"Ġdocebit":13364,"Ġhuiusce":13365,"Ġprobantur":13366,"Ġprobabile":13367,"Ġcirculo":13368,"Ġcertam":13369,"Ġcertior":13370,"Ġvestimenta":13371,"ĠArn":13372,"Ġjur":13373,"Ġquaeratur":13374,"Ġpecuniis":13375,"Ġpecunias":13376,"picio":13377,"asses":13378,"Ġdiligentiae":13379,"ĠQuaes":13380,"ferendis":13381,"cribi":13382,"Ġdignos":13383,"Ġdignitati":13384,"Ġexercere":13385,"ĠProb":13386,"Ġvicti":13387,"Ġmutu":13388,"Ġcogites":13389,"ÐµÑģ":13390,"Ġhumili":13391,"Ġcognosces":13392,"Ġaedium":13393,"Ġpetivit":13394,"llus":13395,"llam":13396,"Ġpatrono":13397,"posita":13398,"Ġbelle":13399,"Ġprovinciis":13400,"Ġproclam":13401,"Ġprocedere":13402,"Inde":13403,"Ġemitt":13404,"Ġemolum":13405,"Ġexistis":13406,"Ġfaciebant":13407,"Ġlatron":13408,"ãģĵ":13409,"Ġspecialis":13410,"Ġfalsi":13411,"Ġsignificans":13412,"Ġimmorta":13413,"Ġrectus":13414,"Ġ131":13415,"ĠGermanicae":13416,"Ġregnavitque":13417,"Ġepiscopos":13418,"Ġdifflu":13419,"Ġmoventur":13420,"Ġnocet":13421,"Ġnocent":13422,"Ġlucri":13423,"Ġconveniant":13424,"Ġthron":13425,"Ġprodux":13426,"Ġferoc":13427,"Ġtradita":13428,"Ġevol":13429,"Ġedidit":13430,"Ġlicere":13431,"Ġlicentia":13432,"Ġarbitra":13433,"Ġnoluisti":13434,"Ġexempli":13435,"Ġchili":13436,"Ġparvae":13437,"Ġdissip":13438,"ĠIdque":13439,"Ġepistularum":13440,"Ġdenunt":13441,"Ġattulit":13442,"Ð¾Ðº":13443,"ĠChristianae":13444,"ĠPraemium":13445,"Ġaves":13446,"Ġavia":13447,"ĠIllae":13448,"Ġverax":13449,"Ġoneris":13450,"Ġonly":13451,"ĠCaroli":13452,"Ġalienae":13453,"Ġhonestius":13454,"Ġproxima":13455,"Ġproximis":13456,"Ġliberti":13457,"Ġquotidi":13458,"ĠCatone":13459,"Ġportum":13460,"Ġportas":13461,"Ġsuscipere":13462,"Ġequorum":13463,"ĠAlio":13464,"Ġingeni":13465,"ĠPerse":13466,"Ġperditum":13467,"Ġludere":13468,"Ġimaginamur":13469,"Ġgestis":13470,"Ġpedum":13471,"Ġaugetur":13472,"Numquid":13473,"ĠSeptem":13474,"Ġambulat":13475,"Ġconiunctae":13476,"Ġdamni":13477,"Ġdimic":13478,"Ġexspectamus":13479,"ologia":13480,"Ġduxerit":13481,"ĠIacobi":13482,"Ġpervenerunt":13483,"Ġordinatur":13484,"Ġfree":13485,"Ġrelationem":13486,"Ġpassuum":13487,"ĠParlam":13488,"allust":13489,"Ġmentio":13490,"Ġcustodia":13491,"Ġvincla":13492,"Ġ1975":13493,"Ġturpitudinem":13494,"Ġmilitari":13495,"Ġfundamenta":13496,"Ġpleni":13497,"Ġfelices":13498,"Ġcondiciones":13499,"Ġpauperibus":13500,"Ġexperi":13501,"Ġcrimin":13502,"Ġrelinquo":13503,"Ġpostulet":13504,"Ġcelebrat":13505,"Ġpoenas":13506,"Ġelecti":13507,"Ġsufficiat":13508,"Ġotiosus":13509,"Ġfacultatibus":13510,"Ġdioecesim":13511,"Ġvendibiliora":13512,"Ġscitote":13513,"ĠLaur":13514,"Ġvehementius":13515,"Ġobiect":13516,"Ġadducet":13517,"ĠAthenas":13518,"ĠRead":13519,"Ġloquebamur":13520,"Ġvocabulis":13521,"Ġconprehend":13522,"ĀĀĀ":13523,"Ġornare":13524,"Ġduodev":13525,"Ġhabebitis":13526,"ĠValle":13527,"Ġmeminerimus":13528,"Ġcecidi":13529,"Arch":13530,"Ġgladius":13531,"Ġpercipitur":13532,"Ġpraefuit":13533,"ĠRussica":13534,"ĠZenoni":13535,"Ġcollegium":13536,"Praes":13537,"ĠQuinto":13538,"Ġinvidiam":13539,"ĠSyn":13540,"Ġhospitio":13541,"ĠEuropaeae":13542,"Ġarbor":13543,"Ġexcellentiae":13544,"Ġprecibus":13545,"Ġvulgi":13546,"Ġpraeparabit":13547,"Ġrespice":13548,"Ġconfitetur":13549,"ĠJesu":13550,"Ġeclips":13551,"ĠQuibusdam":13552,"Ġuerbis":13553,"ĠMaxime":13554,"Ġomittamus":13555,"Ġconciperetur":13556,"Ġsubtilius":13557,"ĠSeptentrione":13558,"Ġdomestica":13559,"Ġcustodierit":13560,"ERO":13561,"Ġcordibus":13562,"Ġaccipienda":13563,"Ġcomplures":13564,"Ġconiungi":13565,"Ġgignuntur":13566,"Ġbarbaris":13567,"ĠPraeses":13568,"Ġdemonstratio":13569,"ĠRespondit":13570,"Ġvetustatem":13571,"Ġbenigne":13572,"Ġdisplicuit":13573,"Ġdistinguitur":13574,"Ġavaritias":13575,"Ġdemonstrari":13576,"ĠAnglica":13577,"Magister":13578,"Ġafficere":13579,"Ġdesidero":13580,"Ġfornicati":13581,"Ġrespondeas":13582,"Ġattende":13583,"ĠAfricam":13584,"ĠÃ¦ter":13585,"ĠÃ¦dific":13586,"Ġpersecutus":13587,"ĠBeatrix":13588,"Ġrescrips":13589,"Ġterminus":13590,"Ġsurgere":13591,"ĠMacedonia":13592,"ĠVictor":13593,"Ġcontigit":13594,"ĠPlaceat":13595,"Ġvaletudinem":13596,"ĠMolestias":13597,"Ġabsconditum":13598,"Ġsyllabae":13599,"Ġinnumerabilia":13600,"Ġrepugnet":13601,"Luk":13602,"Theod":13603,"ĠOfficia":13604,"Ġconsuevit":13605,"Ġthesauris":13606,"Ġconsideret":13607,"Ġconscripti":13608,"ĠPhilippus":13609,"ĠLongum":13610,"ÐµÐ»ÑĮ":13611,"Ġeximia":13612,"Ġremissionem":13613,"Ġinscitiae":13614,"Ġsaxum":13615,"ĠXenoph":13616,"Ġincognita":13617,"ĠLusit":13618,"Ġtutelae":13619,"Ġfronte":13620,"Ġpatefactio":13621,"Ġnesciebatis":13622,"Ġevacu":13623,"ĠTitularis":13624,"ĠGalilae":13625,"ĠWestph":13626,"oncili":13627,"Ġpropinqui":13628,"ĠPyrrho":13629,"ĠTerrarum":13630,"Ġincorpor":13631,"Ġwebsite":13632,"Ġutebare":13633,"Ġcaerule":13634,"Ġoccurrentia":13635,"ĠâĹī":13636,"ĠOlymp":13637,"ĠAvicenna":13638,"Ġinprudens":13639,"Ġopertarum":13640,"&@Ąą":13641,"App":13642,"Be":13643,"Dum":13644,"Erat":13645,"Homin":13646,"LXXX":13647,"Occ":13648,"Tur":13649,"ij":13650,"las":13651,"lad":13652,"mina":13653,"mortuus":13654,"ount":13655,"pio":13656,"sol":13657,"tius":13658,"uz":13659,"uque":13660,"uitate":13661,"ych":13662,"²½":13663,"Âª":13664,"ÃŁ":13665,"Å«":13666,"åĬ":13667,"æ±":13668,"æĿ":13669,"ê²½":13670,"Ġecc":13671,"Ġevit":13672,"Ġerect":13673,"erare":13674,"Ġaen":13675,"Ġaeris":13676,"Ġave":13677,"inta":13678,"Ġpect":13679,"atior":13680,"amem":13681,"Ġci":13682,"Ġnato":13683,"Ġnactus":13684,"Ġdato":13685,"Ġmitter":13686,"orae":13687,"orro":13688,"icon":13689,"Ġvariae":13690,"ĠfÅĵ":13691,"omata":13692,"esuada":13693,"Ġhad":13694,"odia":13695,"arz":13696,"ardi":13697,"idel":13698,"ular":13699,"ularibus":13700,"ents":13701,"entissimi":13702,"oln":13703,"Ġadium":13704,"ocles":13705,"ocutus":13706,"Ġly":13707,"Ġlar":13708,"Ġlink":13709,"Ġquodlibet":13710,"acor":13711,"acium":13712,"aberis":13713,"Ġutili":13714,"elic":13715,"iuss":13716,"ily":13717,"Ġdefect":13718,"Ġdefectum":13719,"ĠsuÃ¦":13720,"aldus":13721,"Ġconatur":13722,"Ġconect":13723,"Ġconuers":13724,"Ġexar":13725,"Ġexequ":13726,"ĠElect":13727,"ĠAevo":13728,"ĠIf":13729,"ĠSing":13730,"ĠCop":13731,"ĠClar":13732,"ĠCave":13733,"omnia":13734,"esto":13735,"ester":13736,"estis":13737,"tera":13738,"Ġfacet":13739,"Ġfaceres":13740,"Ġpraeval":13741,"Ġpraeiudic":13742,"ituri":13743,"ĠPres":13744,"ĠPugn":13745,"ĠPulch":13746,"ĠPellentesque":13747,"Ġsedecim":13748,"perem":13749,"ensae":13750,"ĠNolo":13751,"Ġsciamus":13752,"Ġeiusmod":13753,"Ġpotior":13754,"ĠMea":13755,"ĠMach":13756,"ĠMesop":13757,"orth":13758,"Ġsequamur":13759,"Ġsequebatur":13760,"ande":13761,"Ġveloc":13762,"Ġvideram":13763,"Ġuet":13764,"Ġ250":13765,"Ġrar":13766,"Ġrig":13767,"Ġritum":13768,"Ġsitis":13769,"aviae":13770,"averimus":13771,"ĠLux":13772,"ĠLup":13773,"Ġnew":13774,"ĠFur":13775,"ĠForum":13776,"ĠFund":13777,"Ġparere":13778,"Ġincont":13779,"Ġincarnationis":13780,"Ġcuilibet":13781,"Ġvolet":13782,"ĠTac":13783,"ĠTitum":13784,"ĠTullius":13785,"Ġplenus":13786,"essal":13787,"ĠGlor":13788,"ĠGracch":13789,"Ġintrinsecus":13790,"ĠBonus":13791,"ĠButhrot":13792,"Ġcontenta":13793,"Ġcontendit":13794,"Ġcommisc":13795,"igil":13796,"igeniti":13797,"Ġfuisti":13798,"Ġfuerim":13799,"Ġoratoris":13800,"Ġlibet":13801,"Ġresurg":13802,"Ġpatern":13803,"Ġregit":13804,"Ġregulae":13805,"Ġstella":13806,"Ġstellae":13807,"Ġcreator":13808,"Ġarcus":13809,"Ġcoron":13810,"Ġcorrept":13811,"Ġfecerant":13812,"Ġvenissent":13813,"Ġlocut":13814,"Ġ1921":13815,"ĠOth":13816,"ĠOreg":13817,"ĠOdio":13818,"ĠOhii":13819,"Ġdolus":13820,"Ġspre":13821,"ĠInv":13822,"Ġalta":13823,"Ġuse":13824,"Ġoculum":13825,"Ġposthac":13826,"ifice":13827,"Ġmanete":13828,"levit":13829,"Ġdomos":13830,"Ġimpiorum":13831,"Ġou":13832,"Ġgenua":13833,"ĠAnato":13834,"Ġsemine":13835,"Ġpartus":13836,"Ġpraesentis":13837,"Ġvitiose":13838,"Ġcogitas":13839,"Ġcuro":13840,"Ġcuria":13841,"Ġcuriam":13842,"Ġcuravit":13843,"nea":13844,"Ġsuperavit":13845,"Ġsuperfl":13846,"Ġexpletum":13847,"Ġmalesuada":13848,"Ġiudicum":13849,"Ġcivilibus":13850,"Ġamicam":13851,"Ġamicitiarum":13852,"Ġnominata":13853,"Ġnominavit":13854,"ugg":13855,"Ġcognatione":13856,"Ġconcessit":13857,"Ġconcurr":13858,"Ġconceptus":13859,"Ġmollibus":13860,"Ġlitem":13861,"Ġscribae":13862,"Ġscribens":13863,"Ġactiv":13864,"elia":13865,"elior":13866,"ĠRomanam":13867,"Ġiustis":13868,"Ġvivis":13869,"Ġvivens":13870,"ĠSign":13871,"Ġpraecessit":13872,"ĠAmb":13873,"Ġinspi":13874,"Ġinsanos":13875,"Ġcolebat":13876,"Ġperscrib":13877,"Ġlaboribus":13878,"Ġcredat":13879,"Ġcredens":13880,"Ġcreduntur":13881,"Ġcrediderit":13882,"Ġmorbi":13883,"Ġmoriatur":13884,"Ġfecitque":13885,"tique":13886,"Ġoppressus":13887,"iensem":13888,"Ġexcid":13889,"Ġprobas":13890,"Ġinveneris":13891,"Ġdominis":13892,"Ġredund":13893,"Ġreditum":13894,"Ġprincipum":13895,"Ġcerti":13896,"Ġcertius":13897,"Ġcertissimum":13898,"Ġsummis":13899,"Ġsummae":13900,"unctum":13901,"unction":13902,"Ġjure":13903,"ĠGraecarum":13904,"Ġductum":13905,"aretra":13906,"Ġsancte":13907,"Ġundecim":13908,"Ġdiligamus":13909,"Ġextr":13910,"Ġextoll":13911,"Ġnecessariae":13912,"Ġplurium":13913,"Ġvicissim":13914,"Ġhonos":13915,"ĠJeh":13916,"Ġigne":13917,"Ġignota":13918,"Ġappello":13919,"Ġpetitionem":13920,"Ġstudeo":13921,"uctionem":13922,"Ġpertinebat":13923,"Ġsenem":13924,"Ġphantas":13925,"Ġpharetra":13926,"Ġ127":13927,"Inc":13928,"Ġtantus":13929,"Ġmensur":13930,"Ġmensura":13931,"ĠConstit":13932,"ĠCondit":13933,"Ġfactorum":13934,"Ġfaciemus":13935,"Ġaperuit":13936,"Ġaccusator":13937,"iform":13938,"Ġfalso":13939,"Ġliberalis":13940,"Ġviarum":13941,"Ġ135":13942,"temberg":13943,"Ð½Ð°":13944,"Ġquantus":13945,"Ġquantae":13946,"lish":13947,"evum":13948,"Ġdemocrat":13949,"Ġtherm":13950,"Ġsingulorum":13951,"Ġprodig":13952,"Ġdono":13953,"Ġportare":13954,"Ġ104":13955,"Ġtributum":13956,"Ġtribuere":13957,"Ġuniversi":13958,"Ġuniversitatem":13959,"Ġuniversitatis":13960,"Ġferr":13961,"Ġadversarii":13962,"Ġtraditus":13963,"Ġtradiderunt":13964,"Ġveterrima":13965,"Ġpossessionis":13966,"Ġmonet":13967,"limus":13968,"Ġconsulatus":13969,"ĠRegis":13970,"Ġaudiebat":13971,"Ġpulcher":13972,"Ġpulchrae":13973,"Ġlicuit":13974,"Ġhabeantur":13975,"Ġamplect":13976,"ĠSpec":13977,"Ġnolle":13978,"Ġnolui":13979,"Ġchord":13980,"Ġpermis":13981,"Ġpermans":13982,"Ġcalli":13983,"Ġnegotiis":13984,"Ġpromov":13985,"Ġdeport":13986,"Ġdeprehendi":13987,"Ġsextus":13988,"landitiis":13989,"Ġdelectantur":13990,"Ġinciperemus":13991,"Ġeffecit":13992,"Ġmeliore":13993,"Ġnobiles":13994,"ĠNovo":13995,"Ġcupiditates":13996,
[...]
